#version: 0.2
Ġ t
Ġ a
h e
i n
r e
Ġt he
o n
e r
Ġ o
a t
Ġ s
e n
Ġ c
e s
Ġ w
i s
n d
i t
o r
Ġ p
a l
Ġ b
a n
e d
Ġo f
Ġ f
in g
Ġ in
o u
a r
Ġ m
Ġa nd
Ġt o
i c
Ġ d
i on
l e
r o
a s
Ġ h
en t
Ġt h
c t
Ġ e
i l
Ġ re
o m
v e
Ġ l
s t
Ġ n
â Ģ
l y
Ġb e
Ġ is
Ġ T
s e
o l
Ġ g
at ion
i m
i d
e t
u t
c e
u r
o t
r a
c h
o w
Ġf or
i g
Ġ A
Ġ u
Ġ S
Ġth at
Ġ on
Ġs t
v er
Ġ y
i r
Ġ C
Ġ I
u l
a y
a m
Ġa s
it h
e l
Ġp ro
a d
he r
Ġa re
Ġc on
Ġa n
Ġw ith
Ġy ou
i f
Ġ it
Ġw h
Ġo r
Ġa l
o d
t er
Ġ M
ĠT he
Ġ (
m ent
g e
t h
Ġ P
Ġ 1
o p
at e
er s
is t
Ġd e
i es
es s
a b
il l
Ġ he
Ġe x
Ġ B
âĢ Ļ
u s
e ct
o re
Ġw e
Ġc om
Ġs u
it y
es t
a c
i ve
re s
Ġh a
u m
Ġ H
k e
l d
ro m
Ġ v
o s
e m
an t
Ġb y
i v
q u
a in
Ġ W
n t
p p
Ġa t
Ġc an
ig h
u d
Ġ D
Ġw as
Ġ E
Ġc h
Ġf rom
o c
or t
a nd
Ġ r
Ġn e
Ġ R
i al
Ġ F
Ġs e
u re
Ġ 2
Ġ âĢ
u n
Ġn ot
Ġ le
ic al
Ġ G
ar t
Ġha ve
Ġ N
r i
o g
Ġ L
Ġs h
Ġ en
Ġs p
Ġth is
p t
igh t
Ġa b
Ġw or
r ou
ic h
al l
re d
ion s
0 0
t her
ou ld
T he
d u
om e
o st
ou r
g h
Ġ im
at ed
p er
in e
Ġu s
a g
Ġp l
ou t
a ct
Ġthe ir
ar d
f f
el l
id e
Ġin t
p l
as t
Ġ O
e ar
Ġyou r
an s
a ge
a k
u st
i z
Ġwh ich
Ġ k
ou s
Ġw he
Ġthe y
e c
Ġ J
o od
Ġ U
ul t
Ġa d
Ġin c
Ġal l
i b
Ġcon t
Ġw ill
en d
ĠI n
c c
r u
Ġd is
Ġm ore
âĢ Ŀ
Ġcom p
Ġre s
ve l
on g
ation s
a p
i p
i a
Ġh as
e re
e w
s o
or m
at er
Ġd o
ar y
a re
ab le
ĠT h
en ce
il d
Ġm an
Ġo ther
Ġc l
u al
k s
Ġb ut
r y
Ġwe re
Ġim p
ent s
ĠâĢ ľ
in d
Ġt e
Ġp er
e p
a ch
an ce
Ġal so
Ġm e
ig n
re at
Ġon e
a ke
o se
as e
a v
res s
a u
as s
ct ion
' s
Ġs o
it ion
Ġ1 9
Ġo ut
Ġ j
ic e
on e
Ġu n
Ġa pp
b er
im e
ver y
Ġa r
Ġab out
Ġst ud
Ġe v
Ġp art
a ce
en s
ou nt
or d
or y
Ġin f
i re
ac k
o k
) .
ĠS t
Ġp e
Ġwh o
is h
Ġs y
am e
u e
Ġthe m
or s
u b
i ke
Ġcom m
Ġs c
c es
Ġh is
an g
it e
ol og
ou nd
n ow
Ġ K
Ġp re
Ġbe c
ĠI t
re e
Ġm ay
Ġu p
l ow
r ic
i le
i e
if f
Ġ qu
Ġth an
op le
Ġs ome
Ġre c
ay s
Ġy ear
a il
at es
Ġbe en
nd er
Ġwhe n
ing s
ĠC h
Ġ "
Ġthe re
Ġit s
Ġt ra
Ġ2 0
i an
re n
Ġwor k
Ġint o
Ġg o
Ġo ver
Ġa g
ou gh
m er
Ġt ime
ĠTh is
p h
er v
Ġthe se
Ġpe ople
t e
Ġd iff
on s
ver s
Ġh ow
r it
l ud
al ly
Ġcon s
au se
rou gh
if ic
Ġ V
Ġ ro
Ġt r
Ġ 3
Ġu se
Ġo ur
ter n
Ġc ol
on d
m s
l l
Ġ ra
Ġbe t
o ve
Ġa ct
Ġl ike
al th
it ies
y s
w e
Ġh ad
in t
Ġm ost
Ġu nder
le ct
Ġk now
l ic
Ġs a
ment s
Ġ Y
ro w
i ous
Ġb l
n ing
vel op
l es
ir st
Ġa cc
Ġd es
j ect
Ġne ed
st em
Ġsu ch
ff ect
Ġw ould
o ok
Ġne w
Ġre l
Ġhe l
Ġt w
Ġ if
Ġre p
Ġinc lud
i ent
c ess
Ġan y
ation al
Ġg en
Ġhel p
o b
Ġch ild
ul ar
Ġpro du
at ive
y p
at ing
p le
he d
c ed
Ġpro v
Ġwh at
Ġus ed
Ġp h
Ġp r
Ġin d
Ġon ly
o v
Ġde velop
o ol
Ġn o
Ġa m
Ġman y
Ġof f
Ġth rough
Ġsp ec
) ,
Ġf e
Ġf irst
is e
at h
Ġd i
os s
rou nd
Ġre g
ar k
Ġa c
ĠU n
Ġex p
f ter
et h
n e
ic s
Ġe m
ur ing
f ul
Ġsy stem
er m
is s
Ġdiff ere
u c
t s
Ġp o
ri b
he n
ot h
ro p
al s
il ity
in k
Ġtw o
Ġde c
ol d
Ġo b
as ed
ib le
Ġas s
Ġad d
t en
an ge
u res
Ġat t
Ġsh ould
Ġs ur
if e
ĠâĢ ĵ
Ġw ell
ow er
Ġw ater
ra ct
f ore
I n
ar ch
Ġf l
b le
ĠH e
Ġsu pp
we en
Ġ20 1
er t
n g
Ġin v
g an
Ġre m
ra m
Ġhe alth
ow n
w n
Ġc o
Ġyear s
Ġh igh
Ġs m
Ġsu b
Ġ -
c y
se l
Ġbet ween
Ġ 4
Ġ2 00
it s
ad e
i ed
Ġc ould
he s
ic k
Ġp res
Ġwhe re
il y
ut ion
e ver
Ġtr ans
Ġm ake
ch n
Ġimp ort
Ġg et
Ġb u
olog y
u ch
a w
Ġ her
ant s
Ġ 5
f orm
s s
x t
i ence
ur al
Ġre se
id ent
Ġp ers
Ġm od
Ġin ter
Ġe ar
ch ool
t ing
in s
oc i
Ġin st
it ed
Ġfor m
in es
Ġp ol
Ġn um
Ġex am
e f
mer ic
Ġdis c
Ġdiffere nt
Ġle ar
Ġe ffect
Ġc ar
Ġex per
at a
Ġbec ause
on t
l and
Ġinc re
n ess
Ġf ound
ist s
Ġl ong
ic t
Ġwor ld
Ġev en
ual ly
Ġt yp
Ġs im
h at
Ġa fter
Ġthe n
Ġl ar
Ġd et
Ġw ay
Ġc ount
Ġs ign
o y
Ġm ed
Ġj ust
at ure
ce pt
Ġc ent
ak ing
g y
Ġ very
Ġh um
Ġinf orm
Ġres p
f t
g et
v ent
Ġv ar
is m
ical ly
ot her
Ġ ed
ur n
Ġp at
Ġgen er
Ġ ke
Ġre f
iv es
et y
Ġse e
i vers
ol low
ĠA meric
Ġth ose
ar m
Ġres ult
Ġpro cess
p s
as es
Ġe very
u es
Ġex t
c k
c er
Ġpro g
Ġf act
i ew
Ġp ub
Ġsa id
Ġchild ren
Ġ1 8
Ġte chn
Ġse c
Ġe ach
om m
Ġimport ant
Ġl oc
ru ct
or k
od y
Ġc all
ir on
Ġbe ing
Ġc a
ag es
Ġg ra
Ġm on
l ed
d s
Ġre qu
. âĢĿ
Ġl ife
Ġc re
Ġf ood
iz ed
Ġs et
Ġcomm un
t le
Ġm uch
T h
Ġpart ic
ĠW e
Ġ ent
c ent
Ġd ist
v ed
Ġle vel
Ġs he
ic es
Ġar t
Ġde f
ĠA l
Ġf am
Ġstud ents
at her
ver n
Ġs k
. .
Ġde p
Ġo wn
im es
Ġd uring
ĠThe y
ĠP ro
Ġle ad
w ard
iz e
Ġre ad
Ġinform ation
Ġf ollow
ĠA s
an y
ect ion
Ġa ut
Ġ 6
Ġm y
Ġg row
Ġd ata
e g
. ,
Ġstud y
Ġdo es
Ġm ade
Ġa v
Ġst r
Ġpro ble
Ġr ight
g g
Ġg ood
Ġf ind
Ġs ame
Ġc ur
Ġin s
Ġm in
Ġen d
Ġpers on
t he
on om
Ġb oth
h ip
st and
2 0
ĠI f
Ġc he
Ġs chool
Ġus ing
t ed
v iron
Ġb ack
al ity
iv id
re ad
Ġh ist
ent ial
Ġg rou
ĠA n
Ġex pl
al e
1 9
ĠH ow
u nd
Ġsh ow
Ġm ain
Ġbe fore
i o
Ġt est
Ġcomp le
oc k
Ġp op
Ġsm all
Ġt reat
ĠF or
Ġs ol
Ġc or
Ġof ten
Ġg l
in ce
in ed
Ġpro t
Ġv al
Ġb o
i en
in al
ro l
Ġwh ile
t y
Ġdis e
e x
Ġl ess
Ġp oss
i el
im ate
Ġt ake
ĠA r
Ġor gan
Ġs erv
i x
Ġb r
Ġd ay
n ce
Ġag ain
ak es
ar s
a x
Ġr is
ut e
ĠI nd
er gy
00 0
Ġl it
Ġe c
Ġprov id
| |
Ġo cc
Ġb ody
d ition
d er
is hed
Ġm em
Ġdes ign
r al
Ġre du
om en
Ġst ate
viron ment
ĠS p
i er
o h
Ġp ower
Ġn ow
Ġrese arch
Ġnum ber
Ġv is
Ġact iv
Ġf un
i qu
Ġc ell
v es
a ir
ul ation
ĠN ew
oc ial
Ġhum an
Ġha nd
Ġh im
Ġ1 0
Ġsupp ort
iv ing
Ġa round
ĠS c
i um
ur y
Ġcl ass
ire ct
Ġch ar
it al
Ġbe l
Ġm ust
Ġd own
ivers ity
ter s
u p
Ġcomm on
Ġst art
Ġth ree
v en
Ġc le
e red
Ġl ook
a h
her s
Ġe lect
Ġ est
act er
Ġpl an
Ġg reat
re nt
d ay
v ing
Ġgo vern
Ġpo int
ro ss
Ġc are
Ġ 7
c l
a ve
Ġs er
Ġcon f
ĠR e
âĢ Ķ
g er
ĠB ut
us s
ain s
Th is
Ġcont in
Ġrep ort
ou se
, âĢĿ
Ġunder stand
a j
sel f
Ġinclud ing
Ġexam ple
it ions
Ġlar ge
ion al
ĠY ou
or n
ra in
Ġall ow
Ġd id
r on
Ġad v
Ġ 8
ater ial
c om
Ġbu ild
ivid ual
an c
g en
Ġe qu
Ġl and
Ġm et
a red
ĠThe re
ĠA nd
ul l
âĢ ĵ
Ġo p
as h
n er
w ay
Ġcon st
Ġp ract
r ies
iv en
el s
es p
Ġbe h
Ġre t
e e
iz ation
Ġth ough
Ġknow n
Ġs om
1 0
Ġe as
ĠâĢ ĺ
Ġpub lic
Ġst ill
Ġed uc
Ġ 9
Ġd r
id s
Ġt em
Ġc our
et s
ere st
ial ly
Ġw rit
Ġg u
i red
i ver
Ġcall ed
ou th
d e
our ces
om s
i od
it ive
Ġapp ro
Ġqu est
ĠThe se
Ġpl ace
Ġth ink
re en
Ġprodu ct
Ġind ividual
ect ed
Ġm ight
an k
en g
os ed
er ing
Ġf ew
ĠW h
âĢ ľ
Ġ ide
Ġch ang
Ġst and
ff ic
Ġen vironment
Ġimp ro
pt ion
m e
Ġca us
Ġw ant
Ġm at
Ġm aterial
Ġis s
Ġp ur
l ish
Ġpro ject
in c
Ġch ange
Ġde m
Ġwith out
t t
ra ph
in ation
Ġc ap
Ġp ot
Ġdevelop ment
Ġ .
Ġl ight
r ation
Ġsy m
Ġpres ent
Ġim m
b ers
ag n
Ġph ys
i or
ang u
ert ain
Ġb en
ĠI s
Ġwith in
Ġ ve
as on
en se
Ġ19 9
in ess
eth od
Ġdise ase
ou n
ord ing
Ġs ocial
Ġen ergy
Ġ ident
Ġpro f
ĠE ng
. "
Ġlear n
Ġpl ay
ab ility
Ġm us
Ġb re
Ġd on
Ġs l
l ine
iv ed
Ġs it
are nt
Ġare a
ĠD e
m an
Ġ &
Ġa ir
ill ion
Ġe t
ĠAmeric an
Ġp os
al k
s c
l ess
Ġd irect
Ġen g
ĠUn iversity
Ġinclud e
Ġbl ood
Ġvar i
olog ical
Ġh ome
ent al
Ġp ass
Ġan other
er al
Ġc ult
or th
Ġint erest
Ġan t
Ġris k
at ural
p r
Ġbel ie
Ġb est
Ġan al
b s
if ied
u g
Ġme as
ro du
Ġm ark
Ġp ain
if y
Ġb as
er c
Ġre st
Ġbec ome
ent ly
cc ess
I t
Ġan im
t on
in ing
iel d
Ġo pp
i ans
Ġl ow
ain ed
Ġbet ter
Ġpro per
our ce
ill s
at ic
Ġcont rol
ĠA d
ĠHow ever
aj or
Ġse ver
Ġec onom
Ġw omen
Ġdes c
at s
a z
i ents
Ġgovern ment
Ġprov ide
ĠC on
w ays
Ġke ep
he re
Ġin du
Ġo ld
id er
Ġprog ram
ar c
Ġm ethod
w are
Ġear ly
st r
Ġc ause
is ion
' t
ĠS h
Ġp ar
Ġhe re
Ġle g
i k
l ished
Ġo per
Ġf ore
Ġre al
h or
Ġm ove
Ġhist ory
Ġinf l
Ġto o
Ġl ast
Ġw ar
Ġav ail
Ġbe g
Ġm il
Ġb us
iss ion
ra p
ĠP h
Ġsec ond
Ġfam ily
or ies
ent ion
Ġt re
Ġme ans
Ġocc ur
Ġagain st
o id
e ed
Ġe le
Ġgrou p
t o
Ġinv ol
Ġpartic ular
Ġben ef
Ġposs ible
er n
Ġu nt
e ad
ic le
Ġl aw
Ġper form
Ġsa f
Ġor der
Ġper cent
Ġsign ific
Ġadd ition
v iew
ard s
Ġlear ning
Ġt er
Ġl angu
Ġh ig
ĠR es
Ġcur rent
ĠE x
Ġsever al
pl es
Ġper iod
Ġto p
Ġs ay
og raph
am p
Ġf in
Ġa ffect
c le
ĠC l
p ect
Ġc ost
Ġde v
Ġm ajor
Ġ1 5
ĠW hen
is ed
Ġ [
Ġspec ies
Ġc al
Ġpro m
ĠUn ited
r ist
u se
Ġab le
ot e
Ġne ar
Ġn on
Ġme an
og n
Ġor ig
Ġha pp
ĠâĢ Ķ
Ġl im
p ar
at or
ĠC ol
Ġare as
Ġth ings
Ġfe el
Ġtreat ment
Ġother s
Ġs ince
b r
p ort
id ence
Ġsc ient
Ġe l
u rop
ĠT o
ĠS e
Ġ Q
an e
in a
Ġm en
Ġop en
Ġcount ry
o f
Ġam ong
ĠG od
th ough
ĠP l
Ġpl ant
s y
Ġb ased
Ġpre vent
re t
os p
Ġacc ess
Ġavail able
c ing
Ġs ays
end ed
Ġd el
Ġ Z
ĠC an
Ġhe ad
Ġf ac
W hat
el f
il ar
end s
Ġfollow ing
w w
Ġmon th
Ġcon d
Ġc r
ot s
Ġf re
oc us
ur ther
Ġt imes
Ġwe e
Ġn ame
l ing
Ġl o
Ġc ase
b e
Ġcon n
Ġlevel s
Ġl ab
Ġcom e
Ġm ar
om p
an ces
Ġc ertain
ĠA t
Ġtyp e
ab ly
Ġn atural
ĠSt ates
Ġb i
Ġproble m
ĠC omm
o le
o int
pl oy
Ġc reat
Ġf our
Ġst ruct
o x
Ġa ge
Ġr un
Ġimp act
un e
Ġsignific ant
urop e
Ġf ree
Ġl ist
W e
op e
ĠE n
Ġ ess
Ġp ost
Ġin tern
on es
Ġg r
Ġsu ccess
Ġloc al
am es
Ġp ress
ic ult
Ġyou ng
Ġ1 7
Ġam ount
ress ion
Ġob ject
I f
Ġb ro
Ġd ue
w ork
Ġh ard
Ġlit tle
Ġp ut
Ġproble ms
p or
Ġ1 2
a per
Ġb ir
Ġcell s
ut ure
Ġv iew
Ġm ult
Ġm aking
Ġre ce
eth ing
at ory
Ġass oci
Ġinv est
ol ution
gg est
h y
Ġsystem s
ate ly
1 2
, "
Ġunt il
ĠT e
Ġch o
Ġv ol
Ġf ar
Ġpot ential
Ġv ir
ort un
Ġh y
Ġle t
id es
ĠC ent
Ġg iven
Ġs w
ĠE urope
1 8
ĠU S
Ġf ocus
Ġdet erm
Ġlike ly
Ġt urn
ĠN ational
Ġbeh av
ĠB e
led ge
ĠA f
Ġsh ort
o ver
Ġc ir
Ġb ook
Ġf il
it her
n ot
res ent
Ġsu ggest
Ġl ater
Ġincre ase
Ġcomp ut
ure d
Ġcons um
age ment
Ġtem per
st it
Ġf low
Ġfun ction
g ed
Ġcre ate
o ks
he m
ic ation
Ġresult s
Ġtechn ology
ap s
Ġd ays
A s
end ing
ĠO r
ĠF r
Ġal ong
Ġse em
Ġsom ething
Ġcommun ity
Ġlangu age
Ġra d
ĠW hat
ak en
Ġob s
Ġapp ear
f ace
ic ro
Ġcom b
as ter
Ġhe art
Ġal ways
oci ety
Ġspec ific
Ġdiff icult
as ing
ec ially
Ġbus iness
Ġpol it
v ious
em ber
Ġeduc ation
a f
Ġd ra
Ġ 0
Ġexper ience
ĠO n
Ġvar ious
Ġeffect ive
ĠW or
Ġsp ace
Ġde ath
Ġneed s
Ġcond itions
ain ing
Ġre le
Ġcour se
Ġen c
Ġte ac
Ġm illion
Ġto day
Ġcle ar
Ġcan cer
ĠA ll
Ġp ast
il ities
ĠCh rist
our s
ap e
Ġus ually
Ġ $
Ġf uture
pt oms
Ġchar acter
5 0
Ġg ive
r ing
Ġhig her
H ow
Ġp arent
Ġcount ries
ĠB l
Ġd am
The re
Ġapp lic
ri ed
a pp
oh n
esp ecially
Ġaut hor
Ġs ing
id d
Ġdisc uss
Ġwh y
at ors
Ġstr ong
Ġwor ds
Ġex ist
Ġc y
Ġspec ial
Ġ ill
Ġe y
et ic
ra y
Ġac ross
Ġimpro ve
Ġ1 6
ob al
ĠS o
Ġsim ilar
is c
n ed
ru ction
Ġne cess
Ġpop ulation
rib ut
Ġchang es
Ġprof ess
iqu e
1 1
Ġcent ury
ore d
Ġto ol
Ġbeg in
ort s
Ġb rain
l er
Ġt ry
Ġl ine
Ġc rit
Ġresp ons
Ġpat ients
Ġm ot
Ġab ove
one y
ĠM ed
ru g
Ġto get
Ġrec ord
Ġtoget her
m in
ate g
S t
Ġrequ ire
Ġne xt
m it
Ġpro p
Ġs ide
Ġ er
Ġle ast
Ġg re
Ġdesc rib
am m
Ġhow ever
Ġas k
b y
Ġest ab
Ġwork ing
av es
ĠG erm
m ost
Ġwor ks
at ch
Ġw ays
Ġs ens
Ġen ough
is on
sel ves
ys is
Ġne ver
Ġt ru
ĠE ar
ĠAf ric
om es
Ġcons ider
Ġ especially
Ġc ases
c ul
Ġm ov
Ġeffect s
ac es
Ġtyp es
od e
Ġen s
Ġk ind
Ġcomple te
Ġn et
i res
Ġle ft
ac y
_ _
ĠB rit
Ġa way
Ġgener al
Ġche m
it ing
Ġrel ations
Ġrese arc
s p
Ġpl ants
il t
n al
Ġte am
le t
s w
Ġke y
om an
ch ie
f or
Ġo pt
Ġcol le
Ġstud ies
g es
th ing
Ġprodu ction
Ġphys ical
/ /
Ġt erm
al es
ach ing
Ġprot ect
le ment
ĠS y
Ġinfl u
ar ing
or ing
Ġpr im
al f
Ġd ig
o ot
s ide
Ġgo ing
Ġro le
Ġch all
du ct
ab les
Ġ '
Ġsym ptoms
un g
Ġl ower
Ġf ull
ĠS ome
i pp
Ġh ouse
Ġha ving
a im
Ġs elf
h ing
Ġst ep
Ġ19 8
Ġcon cer
u ment
Ġn orm
at ures
Ġm ind
Ġn ut
Ġf urther
Ġknow ledge
Ġpol ic
: //
A n
Ġl ive
ed i
Ġm akes
Ġp red
Ġsub ject
ĠW ar
a e
le y
ac c
ific ation
2 00
read y
is ing
Ġbec ame
Ġsc ience
Ġ z
ist ic
Ġwhe ther
Ġre ason
Ġg round
Ġsu re
Ġr ange
ĠW ith
F or
Ġe ff
Ġqu ality
Ġ3 0
Ġl ot
3 0
an n
Ġacc ount
u ed
Ġgrow th
ĠJ ohn
Ġsu m
b on
Ġindu st
ver age
ĠEng lish
en cy
Ġc ity
Ġproduct s
Ġte xt
Ġmod el
Ġrep resent
Ġgrou ps
i ol
Ġres ources
ib ility
Ġf und
ur ch
ĠWor ld
Ġb ig
Ġto ward
Ġst at
Ġactiv ity
1 5
et er
a pt
ĠG o
Ġval ue
Ġind ic
it es
re l
ĠL e
Ġquest ion
Ġactiv ities
Ġst ory
sy ch
u ation
a ut
N A
Ġredu ce
ĠO ne
Ġa chie
os is
ĠTh at
Ġal ready
Ġre ally
Ġem ploy
Ġse en
Ġf all
.. .
ere nce
Ġd one
Ġsk ills
ĠG en
ou ra
Ġl oss
Ġdevelop ed
Ġcl ose
iv ity
Ġbe low
Ġw r
i ation
Ġiss ues
ĠHe alth
l o
Ġcir c
ur ity
ir d
Ġrec ogn
f act
et imes
Ġcl imate
Ġre d
Ġoff ic
Ġev ent
1 6
Ġw ind
es c
ot t
Ġtra dition
Ġart icle
re am
ĠG e
Ġpartic ip
m ber
Ġbuild ing
Ġn ational
ur b
au gh
ĠIn tern
ove red
Ġfl u
ĠB y
il s
E R
p ut
Ġde g
Ġe ither
ĠI m
Ġ1 4
as k
1 4
Ġr ate
Ġs ite
Ġpro b
ĠC ar
Ġin it
ip le
Ġwor d
W hen
Ġs ource
and s
ĠT r
Ġab s
le ep
1 3
Ġf ield
Ġacc ording
Ġp aper
Ġb at
Ġph ot
v al
Ġsur face
Ġrec omm
ffic ient
Ġne g
Ġr ather
ide red
iv al
ĠA m
Ġobs erv
am in
Ġmark et
u nt
Ġ =
Ġf ive
Ġto t
Ġon ce
ag ing
1 7
Ġsing le
Ġp ay
Ġme et
Ġcol lect
Ġan n
ĠC al
Ġd rug
Ġcon cept
ĠM ar
ear ch
ĠN orth
er y
ĠS he
Ġquest ions
ric t
ro ll
Ġincre ased
ra ms
Ġs ize
Ġmaterial s
ight s
f er
ip s
pl ic
Ġadd ress
Ġmed ical
Ġunderstand ing
Ġf ail
i am
ub lic
re ct
Ġst ress
Ġmem bers
re me
Ġc ut
Ġd om
Ġsk in
Ġt aken
Ġpro te
Ġassoci ated
Ġf ri
Ġdet ail
Ġwho le
Ġcons idered
ĠA b
Ġresearc hers
op h
Ġcre ated
Ġmain t
Ġs ound
se qu
Ġpress ure
Ġanim als
Ġl iving
ĠM ay
u le
ĠS outh
Ġfre qu
Ġm ass
iv il
ĠD r
Ġev idence
Ġn ature
Ġh tt
ĠA ss
or g
Ġup on
Ġf r
ĠP r
Ġwh ite
Ġsu n
Ġthem selves
Ġpract ice
Ġw ide
en ing
Ġess ential
Ġhealth y
Ġint rodu
s h
y m
ep end
ens ive
p ro
ĠR ep
ill ed
ut ions
Ġcan not
Ġopp ortun
Ġwee k
Ġt ell
Ġcomple x
Ġserv ices
Ġneed ed
Ġrelations hip
âĢ ¦
Ġad ult
ĠAmeric a
re g
Ġab ility
Ġd est
Ġhist or
ĠSt ud
Ġst ates
Ġqu ick
Ġcom es
Ġrequ ired
Ġdo ct
l ike
Ġs al
Ġpur p
Ġdi et
Ġeng ine
Ġh old
Ġc ame
Ġent ire
o on
Ġav oid
Ġm oney
Ġeconom ic
Ġfact ors
Ġindividual s
our nal
Ġrel ated
Ġl ay
Ġret urn
Ġcol l
Ġp ort
Ġ19 7
Ġs ent
Ġcon dition
Ġact ually
Ġsim ple
Ġprovid es
is es
ib r
Ġm icro
o ber
Ġg as
Ġass ess
Ġgl obal
ĠA ust
Ġ ver
ac ks
Ġman agement
h ib
it ud
Ġpolit ical
Ġide a
Ġrel ig
Ġ1 3
C h
y l
Ġfam il
Ġexper ien
g ing
a i
T o
ĠG u
Ġpub lished
Ġmod ern
Ġmonth s
ne y
Ġpart s
Ġc at
Ġf at
ac ed
Ġex erc
Ġd oc
ĠY ork
Ġ vers
ĠM an
A l
Ġo il
y n
Ġbl ack
ve re
Ġstud ent
Ġthough t
Ġsp e
iz ing
Ġd og
ol l
Ġre act
ur s
Ġan sw
Ġappro ach
b o
us h
ed s
Ġf ish
art ment
os es
g o
b ased
Ġso ft
Ġar ch
Ġit self
g est
Ġal most
en n
Ġnecess ary
. )
ra d
um p
ĠA ct
Ġm or
ag ed
ch an
Ġl a
en ed
u el
ab or
Ġ X
ig ure
p ly
Ġh alf
Ġp ath
Ġprodu ce
Ġanal ysis
Ġpat tern
ore s
er ve
) :
ol ic
ĠEar th
em ic
Ġj ob
Ġpr iv
Ġf ire
Ġparent s
Ġar g
en ces
Ġcle an
row n
Ġsu ff
Ġg reen
Ġindust ry
ic les
Ġs ociety
Ġl ink
Ġs am
Ġc op
Ġwe ight
ect ions
ly ing
Ġmeas ure
I D
Ġsu per
Ġso il
Ġreg ion
S A
us ion
Ġcomp any
e b
Ġt ar
ĠD ep
Ġincre asing
W h
Ġright s
ĠC ont
Ġt aking
Y ou
ĠH is
idd le
h old
Ġe mer
Ġ1 00
Ġthrough out
Ġbe gan
n ces
Ġread ing
Ġperson al
Ġchem ical
m b
on se
p id
Ġlit er
it ation
Ġto ok
Ġcon duct
Ġmed ic
Ġe ver
Ġreg ard
ir m
an ced
Ġcont ent
in ter
z e
ĠD o
Ġre pl
Ġdi agn
Ġtemper ature
m a
Ġcomput er
Ġcl aim
ict ion
ĠC omp
Ġf arm
ĠSt ate
es e
Ġfe ed
ut es
Ġpop ular
it ary
Ġh ours
Ġb ur
Ġh ab
Ġtot al
c ient
Ġy et
Ġs ense
Ġbenef its
Ġrec ent
Ġtra vel
ĠH ist
Ġin j
Ġar r
Ġthe rap
Ġb ar
Ġs leep
Ġserv ice
ĠF l
Ġ ut
Ġa ction
Ġ5 0
Ġm ach
Ġr ul
em pt
er ous
Ġg e
Ġst op
ail y
Ġinter act
" .
Ġse par
m on
cc ording
Ġlong er
um e
Ġl ives
y le
Ġtra ining
ric ult
ren g
Ġt alk
Ġshow s
Ġstruct ure
uc k
he t
i et
Ġmat ter
Ġbehav ior
es tern
Ġbu ilt
ar r
Ġbre ak
Ġhe at
ive ly
Ġsp read
ful ly
ĠJ ew
ĠCan ad
im ent
Ġpre vious
ast ic
ĠWh ile
Ġon line
c hes
Ġhe av
ĠC o
ri pt
ĠN e
Ġsaf e
Ġenvironment al
Ġcont act
Ġs ix
Ġpos ition
Ġ19 6
E S
Ġprovid ed
in ary
a ff
Ġpre c
Ġpr inc
ist ance
Ġwrit ing
le x
w h
Ġeas y
Ġcaus ed
Ġter ms
Ġmean ing
Ġsur v
Ġc e
Ġcaus es
rop ri
Ġche ck
Ġ2 5
A T
ul ations
ist ics
Ġsh own
Ġmus ic
ĠBrit ish
ĠC O
Ġschool s
ĠA fter
av ing
Ġs at
Ġreg ular
Ġpos itive
Ġw ild
Ġb acter
Ġinclud es
Ġdesign ed
Ġcar bon
Ã ©
Ġth ing
Ġtru e
en e
ap an
Ġbr ing
Ġmethod s
ron ic
ĠE m
min ist
Ġens ure
Ġcont ain
land s
ĠP e
l t
Ġde ep
ow s
Ġre v
Ġrel ative
Ġa verage
Ġet c
ri or
Ġl if
Ġcult ure
Ġse x
Ġcomp an
as c
Ġcon c
Ġhelp s
h ood
Ġv ide
Ġ1 1
ed eral
ĠP ar
Ġl ove
u fact
n s
ĠRes earch
Ġvari ety
st er
Ġex c
Ġcol or
Ġelect ric
Ġe at
Ġsim ply
ve y
Ġdam age
Ġ |
d om
m y
ĠI I
Ġident ify
it or
Ġf em
Ġbelie ve
Ġint eg
ĠS chool
Ġev ents
Ġv iol
Ġac cept
r ast
ĠS u
Ġstand ard
Ġgre ater
Ġear th
imate ly
Ġs low
Ġb al
Ġscient ists
ver se
Ġorig in
Ġdis ord
c hed
ĠN o
Ġf ace
Ġs ources
n ers
rough t
at ives
Ġiss ue
Ġresp onse
Ġinvol ved
ar ies
ar ily
ĠIn stit
Ġl ed
er ation
Ġst reng
Ġchall eng
g ar
Ġtar get
Ġfood s
al ing
Ġsom etimes
Ġme chan
k now
Ġf ru
ad es
Ġus es
Ġenc oura
eng th
Ġp sych
A R
Ġreport ed
Ġresp ect
Ġcomp et
ĠInd ia
is ter
ab et
2 2
Ġem ot
ell ing
Ġth reat
Ġdo ing
Ġre view
Ġsub st
he l
Ġcomp on
ac hes
Ġrem ov
B ut
Ġst e
Ġnorm al
Ġpol l
os ition
Ġorig inal
Ġc ust
Ġt end
ĠM in
Ġprog rams
Ġ- -
ial s
am ed
Ġmove ment
ra nd
uc le
erv ation
n ew
Ġatt ention
Ġl ack
Ġ19 4
Ġparticular ly
Ġout side
Ġnet work
ĠK ing
Ġh arm
l ight
Ġanim al
ĠP er
Ġdem on
Ġem b
ct ions
Ġext reme
Ġfor ms
Ġsu st
I N
ĠJ apan
m ing
Ġdevelop ing
Ġgrow ing
Ġ Â
Ġref er
Ġ ir
id ge
Ġvir us
Ġfore st
Ġt ax
Ġsh are
Ġimp lement
Ġser ious
Ġse lect
iss ions
du c
ĠP res
ren ch
Ġp ict
Ġprodu ced
Ġpo or
Ġwrit ten
os ure
em s
Ġp le
Ġp age
Ġw ood
ĠA pp
Ġcontin ue
ro om
ac hed
Ġgener ally
Ġc amp
Ġo x
im um
ol es
u ge
o or
Ġde b
Ġm agn
ĠQ u
ĠS ec
Ġvis it
um b
ie f
Ġcons ist
Ġman ufact
Ġdoes n
Ġl ate
ir it
Ġ /
Ġl og
Ġpat ient
Ġd aily
Ġwe bs
Ġa ff
Ġatt empt
Ġteac hers
2 5
r ated
Ġl at
Ġapp l
os ing
Ġhy d
ĠW ill
se t
Ġbas ic
Ġk ids
ĠCh ina
Ġdef in
Ġfe et
Ġim age
ad s
ĠSc ience
Ġsaf ety
Ġa ware
Ġcol on
Ġget ting
f ect
op s
Ġfor ce
im in
ĠM e
Ġve get
Ġintern ational
Ġcor rect
Ġa p
Ġtool s
is ions
Ġind epend
Ġmed ia
Ġnum bers
Ġinclud ed
Ġfin anc
ien cy
ĠA g
Ġag o
ĠI nt
ograph y
Ġe th
h a
er g
ĠAust ral
ĠE d
Ġdra w
Ġser ies
ĠP re
Ġprob ably
r s
Ġc ra
Ġdis pl
as ons
Ġallow s
Ġthere fore
Ġeas ily
i ot
Ġt iss
Ġcon cent
ec ause
ĠM any
Ġcompan ies
ĠA ug
w here
c ies
Ġpolic y
Ġ2 4
Ġs qu
o ly
Ġth us
g round
Ġm other
id ed
Ġt akes
Ġsome one
Ġexp ress
- -
Ġdeterm ine
vent ion
rib ution
Ġtradition al
Ġatt ack
Ġd ou
Ġpre p
Ġoff er
Ġear l
o es
y ing
ut h
Ġco ver
Ġb ab
Ġc oun
Ġun ique
Ġm ental
ĠC ount
Ġapp ropri
e xt
ter m
ce ll
Ġperform ance
Ġn ight
Ġm ess
Ġinvest ig
Ġcomm it
ĠY our
Ġest im
an ks
an cy
Ġhum ans
Ġachie ve
Ġv it
Ġsp eed
ĠC ons
ĠEurope an
ww w
Ġpr int
Ġw all
Ġinf ection
Ġstart ed
Ġlook ing
Ġide as
ens ion
Ġf ul
ell ow
Ġev al
Ġw arm
Ġr out
t ies
ĠJ u
Ġinst ead
ĠM ore
Ġref lect
I S
l s
o very
Ġc ross
ers on
Ġdec re
Ġun c
h aps
Ġdiffere nce
Ġprim ary
Ġmult iple
Ġc it
Ġscient ific
Ġca pt
Ġprog ress
Ġcommun ities
Ġqu ite
Ġdise ases
ĠJ an
itud e
Ġquick ly
Ġs il
Ġlar ger
Ġn ation
Ġcomp ared
O n
if orn
Ġsol ar
Ġ ,
Ġto wn
Ġlead ers
in o
Ġadd ed
Ġsec urity
re w
j oy
Ġhe ld
Ġ4 0
Ġd ang
Ġt ree
Ġf av
ri e
Ġse a
Ġestab lished
ĠGerm an
Ġimm edi
n a
u ary
n ov
Ġtrans port
im s
Ġse vere
Ġs old
ĠCent er
iqu es
Ġal tern
Ġinst it
an a
r ate
Ġth ous
Ġpoint s
Ġbir th
Ġp ack
ĠP art
in ks
r or
om et
Ġv acc
ĠInd ian
c il
al y
Ġhigh ly
2 1
Ġbo oks
el t
ĠB r
Ġaddition al
2 3
Ġs ou
c ial
Ġas pect
i us
Ġp rior
Ġprote in
Ġspe ak
Ġth ird
Ġact ive
il le
ĠB o
Ġd iv
Ġdirect ly
Ġf a
iforn ia
if t
ĠG l
O ne
Ġhtt p
Ġins ide
Ġdoc ument
Ġg ard
Ġanal y
Ġc ivil
Ġtoward s
Ġst ay
Ġwork ers
ĠA c
Ġacc ur
ĠE l
Ġexerc ise
Ġre ve
Ġext ra
end er
ing ton
ce ed
Ġey e
b or
Ġansw er
Ġal though
O N
Ġ i
ĠM ost
Ġbeh ind
ce an
ĠInstit ute
ĠE duc
Ġso on
Ġst ra
is ms
it is
Ġcl in
ound s
s on
i ers
Ġlead ing
Ġpurp ose
Ġf oot
Ġd ry
p e
ur ies
Ġsupp ly
Ġ ur
Ġdemon str
abet es
Ġt ri
pr il
Ġthe ory
Ġac id
Ġcrit ical
Ġdem and
use um
Ġbegin ning
iz ations
ĠF rench
Ġlim ited
Ġval ues
Ġcent ral
Ġstr ateg
Ġfamil ies
Ġbro ad
Ġcont ribut
Ġb it
und red
A N
Ġlab or
Ġh ost
Ġfr ont
Ġdr ink
Ġcust om
f l
ĠO f
ĠAfric a
ĠDep artment
Ġr ates
y r
ol ar
o ke
Ġhand s
gen cy
Ġsoft ware
om ing
Ġpro ced
om b
Ġb ad
Ġmil itary
Ġa ud
S o
Ġtre es
Ġan g
ĠS m
y ond
d en
Ġneg ative
Ġst ri
Ġqu ant
od ies
ul ate
Ġf ram
v ant
hen s
ib er
Ġob t
ĠR ec
Ġexp ect
Ġprocess es
ĠCal ifornia
Ġfe atures
Ġve h
Ġag ricult
âĢ ¢
Ġen joy
ch ing
f ort
ĠR eg
Ġs us
Ġsit uation
Ġuse ful
Ġdoct or
I C
Ġseem s
Ġ201 2
ĠCh ild
Ġw ent
Ġte aching
ĠM arch
O R
Ġm om
Ġrequ ires
um an
ĠN ot
Ġ201 1
Ġon es
Ġcap ac
ĠS ch
Ġfinanc ial
Ġh ar
ĠSe pt
ĠH er
H e
Ġsust ain
he st
form ation
m ar
c oh
ĠO ct
ĠAr t
Ġcap ital
im al
ĠW est
Ġs n
Ġw alk
ĠCh ar
ĠT ra
Ġm ount
Ġvide o
Ġprot ection
Ġsol ution
ther n
ĠJ es
r ition
Ġd ark
ro gen
ĠJ une
Ġdec l
ip ment
her n
Ġb ase
ĠM on
Ġcost s
Ġwas te
Ġn ucle
Ġpriv ate
Ġinflu ence
Ġhab it
Ġse arch
Ġ201 0
ĠAl though
Ġsh all
Ġapplic ation
Ġc ard
Ġdec ision
ĠA nt
Ġh or
g n
at t
Ġtest ing
Ġf ight
Ġbl ock
m ission
ĠIntern ational
Ġs ection
c on
Ġtra de
ĠD av
Ġag ree
Ġimport ance
ĠO ther
Ġe p
Ġele ments
olog ies
Ġel se
Ġex act
ĠU s
6 0
Ġtyp ically
Ġcont ains
al t
A nd
ĠK e
ĠS erv
le ction
est ic
âĢĿ .
I V
ĠAug ust
Ġwee ks
Ġmin utes
pp er
Ġl ines
ra g
Ġdis p
Ġthink ing
Ġbacter ia
2 4
Ġproject s
ĠM us
Ġwh ose
ist ry
Ġc red
Ġadult s
Ġf ast
Ġeff orts
Ġlar gest
y ear
ĠH ere
se e
ĠHist ory
ĠH ar
Ġwr ite
Ġw a
Ġbec omes
Ġan cient
Ġappropri ate
e qu
it er
in ct
u ous
Ġnew s
b ol
c ome
d ing
Ġinter p
c ks
v est
l ife
Ġtechn iques
Ġcar ry
Ġre ach
Ġle aves
Ġl ength
Ġdev ices
ĠF rom
A S
Ġex cept
w ise
Ġad minist
ro te
ĠAfric an
Ġloc ated
Ġapplic ations
Ġh undred
il es
Ġinst all
Ġproper ty
Ġb rought
ĠJu ly
Ġj ud
Ġdig ital
Ġc ru
Ġh ot
ĠC or
Ġad j
Ġey es
r ig
Ġst ru
Ġu lt
il os
iz es
Ġtrans l
id ents
ĠA pril
Ġm ill
us ed
ri ption
ort hern
Ġl ost
Ġcreat ing
str ial
8 0
Ġdescrib ed
Ġb reat
Ġte eth
ĠD ay
Ġgo al
Ġsit es
se ct
ĠR uss
iel ds
Ġg ot
Ġ2 1
Ġc rop
Ġst age
Ġmem ory
ĠR iver
Ġim ages
ĠB ar
Ġestab lish
Ġad op
Ġe ating
Ġresp ond
Ġnear ly
s u
k ing
E N
Ġsp irit
Ġm ention
it able
Ġpl aces
ul ated
Ġra pid
Ġrece ived
Ġse ason
Ġt able
Ġen h
Ġf it
a id
ines e
h am
Ġrem ains
A C
Ġwe b
Ġc am
ĠF irst
Ġrem ain
Ġwebs ite
Ġn orth
Ġm ole
4 0
Ġtest s
Ġprovid ing
Ġconst ruction
ĠG ree
Ġaut om
yp e
' re
Ġbas is
Ġor d
Ġm ix
ĠS w
ter y
i pl
Ġsur round
ell ig
ĠT w
Ġadv ant
og en
Ġbehav i
coh ol
Ġf ather
ĠPro g
Ġfri ends
Ġg ame
Ġ ice
ar i
at ur
u k
ra el
Ġcommun ication
Ġsum mer
res h
it ect
Ġj o
ond on
Ġover all
Ġcult ural
ĠAss oci
Ġra re
Ġequ ipment
Ġb orn
Ġtherap y
rib ute
Ġorgan ization
Ġconn ect
Ġyour self
Ġpract ices
Ġsa w
Ġbe aut
Ġcon sequ
Ġf inal
he ad
Ġto ld
c les
A t
Ġ201 3
ro s
ibr ary
b it
Ġv ict
ill ing
on y
Ġaffect ed
Ġrelig ious
a ul
Ġevery thing
ou d
Ġ x
Ġe gg
Ġre asons
ur g
i ra
Ġdi ed
Ġg ives
ĠCanad a
Ġmod els
Ġp an
Ġde ad
The se
Ġany thing
ra ft
Ġexp osure
r an
Ġse qu
Ġco ast
ie ce
ĠM y
f ord
Ġsu gar
Ġ200 9
r im
Ġwe ather
Ġbenef it
Ġce le
am a
Ġad apt
Ġprofess ional
ĠIn c
Ġcit iz
ĠCh urch
Ġc ool
ar ian
Ġcommun ic
u ments
Ġrec ently
se c
w ater
m osp
B y
E D
Ġs outh
am ent
b ack
u ff
Ġ200 8
Ġc ou
Ġhim self
Ġc ode
Ġexp ected
Ġdep end
Ġteac her
i ar
ĠSept ember
m ed
Ġold er
ĠJes us
Ġrespons ible
ĠAmeric ans
ĠGo vern
ex ic
ĠEng land
ĠTe chn
Ġcent er
E x
ĠPres ident
Ġm iddle
Ġvis ual
I T
ĠG reat
Ġs on
ce mber
ĠM c
Ġh ope
Ġf uel
19 9
Ġcal cul
Ġbe yond
Ġgu id
Ġp en
Ġh ous
Ġro om
Ġnot hing
Ġgra du
oc r
Ġrecomm end
Ġim ag
Ġcol d
a ur
ĠE c
Ġmil es
c an
ĠP ark
Ġ :
e al
augh t
ĠChrist ian
t ime
Ġrece ive
Ġexam ples
Ġstreng th
Ġcho ose
e v
Ġins p
Ġeconom y
Ġd ate
ĠW ash
W ith
Ġcont roll
Ġw on
Ġloc ation
Ġd er
Ġask ed
Ġobject s
ĠL ear
ove mber
Ġstand ards
Ġk ing
Ġv ia
air s
Ġsc reen
ĠCh inese
Ġh yp
Ġf ederal
ĠP ress
est s
Ġleg al
Ġsmall er
ĠR oman
st e
w or
Ġfollow ed
ĠC om
Ġcomm and
Ġp et
an ish
Ġmaint ain
ĠE ven
ap ter
Ġeff ort
Ġopportun ity
ĠO ur
Ġpre gn
Ġant i
m en
Ġj oint
Ġt en
Ġtry ing
Ġpur ch
Wh ile
Ġr ise
Ġto x
ĠIs rael
Ġcurrent ly
Ġis n
__ __
Ġoccur s
Ġf ear
ough t
Ġc ry
ĠB i
ĠR et
Ġevery one
Ġu nd
Ġdev ice
Ġsuccess ful
ĠWill iam
en ge
Ġearl ier
Ġdi abetes
Ġset t
Ġmeas ures
Ġent er
Ġra in
re es
Ġ6 0
ĠJan uary
Ġh on
Ġt it
2 7
ic a
l in
Ġal one
Ġcommon ly
w ide
ĠC ong
ĠD is
Ġh osp
Ġdiffere nces
Ġconf lic
ĠDe velop
ĠC ity
Ġb ott
ens ity
Ġtra ck
Ġcomplete ly
Ġro b
Ġpr ice
ĠE ast
ĠEduc ation
ĠH igh
ĠOct ober
Ġs we
Ġredu ced
Ġw oman
c ious
ĠJ ournal
ul a
Ġnot e
Ġsign s
Ġro ck
Ġlaw s
ĠP ol
Ġsh ape
Ġinterest ing
c o
Ġb ul
Ġus ers
Ġm id
Ġinst ru
Ġdeg ree
ĠCount y
P A
Ġnut ri
ĠM exic
Ġpred ict
Ġhistor ical
Ġw inter
Ġde al
Ġcomm erc
ĠThe n
Ġconst ant
Ġident ified
Ġmem ber
2 6
Ġbir ds
b re
urb an
b ook
ĠL ondon
S ome
ain t
Ġappro x
Ġcapac ity
Ġpattern s
oc ks
ĠComm un
ver t
od ay
is l
Ġvir t
Ġm ax
m ore
ĠF eb
Ġelect r
ĠV al
lo ad
Ġw rote
Ġgo es
Ġrul es
or ation
Ġstep s
Ġro ad
Ġ2 3
or ge
Ġpl aced
ib ly
ĠTr ans
ing u
Ġpower ful
i ples
Ġfor ces
Ġgen etic
os y
Ġpo ly
ed om
mit ted
ĠA ccording
Ġr ich
g in
Ġdisc overed
Ġac qu
Ġf ile
Ġch urch
Ġb illion
am ic
ee ch
Ġus er
Ġs ect
Ġcont ext
Ġm ig
Ġsc ale
Ġ200 7
Ġocc up
ĠR ed
ĠSy stem
Ġcolle ction
Ġb ra
Ġmach ine
ĠR o
i able
Ġe ight
Ġt ur
ed ia
Ġn amed
o ff
og le
Ġfor mer
Ġsit u
ent y
ĠBl ack
Ġne igh
ĠV ir
Ġc ateg
Ġm iss
Ġtiss ue
ra b
at ers
it ch
Ġcom ing
Ġe ffic
Ġem issions
Ġincre ases
Ġg old
Ġac ad
Ġchalleng es
2 9
Ġlim it
Ġpres ence
rel ated
ĠWash ington
ab ilities
Ġm ob
ast e
re et
Ġcomp ar
Ġe fficient
Ġex ec
Ġallow ed
Ġst ories
Ġshow ed
Ġdrug s
Ġplan et
b l
Ġful ly
ord s
ĠDe cember
qu e
Ġrem ember
Ġper fect
ire ction
Ġstat us
Ġdest ro
Ġm is
Ġf air
Ġrelative ly
re c
ien ces
Ġin nov
Ġa st
Ġappl ied
Ġimm une
Ġcontin ued
Ġle ave
Ġform ed
Ġbab y
ies t
A L
Ġm ut
ĠRe ad
Ġat mosp
e es
hem at
Ġconst it
ger y
Ġmajor ity
Ġill ness
7 0
ĠIn st
Ġsym bol
Ġas se
Ġcompon ents
Ġchang ed
Ġr at
ĠS an
know n
Ġdispl ay
Ġw ond
oc ol
Ġr ule
Ġinc or
2 8
ĠD uring
Ġass ign
ĠS im
or age
Ġact ions
Ġwor th
Ġprom ot
Ġbal ance
Ġd en
ĠW ater
Ġm outh
Ġt ou
Ġal cohol
Ġg ave
ĠI S
Ġ19 3
Ġfact or
Ġmil k
Ġ ing
ĠGerm any
u ro
Ġd at
Ġoff ers
ĠC oun
Ġp p
al ed
o e
Ġst im
ĠS ince
tern al
Ġbo x
ph as
Ġte ach
h ab
Ġproper ties
Ġmus cle
ĠAr ch
P ro
Ġant ib
H E
l or
ru ary
A d
ric k
am b
ĠP at
ir ing
ĠH ouse
Ġappear s
Ġcho ice
ĠB ecause
Ġbre ast
I I
Ġexist ing
Ġc ities
er o
ĠM od
Ġopt ions
Ġcour t
Ġconsum ption
ĠUn ion
Ġmom ent
Ġvers ion
Ġr iver
c raft
er a
ĠS ur
Ġfru it
Ġgo als
Ġc ook
Ġill ust
i ate
Ġ201 4
ru pt
Ġper haps
Ġfem ale
Ġb all
Ġorgan izations
Ġst aff
ĠF in
ar a
re hens
c are
Ġbelie f
. ;
ĠN ovember
Ġv ill
ĠN ow
Ġstru gg
en cies
Ġmov ing
Ġpe ace
un ch
Ġt ask
Ġobserv ed
ĠD NA
Ġdid n
Ġopportun ities
Ġabs or
Ġstrateg ies
Ġmon it
Ġsignificant ly
at in
ĠL aw
Ġro ot
Ġass ist
Ġfun ctions
Ġp ow
Ġf resh
Ġexpl ore
E C
ĠA re
) ;
Ġ +
Ġfri end
Ġcoll abor
res p
Ġrun ning
Ġem p
Ġreport s
Ġs ch
Ġexp and
ĠC our
ĠU K
ĠPro t
Ġtrans fer
y gen
if ul
Ġg ir
Ġb one
Ġg iving
Ġw id
Ġgu ide
Ġm ap
Ġreg ions
in y
Â °
em y
ri ef
h ouse
Ġinst ance
Ġconst ruct
ĠJew ish
S T
ĠS ociety
Ġatt ract
Ġbl ue
Ġfor ward
c he
Ġeval u
Ġit ems
Ġun it
Ġarch itect
ĠU se
ĠJ ust
Ġev olution
ic ip
Ġte le
Ġeduc ational
for ce
Ġgard en
Ġdist ance
ĠPe ople
Ġplan ning
Ġinc ome
gy pt
Ġp iece
Ġm ission
ig en
u x
Ġt ub
Ġ19 5
od es
n es
ul f
Ġdet ect
Ġrep e
ograph ic
Ġelectric ity
u ild
Ġexper im
Ġfore ign
U n
Ġdetail s
Ġb ound
ess ion
Ġindu strial
ĠCon f
Ġa im
ĠL ord
a ign
d o
ĠAl so
B e
Ġ200 0
Ġequ al
Ġ2 6
" ,
as ion
ĠPh il
ĠAssoci ation
Ġdef ined
Ġele ment
âĢĿ ,
Ġexperien ces
y d
Ġcon vers
ĠGen eral
ĠThe ir
x i
ĠMed ic
Ġwr ong
Ġn ames
Ġexpl ain
Ġwork ed
Ġinst ruct
Ġut il
Ġb odies
Ġfind ings
Ġ2 8
Ġthous ands
Ġres istance
Ġv o
ĠPro f
Ġst yle
if ically
Ġcommerc ial
Ġqu al
Ġd irection
Ġwe ak
E T
ĠAustral ia
Ġpict ure
Ġph ilos
Ġs ac
c ast
Ġint ellig
p art
Ġhapp en
Ġ201 5
Ġsupp l
Ġcont ract
Ġb ank
Ġclin ical
ĠFr ance
Ġha ir
ĠEn vironment
as ks
Ġs oci
rie ved
rom e
Ġh uge
ed ing
Ġex cess
Ġextreme ly
Ġp ul
Ġch ance
Ġ2 2
Ġ2 7
a res
Ġf ix
Ġin sect
ud d
Ġst ar
Ġtr ust
in ated
9 0
Ġ urban
Ġres ource
Ġheav y
ward s
c ular
Ġro t
Ġpass ed
Ġm al
is ation
Ġbelie ved
Ġfil m
Ġeas ier
Ġevent ually
ch ar
pect ive
A fter
Ġse ven
Ġm ale
i ance
Ġg ain
ruct ure
Ġpl ans
Ġass um
Ġgener ation
k en
Ġf igure
ĠU N
ĠCol le
Ġrequire ments
Ġsuggest s
Ġex hib
h ors
Ġb ed
ous ly
D A
Ġv ary
Ġdec ades
Ġw atch
ĠA ut
Ġgl ass
Ġtechn ologies
ec es
id ing
Ġimmedi ately
Ġcar ried
ĠDav id
l im
Ġsa ve
Ġcele br
Ġstruct ures
Ġm o
c ont
Ġpl astic
Ġapp ly
Ġmet al
Ġsp ect
Ġn ative
Ġ200 6
ĠG reen
Ġtre ated
Ġclass room
Ġsur pr
Ġtemper atures
ĠW estern
Ġredu cing
Ġvis ion
pp ed
A ll
ĠE ach
ĠL et
Ġhig hest
Ġd ivid
Ġsepar ate
plic ations
ĠN A
Ġinfl amm
Ġlearn ed
Ġf ert
Ġcitiz ens
Ġhouse hold
The y
ĠD on
Ġfav or
ant ic
Ġsur vey
I s
Ġtop ic
Ġoff ice
ĠIntern et
ĠProg ram
Ġ iron
Ġem phas
ĠFeb ruary
Ġcy cle
ĠE gypt
om a
ĠD es
ro ph
ĠP ublic
Ġchall enge
Ġfrequ ently
ch ange
Ġassess ment
Ġconduct ed
Ġrecomm ended
Ġd yn
k y
Ġsl ight
Ġpresent ed
Ġaspect s
3 5
Ġno vel
Ġdec isions
Ġv es
Ġ201 6
al d
ĠA ng
Ġfe ature
ĠM at
Ġag g
ĠB ra
om as
Ġperform ed
Ġst orage
ĠC he
ĠC ur
Ġj ournal
ent h
Ġdisord er
Ġox ygen
Ġser ve
Ġrele ase
Ġp hen
Ġsam ple
ĠM ary
Ġinvol ves
ĠPl an
olog ist
Ġsp eech
Ġsol utions
Ġrem ove
un ction
Ġapprox imately
Ġintrodu ced
Ġp ick
ĠTh us
Ġbec oming
r is
Ġris ks
Ġinit i
ĠCong ress
ĠO ver
i ant
ĠGe orge
Ġexper iment
Ġm er
Ġconn ected
Ġdes p
Ġnucle ar
Ġd rop
P S
Ġf ig
Ġgen e
Ġcomb ination
Ġinf ections
ĠV ol
ĠIn ter
Ġaltern ative
Ġcaus ing
Ġnut rition
Ġorgan ic
Ġ200 5
Ġre ality
Ġk id
Ġestim ated
Ġsp ring
il it
A M
P h
ol id
ĠSp anish
het ic
Ġref erence
Ġliter ature
Ġbuild ings
ul um
Ġch ronic
osy stem
Ġbu y
us es
Ġtr uth
ĠWe b
por ary
at form
ĠRe v
Ġtre nd
rou p
iven ess
Ġpolic ies
Ġact ual
ĠCoun cil
im ens
ĠJ ames
Ġdep ression
7 8
Ġoper ations
Ġfam ous
Ġh omes
Ġout put
Ġset ting
Ġun ivers
Ġvit amin
m et
Ġp i
er ate
Ġh orm
C O
s es
olog ists
Ġpres ident
ur ance
ĠThere fore
Ġl iqu
Ġ â
ĠM ich
ĠW ork
Ġdist ribution
Ġst ream
R E
Ġnum erous
ke y
Ġ ign
ĠChild ren
ic ial
ere nces
te e
ĠSp ec
4 5
Ġth r
Ġget s
ag er
S h
b al
Ġany one
Ġviol ence
Ġh om
Ġbo ard
ol ved
Ġm ag
Ġ8 0
ĠM or
ogn itive
Ġst ore
Ġrele ased
Ġinj ury
Ġdestro y
Ġis ol
Ġal g
Ġinit ial
Ġadj ust
ĠColle ge
Ġindepend ent
Ġdi vers
Ġdiscuss ion
z z
ĠU nder
ĠP al
Ġc and
Ġclear ly
p ing
xi ety
Ġpart ners
ĠF ood
Ġfail ure
Ġo ption
Ġleg isl
Ġwide ly
Ġrepl ace
Ġresult ing
Ġd ri
Ġstart ing
a ult
ĠR el
ĠS ee
ĠDevelop ment
Ġmov ed
Ġmedic ine
Ġnot es
Ġdou b
Ġrad iation
Ġc overed
cl us
Ġchang ing
Ġcharacter istics
i j
Ġconn ection
re st
Ġf ine
Ġ esc
Ġcont rast
Ġfre edom
Ġrelationship s
Ġl ung
ang ing
Ġtr ig
ĠJapan ese
Ġop in
Ġhe ar
Ġpre fer
Ġlet ter
Ġ19 0
ĠT ex
Ġcom pl
el ines
ed ic
Ġp ric
ĠM useum
Ġlo ad
Ġt rib
ĠN et
ord er
lic k
Ġrep rodu
re p
Ġ201 7
Ġwant ed
ĠH uman
How ever
Ġl ived
Ġth ick
ot hes
ap ers
ĠT est
Ġtechn ique
Ġadv anced
Ġves sel
Ġ9 0
Ġpop ulations
Ġrecord s
Ġto oth
ĠD ec
wor ks
ĠRet rieved
Ġup d
ress ive
Ġs av
Ġme at
Ġt our
Ġsur gery
ĠO b
Ġparticip ants
Ġintern al
Ġencoura ge
oc al
Ġse eds
Ġpre par
Ġclass es
Ġrefer red
Ġproper ly
ĠGovern ment
Ġsh ap
Ġcru cial
Ġexp ression
Ġ2 9
r ant
ĠA v
Ġgra ph
Ġincor por
3 3
Ġdog s
Ġcomp rehens
Ġsc en
Ġsex ual
Ġdisord ers
te red
Ġann ual
Ġp ip
Ġmot or
Ġdr ive
Ġs and
Ġmost ly
Ġcal c
t ical
Ġ #
Ġf ields
Ġexper t
Ġdist inct
A ccording
Ġdep ending
Ġbott om
Ġturn ed
Ġlay er
Ġprocess ing
Ġu pper
cept ion
Ġeffic iency
Ġhapp ens
id a
Ġw in
Ġv ul
Ġmin or
Ġprom ote
Ġapp e
Ġex cell
ĠG ra
Ġregard ing
ur t
Ġread y
A r
Ġb urn
Ġfl ood
i i
Ġt im
erv ed
Ġexact ly
i as
Ġar m
an ch
ortun ately
ond s
Ġfa ith
Ġcre ation
Ġconf irm
ra ction
Ġnot ed
Ġexper ts
ĠRep ublic
Ġcon v
ĠWh y
Ġdeterm ined
Ġaut hors
Ġback ground
Ġter rit
Ġhelp ed
ĠA ir
row s
Ġdeg rees
at ically
Ġp ages
ra w
Ġlead s
ĠF ore
E M
Ġd ie
ĠPro ject
Ġmention ed
p ed
Ġeffective ly
ĠOr gan
ĠF ound
Ġt rou
Ġmess age
Ġo cean
Ġman age
Ġm el
ĠS am
Ġcl ick
ok ing
Ġcamp aign
ĠH IV
et ies
Ġprofess ion
Ġb ud
Ġhe ard
Ġel imin
Ġinvol ve
ĠMexic o
Ġem ail
Ġmeet ing
op hy
Ġacad emic
stand ing
Ġfeel ing
Ġcirc um
Ġj our
Ġvol ume
Ġdang erous
m ark
on ic
ĠS ocial
ish ing
Ġsustain able
Ġamount s
Ġ20 20
ĠA D
Ġdiagn osis
Ġremov ed
Ġk illed
Ġemot ional
Ġn or
Ġbat tle
Ġgen es
b ed
Ġsy nt
ĠO nce
Ġhtt ps
Ġsay ing
Ġhelp ing
oy al
ĠH en
Ġpart y
Ġmanufact ure
Ġbel ong
Ġlink ed
ĠGree k
7 5
Ġcolle ge
Ġinterest ed
b i
Ġwh om
Ġ ...
Ġgr ass
Ġdef ic
Ġd ram
Ġfind ing
Ġexperien ced
ri a
ren ce
Ġcont ribute
and er
ĠJ er
Ġun f
Ġprevious ly
c ers
ate gy
Ġpl atform
Ġcoun ter
u it
Ġun its
R es
Ġt um
i os
Ġr ound
ĠServ ice
Ġsol id
ĠR ich
Ġland sc
M any
Ġconcer ns
Ġreact ion
Ġsh ip
Ġcons ult
Ġa id
H ere
Ġchemical s
Ġimpro ved
Ġ7 0
3 6
Ġtrans form
Ġstr ategy
R O
Ġc ore
ĠD em
Ġveget ables
Ġyou th
S p
Ġple ase
Ġadvant age
nd rome
u able
m al
Ġsp ot
Ġexp osed
Ġg ender
Ġbeaut iful
Ġmot iv
Ġcom fort
Ġwe alth
Ġim pl
d ed
w ell
ĠM ark
Ġrad io
C on
ro ad
Ġdec ided
al le
Ġgr ant
z ing
u ing
t es
Ġphys ic
Ġg ames
Ġs em
Ġf ib
Ġra ce
ĠT ur
Ġrele vant
Ġess ay
Ġfarm ers
Ġcons ervation
y a
Ġh our
Ġdig est
Ġserv ed
Ġinflu en
ĠP aul
ress ed
Ġart icles
ric ulum
w ith
Ġconflic t
ĠTex as
ĠM ac
ĠIs land
Ġob vious
r ans
Ġm ort
ess or
Ġlangu ages
Ġdefin ition
C C
Ġdescrib e
r um
Ġoper ation
Ġke pt
ĠL a
ĠStud ents
Ġme ant
Ġdat ab
ĠIt s
Ġprep ared
or ial
ĠR ober
Ġ200 4
w ood
Ġdis s
n ic
Ġcontin ues
ribut ed
ĠWh ite
Ġengine ering
Ġoffic ial
Ġinterp ret
t a
le g
Ġstate ment
Ġse ed
ĠS T
bo ard
ĠS un
Ġpre t
Ġtox ic
Ġw el
Ġhe aring
Ġconcept s
Ġec osystem
3 8
Ġprinc iples
le ase
ro g
Ġsee k
ĠPh ys
Ġbl og
Ġm ist
Ġis land
O ur
Ġpract ical
Ġc ere
op es
ac ing
ber g
Ġmat hemat
Ġegg s
T hat
W hy
m at
wh ich
o ch
Ġs ong
Ġre ached
ĠM iss
I m
Ġatmosp here
Ġsitu ations
ur ation
Ġdisc over
Ġsam ples
Ġor al
Ġconcer n
Ġin put
Ġsec ret
Ġw et
ĠC ath
it z
ĠM ount
Ġv ot
Ġsp ent
ĠB el
ut ed
augh ter
Ġgood s
Ġn orthern
Ġbeg ins
ĠAc ad
ĠS er
Ġallow ing
v ision
ĠD i
Ġown ers
ĠC am
Ġre b
Ġk ill
Ġph ase
Ġaware ness
Ġjob s
ĠE very
Ġs ort
Ġf ol
ĠO ld
all ed
N ow
um n
ĠM ars
Ġc ast
Ġan xiety
Ġman ner
Ġform ation
Ġpi eces
orm al
Ġinv ent
Ġconsequ ences
is her
Ġtechn ical
Ġcred it
am ental
Ġ18 6
Ġpoll ution
com es
Ġcl os
ĠP ort
C l
is hes
N ew
ify ing
Al though
Ġm ath
Ġnot ice
Ġ200 3
Ġpres c
Ġp ray
rast ructure
ak ers
Ġsh ared
ĠJew s
ĠM et
ĠR em
ĠAt l
Ġredu ction
ĠAs ia
Ġhy per
Ġstra ight
ĠS ub
ĠO ff
Ġconc lud
z a
Ġelectr ical
1 00
ĠA I
Ġcon ver
Ġhosp ital
cl usion
Ġm aster
Ġy ellow
Ġsou thern
Ġless on
Ġg od
Ġ3 5
pl ace
Ġpurp oses
Ġinstit utions
3 4
E L
Ġapp oint
Ġsqu are
iver se
ot ic
Ġvul ner
as tern
l ig
Ġf lex
Ġprim arily
ag o
Ġmain ly
Ġn it
Ġauthor ity
Ġrelig ion
Ġn av
ing er
Ġrec y
Ġco al
Ġv ital
Ġadv ance
Ġgra de
Ġext ensive
ro ke
ific ial
Ġprote ins
v is
Ġper man
Ġnutri ents
Ġthe r
Ġrecord ed
ad o
ĠCour t
Ġst one
Ġsign al
Ġprop osed
ĠB as
onom ic
Ġmonit oring
Ġchar ge
Ġint ended
Ġimpact s
oun ced
Ġide al
Ġw est
d es
Ġproced ure
ist an
Ġ200 1
Ġcor resp
Ġsupport ed
Ġrev olution
Ġcare er
a el
Ġp ark
esp ite
Ġindic ate
Ġb rief
Ġvol unt
Ġd oll
Ġfact s
el ine
Ġlo oks
anc ing
Ġd ro
Ġtreat ments
b all
Ġcomple ted
Ġvacc ine
Ġfor t
ĠA rab
Ġsect or
Ġt asks
Ġsp end
Ġcent uries
ĠCent ral
os ite
ĠâĢ ¢
ĠL ou
act ers
Ġl ov
ĠC le
O S
Ġp un
Ġmor ning
is p
A D
et ers
ul es
ĠD ise
Ġoper ating
Ġ *
go ing
r ations
Ġspec ifically
il ing
Ġsu fficient
om in
O T
Ġbro ther
Ġagricult ural
Ġset tle
ĠBrit ain
Ġoff ered
at ric
ĠB er
k in
Ġsh ar
re te
Ġprofess or
Ġre new
ear s
Ġp al
Ġfin ally
stit ution
Ġfocus ed
Ġsound s
Ġs in
ĠE v
Ġsus p
Ġl ic
Ġst ation
Ġst orm
Ġw aters
Ġhe ight
Ġkeep ing
r as
Ġbr ight
Ġaffect s
ĠC ivil
Ġcollect ed
Ġexcell ent
e k
h t
n el
ĠEn ergy
ens us
Ġveh icle
Ġco ord
ĠH el
' ll
Ã ¡
ri age
oss ible
ĠM art
Ġra ised
Ġdrink ing
Ġext ent
g l
am s
Ġcomb ined
Ġdom estic
Ġt aught
Ġrespons ibility
Ġfrequ ency
à ¤
atur ally
ĠJ e
rap y
os en
Ġsal t
Ġpro s
ac ific
Ġdi am
Ġdesp ite
ipp ed
Ġex ternal
ak er
p oint
Ġha z
Ġadv ice
ro id
ĠF urther
Ġb an
um in
Ġflu id
ĠS en
Ġkind s
Ġv ent
Ġshow ing
Ġmus cles
Ġfor ced
ew ork
ox ide
ar row
A b
Ġfac ilities
ĠMedic ine
ri er
Ġoccur red
M ost
Ġimm ig
os a
ĠM r
Ġare n
t ion
Ġref ers
ĠS al
N o
ag ue
ĠIs l
Ġ Î
g al
in ent
igen ous
Ġrem ained
Ġmo ist
e y
er ia
Ġs ed
Ġlarge ly
B C
ĠF re
om y
Ġres ist
Ġmet ab
Ġn erv
p en
ĠNew s
Ġaccur ate
u ke
Ġv ast
Ġf aster
Ġmax imum
d own
op er
Ġemer gency
Ġwond er
Ġcertain ly
F rom
Ġcom ment
Ġh it
Ġexist ence
9 5
Ġsurround ing
Ġbusiness es
am ple
g ra
r ates
Ġl ib
Ġpric es
Ġk n
ind ing
ang es
] .
P l
g ment
ĠVir gin
Ġn ations
Ġimm un
Ġident ity
Ġbi ological
Ġ200 2
ro c
Ġincreasing ly
Ġf oss
Ġk il
A P
Ġt ips
Ġinvest ment
Ġchar acters
n ame
Ġc ognitive
N D
Ġfamil iar
un k
oth ing
ĠB ible
w est
i xt
ĠE lect
Ġf elt
i ated
ĠD irect
Ġfl ag
Ġe ast
Ġqu ar
ri an
ĠM al
Ġtr ial
w hat
Ġperiod s
Ġb ow
ĠL ike
r ich
Ġ201 8
ĠLear ning
4 8
Ġlet ters
yr ight
Ġ Ã
Ġdou ble
Ġslight ly
ol ute
ens es
Ġn arr
Ġinflamm ation
Ġch ann
Ġpotential ly
Ġhelp ful
ten ance
Ġcl im
Ġvo ice
ĠB C
act ive
l i
ĠL ife
Ġinf rastructure
ath y
Ġc ert
Ġcons cious
Ġspirit ual
ĠâĢ ¦
A meric
Ġs now
ĠQ ue
Ġsubject s
ĠL and
ĠD ata
Ġbir d
Ġdetail ed
Ġphen omen
ĠB en
Ġother wise
Ġcontroll ed
Ġliqu id
Ġp ig
dition ally
Ġsub sequ
Ġsc he
Ġval id
Ġenh ance
Ġon to
ĠComm ission
o o
ĠMed ical
Ġval uable
ĠTechn ology
G o
ĠB ay
ĠM iddle
Ġsy n
Ġflow ers
Ġpol ice
Ġcompon ent
ĠTh omas
om etimes
Ġcontin uous
ough ly
Ġplay ed
ĠFr anc
l ar
ĠB ook
Ġmin imum
Ġdep ends
Ġexpl ained
Ġcrop s
Ġth in
Ġsat is
Ġgrow n
Ġexpl ains
ĠNA SA
Ġapp arent
Ġtyp ical
Ġpo ver
Ġlook ed
ĠGo ogle
ĠSec ond
ĠJ ud
ĠD ef
Ġatt acks
it age
Ġsubst ant
Ġpover ty
Ġinterest s
Ġemploy ees
M S
Ġmed ium
Ġmot ion
ĠP ost
I ON
ĠT reat
an ia
Ġinst ruction
Ġro ots
Ġlead er
m p
Ġsm art
Ġl inks
Ġconcer ned
is is
3 7
Ġthough ts
Ġ199 0
Ġs end
ĠD ist
Ġoffic ials
ĠM ass
Ġgreat est
z y
Ġm ere
Ġro ll
Ġdom in
Ġra il
ing ly
Ġl iver
Ġcont aining
3 9
Ġfl at
Ġexpl an
Ġhapp ened
Ġpro port
Ġar my
Ġplay ing
ĠSp ace
' ve
Ġveh icles
Ġinter view
Ġtop ics
Ġw ife
ter ies
Ġsuff ering
ut ive
Ġout comes
ic ed
ĠM il
um ber
ĠCl ass
Ġmedic ations
ĠFl or
Ġb ill
ĠH ol
Ġintern et
asc ular
Ġf irm
Ġl ik
Ġpers pective
Ġdel iver
Ġdivid ed
res ents
ail s
Ġp il
Ġele v
Ġdis app
ĠB oth
st ate
ol ars
r ight
Ġwall s
R I
Ġfollow s
Ġdecre ase
Ġpregn ancy
Ġw estern
Ġf if
Ġab use
onom y
Ġfru its
Ġdep th
h i
Ġselect ed
Ġd u
ĠT oday
Ġcard i
as ure
Ġsp l
Ġclaim s
Ġst ock
Ġst ars
Ġreg ul
Ġfeel ings
ĠUs ing
it ors
Ġra nd
Ġsuggest ed
Ġgovern ments
Ġk m
Ġtest ed
Ġconcent ration
Ġagricult ure
Ġwe ar
Ġmeas ured
Ġpar am
om pl
Ġsec ure
os c
Ġp u
6 5
st ood
M ore
Ġrapid ly
ĠHen ry
k i
Ġr ural
be ing
c ript
Ġgir ls
f all
ĠT em
Ġcr isis
f ree
ak s
Ġp aid
ic ks
Ġing red
it ness
ĠL ake
ĠCar ol
Ġinstru ment
ĠM ake
Ġl ose
Ġrand om
v ille
Ġclose ly
Ġne ut
? âĢĿ
Ġs en
Ġf rag
ĠM icro
An other
Ġpers ons
rol og
Ġbud get
9 9
U S
Ġregular ly
Ġpartic les
c hers
Ġst em
Ġport ion
Ġgra nd
f ield
w in
Ġappro aches
Ġinf ected
Ġappear ance
Ġstud ied
Ġs ick
Ġrec overy
Ġhar vest
Ġhundred s
ul s
ul in
ĠSe a
ab ric
ĠSt and
Ġrecogn ized
Ġre in
ĠAn other
Ġdiscuss ed
Ġd ial
Ġ201 9
Ġd ental
Ġfil es
Ġintellig ence
IN G
Ġcons ists
Ġam b
ot a
Ġrep resents
ber t
ĠIn formation
vent ional
ĠN or
Ã Ń
Ġrequ est
Ġrecogn ize
Ġres idents
ĠSm ith
ĠJ ose
Ġprot ected
Ġdirect or
ate ver
Ġobt ained
b and
ĠSu pp
Ġal t
Ġinc hes
Ġpain t
Ġo d
th at
Ġfund ing
an es
ĠO ut
Ġdivers ity
Ġtra in
Ġjust ice
D o
s hip
ĠP acific
Ġfac ilit
ĠL atin
Ġdr iving
c est
Ġle aving
ĠR ights
Ġag es
Ġlat est
or al
Ġacc ompl
il ed
Ġall erg
Ġexp ensive
ĠTw o
Ġra ise
Ġbo ost
Ġ4 5
Ġset s
ĠS af
I nd
Ġj u
Ġph one
l a
âĢĻ .
Ġproced ures
Ġk new
Ġcur riculum
Ġsens itive
Ġadv oc
Ġt ried
ĠW ind
Ġimpro ving
ĠI r
Ġre form
ĠS ou
V ID
c ol
3 2
Ġg ar
ĠFound ation
ar io
Ġadd ing
Ġprevent ion
in n
Ġn aturally
Ġext ract
Ġmin im
Ġhabit at
ib ilities
angu age
ĠEng ine
Ġcircum st
Ġreturn ed
Ġfl oor
Ġs ides
l ong
Ġlif est
Ġd ut
Ġad equ
Ġt un
Ġla un
os ph
Ġvis ible
ĠT HE
Ġcar s
Ġtit le
Ġst ret
ĠW omen
p at
l ers
Ġfund amental
ĠRober t
Ġcorresp ond
cl ing
in du
om ach
Ġdeath s
Ġlab el
Ġmill ions
Ġhealth care
ind er
Ġsu itable
ĠW ild
Ġm it
pp ing
uild ing
ol ve
Ġf le
ĠCont rol
ĠM ont
Ġcl osed
er als
4 4
f low
Ġex change
Ġt ro
T S
Ġcou ple
al ian
Ġst ated
Ġcont em
Ġappe ared
Ġsuff er
m as
ĠLou is
Ġtra ffic
Ġmob ile
D C
el lect
ĠN ature
Ġrec ip
ĠP sych
ag ers
k a
H O
ĠB udd
ĠInst ead
Ġsat ell
Ġcons id
st ream
Ġsecond ary
ĠU p
Ġs an
ĠChar les
Ġless ons
Ġcreat ive
or ith
Ġp ure
Ġsy ndrome
Ġmove ments
Ġwild life
re m
Ġwe ap
D uring
Ġin ject
Ġst ages
plic ated
Ġch ief
Ġpl ays
Ġrout ine
ir us
Ġpre m
Ġdi verse
Ġrec on
T e
Ġdist ingu
al se
ĠCath olic
or gan
r ants
a it
ocr atic
Ġinter f
Ġcomprehens ive
Ġshe l
os al
Ġleaders hip
ce ler
Ġpr ison
Ġle af
Ġdoc uments
ĠB ro
viron ments
Ġdisc overy
Ġsurv ival
rop ical
Ġcap able
sp ec
Ġrest rict
st ruct
ĠIn f
ĠComp any
yp es
Ġprodu cing
ĠMan agement
ĠG roup
Ġmor al
Ġtou ch
ĠEnvironment al
4 6
D F
Ġworld wide
Ġm oon
Ġtra d
Ġtalk ing
Ġimp ossible
Ġf ill
Ġprec ise
ĠF e
ĠB et
Ġcall s
ĠFr ank
D e
l iam
w ar
Ġbenef icial
Ġun like
Ġmain tenance
am ily
Ġmanufact uring
Ġorigin ally
ĠRuss ian
ec k
Ġform at
Ġview s
Ġnet works
ĠSt e
3 1
ĠR ef
y e
ĠStud ies
Ġguid elines
S c
ĠEm p
8 5
es ity
Ġtrans mission
at tle
st on
Ġarg ument
ĠS uch
Ġcomput ers
as ive
Ġs ell
Ġposs ess
Ġap art
on a
Ġa qu
Ġpre f
Ġr ub
ĠO F
Ġentire ly
Ġbat tery
Ġch apter
Ġcho ices
5 00
r ors
Ġind ex
Ġexperim ents
hem ical
ot o
ad a
Ġagree ment
o oth
ĠD el
Ġsubst ance
and a
Ġab und
ĠUS A
iot ics
Ġasse mb
ĠM o
Ġinj uries
Ġharm ful
Ġcol ors
ĠL ibrary
Ġt ail
c a
ĠSc ient
Ġp ump
Ġjour ney
7 7
B N
Ġintrodu ction
C T
ex p
Ġch ain
Ġst ick
Ġgener ate
Ġpict ures
Ġprep are
us al
ĠW ell
Ġsur f
Ġread ers
Ġsold iers
ob e
d den
Ġneigh b
U s
Ġbehavi our
b urg
Ġposs ibly
ĠAr my
com p
G en
Ġn arrow
Ġemot ions
Ġb rown
Ġk it
Ġachie ved
Ġopt im
Ġconsum ers
Ġer a
Ġt al
Ġm amm
Ġag encies
Ġan cest
ĠN av
Ġstim ul
Ġfert il
ĠB ur
ĠS l
Ġacc omp
Ġreve aled
ĠRuss ia
Ġapp rec
Ġ3 1
F igure
am il
ag ues
le ments
r id
ot he
Ġnorm ally
Ġpret ty
Ġconsist ent
Ġabs olute
Ġass istance
Ġaff ord
Ġreg ional
8 8
Ġprinc iple
Ġfig ures
ĠFlor ida
oles ter
ĠK now
Ġmass ive
Ġdatab ase
ĠCanad ian
as p
ĠK ore
act s
Ġeng age
ĠT er
Ġwarm ing
idd en
Ġint ake
ĠA lex
Ġstart s
M y
n ormal
liam ent
ĠL abor
Ġim per
ĠP ers
ans ion
Ġsol ve
Ġcalc ium
al ysis
Ġb ones
re ed
Ġ198 0
ĠHist or
Ġto ler
C S
Ġact s
Ġdec line
Ġlist ed
ĠC are
S e
Ġpl ate
ĠS um
h an
C ont
âĢĻ ,
Ġn urs
Ġph r
Ġpart ies
Ġs od
Ġd ent
n o
Ġinc l
Ġmy th
Ġvill age
Ġadop ted
Ġsu dden
ĠP ower
ra cy
Ġunder stood
in et
Ġg ather
Ġtrans ition
Ġaccept ed
Ġhous es
Ġin hib
Ġa w
Ġb le
Ġposs ibility
Ġcl oud
Ġcult ures
Ġrepe ated
Ġt iny
Ġw ire
ĠS ov
ĠF ederal
ĠK en
Ġwind ow
Ġopen ed
ell a
Ġopin ion
ere nt
ĠO x
Ġc atch
Ġsk ill
O ther
Ġrem aining
Ġprofession als
ĠVirgin ia
th rop
Ġinter vention
Ä ģ
Ġen vironments
Ġdescrib es
if ies
Ġlandsc ape
Ġwor se
or ter
Ġl ibrary
ot ed
v ity
Ġperman ent
ang ed
Ġst omach
Ġrem ote
ol f
Ġsu c
Ġsupp lement
R e
a ud
7 6
u a
ĠD iv
im er
Ġrespons es
Ġen able
Ġ199 9
Ġmount ain
app ing
Ġw ants
ĠA tt
ĠM em
Ġf abric
Ġequ ival
Ġlat ter
Ġtw ice
u nder
Ġart ificial
Ġansw ers
D r
Ġw ave
Ġext ended
ĠEx pl
l ast
Ġfound ation
ĠD isc
Ġforest s
Ġed ge
Ġun s
hip s
ĠA p
Ġun less
Ġelect ronic
I L
Ġd ust
Ġgener ated
Ġh unt
ĠPro v
Ġalg orith
ad d
ash ion
Ġsuccess fully
es ter
Ġno ise
Ġdec ade
olester ol
5 5
Ġp ull
ig ation
Ġdist rict
Ġmar ine
Ġfram ework
Ġm ac
ĠI P
Ġcreat es
ost er
Ġmed ication
ĠT or
g ans
Ġco ff
Ġhab its
Ġspe aking
Ġtransport ation
Ġd edic
or row
Ġsp orts
ĠSt reet
ĠGl obal
Ġb rand
ed u
Ġswe et
Ġw aves
Ġloc ations
Ġth or
ĠAb out
Ġobt ain
at o
Ġauthor ities
Ġcircumst ances
Ġhigh light
Ġexpress ed
Ġtru ly
cul es
w ing
Ġf illed
et t
um s
Ġun iverse
Ġder ived
Ġprot ocol
Ġsurv ive
Ġhor se
Ġb and
z en
in ations
Ġland s
Ġsequ ence
ĠDise ase
Ġcor por
ce ived
Ġadminist ration
ct ive
if orm
ĠComm it
Ġtell s
Ġslow ly
Ġb io
Ġb ag
Ġdoct ors
Ġg all
in i
Ġd in
ce l
i very
Ġg al
Ġsee ing
ag on
Ġeth nic
Ġvessel s
Ġreg ulations
it ative
Ġf asc
Ġse lection
Ġcare fully
m ary
ĠL ab
lud ing
Ġfl av
ic ians
Ġlifest yle
Ġp ool
Ġdifficult y
Ġun iversity
Ġfix ed
h ma
ĠTh rough
ific ations
ĠRe view
at al
Ġra w
ĠComm on
op y
og ue
ĠL eg
Ġaud ience
b orn
Ġn an
e per
Ġd ream
Ġbro ken
ic ide
Ġcrit ic
Ġstrugg le
.. ..
Ġen ds
Ġa er
Ġout l
Ġform al
Ġmult i
ar ant
Ġun known
Ġfl ight
Ġ5 00
4 7
Ġorgan ized
it an
Ġ197 0
us ing
8 9
Ġg un
Ġind eed
ĠB ank
ĠO cean
Ġresp ir
Ġfail ed
Ġdec ide
Ġin ner
us hing
Ġsign als
ct ic
Ġst ored
Ġchild hood
8 6
i ology
Ġer ror
Ġnecess arily
R ead
ur d
Ġmon itor
B l
ĠG ood
Ġcour ses
Ġhapp y
Ġl ots
Ġ199 8
ĠRep ort
ĠI d
Ġmach ines
Ġrat io
Ġcand id
ĠCol umb
ant a
ĠEx per
ĠPar is
ĠJose ph
Ġgreat ly
rit ing
Ġpers ist
Ġopp osite
Ġeval uation
Ġbehavi ors
Ġman aged
Ġto w
ĠDes ign
ĠL ong
Ġstudy ing
ste in
Ġmark ed
4 9
h and
ĠC a
Ġimmedi ate
ĠV ict
t ic
Ġcomp osition
Ġf ell
ab ul
ink ing
Ġd ensity
Ġne uro
ar ia
St ud
Ġdep os
Ġopen ing
U R
Ġdo or
P e
Ġac know
Ġinsect s
ĠI N
Ġ >
Ġbreat hing
g ent
or ous
Ġint ellect
ĠP M
Ġsm oking
b ing
Ġpo et
Ġar ms
ph one
Ġyoung er
b ut
Ġcult iv
ĠSt at
f rom
Ġsim pl
t ra
Ġch art
Ġth y
Ġstand s
pr int
k es
b ody
Ġaccount s
Ġfoss il
ĠM ag
Ġcommunic ate
z ed
Ġc art
Ġprodu ces
z il
Ġun p
ipp ing
Ġlist en
Ġcustom ers
ĠS ol
av a
ĠY et
Ġm useum
Ġpre val
ĠCO VID
Ġprinc ip
S ince
ĠAn n
N ot
f ortunately
Ġindic ates
Ġsch olars
Ġf iber
Ġlabor atory
m ic
t age
E n
Ġv oc
ĠOn ly
Ġcut ting
Ġsh op
. |
st ract
ĠTh ose
in ity
ĠS k
rib ed
ĠAn y
Ġste el
ĠT imes
Ġmaint aining
r ating
ĠIt aly
vent ions
Ġal le
Ġsh aring
in ction
ĠI ll
ĠB re
Ġair craft
Ġdoub t
ĠCl in
Ġmem br
h ist
Ġdesc ription
Ġmechan ism
ant ly
Ġ199 7
Ġult imately
Ġ3 00
n am
ĠH aw
Ġins urance
Ġmechan isms
ĠAustral ian
Ġn ine
as er
Ġunder lying
ĠProf essor
Ġcol our
ĠR ome
ht m
Ġf ly
Ġclos er
ĠP C
Ġinteract ion
C an
Ġst able
Ġr id
Ġrel ax
Ġmix ed
Ġrepl aced
Ġa f
le vel
ĠCh ic
Ġe pid
ĠH all
Ġsupport ing
Ġag ency
Ġimprove ment
um es
Ġa th
ĠW he
ĠC amp
Ġcompar ison
Ġd aughter
ĠOff ice
n y
Ġw ish
Ġf ract
le ts
h op
ĠIS BN
Ġacc um
Ġdown load
w o
Ġpurch ase
Ġt ank
ĠG old
Ġimplement ation
ĠFore st
ap ed
Ġlim its
Ġa x
Ġcomp r
ĠEx p
Ġ3 6
Ġsk y
Ġelect ron
acc o
Ġdeb ate
Ġcon ventional
ĠN ations
Ġs ight
ĠN atural
Ġover l
Ġdisc ipl
Ġcop y
Ġmole cules
itud es
ĠM a
Ġsuppl ies
ir ty
Ġconf idence
Ġve ter
br idge
ĠM ad
Ġac celer
S ee
Ġsm oke
Ġthous and
Ġcolle agues
ĠRich ard
Ġac ids
Ġocc asion
Ġre ject
ĠE th
ear chers
rodu ction
t hen
Ġsupport s
Ġw ww
Ġsh ift
Ġm eth
ct or
ĠP eter
oc c
Ġro of
Ġb read
ĠP ub
ĠSov iet
Ġcor n
ter ing
Ġ <
Ġh us
Ġsh ut
Ġfeed ing
Ġinstit ution
Ġorgan isms
Ġour selves
L et
Ġm ild
E P
oc y
Ġgl uc
. âĢĻ
ins on
c omm
Ġleg s
Ġrepresent ed
Ġvolunt e
st one
Ġwalk ing
Ġt aste
Ġpr on
ĠCon stitution
4 2
Ġtw enty
Ġatt end
ri ers
Ġdestroy ed
Ġtra um
Ġfl o
Ġrecogn ition
Ġg one
Ġhe ro
Ġhand le
Ġtra ined
Ġnew sp
Ġrem ark
Ġwill ing
Ġfund s
w ord
Ġin hab
Ġdedic ated
cy cl
Ġch osen
iz er
Ġhous ing
Ġch olesterol
Ġdel ay
ĠR ob
Ġdes ire
it t
az ing
c her
Ġbig gest
Ġw itness
Ġn erve
ĠF orm
Ġun us
Ġconn ections
se y
Ġdo i
Ġz one
r ont
Ġres erv
Ġa head
Ġun able
Ġfight ing
âĢ ĺ
ĠSp ain
Ġwhere as
Ġeas tern
it a
Ġneigh bor
Ġg ap
rib e
Ġsub s
Ġshe ll
Americ an
Ġf old
Ġfew er
Ġindust ries
Ġpsych ological
Ġgener ations
Ġ18 9
Ġconsum er
ĠVal ley
ĠM u
ĠN ative
ĠCommit tee
ĠAd d
ĠCarol ina
ar n
Ġris ing
ĠR ad
Ġfeed back
ĠC ap
Ġcont amin
u ps
is ters
st ruction
ĠG et
Ġsent ence
rit is
Ġwrit er
ĠCan cer
ĠSou thern
Ġtiss ues
ĠA S
Ġex ists
Ġchalleng ing
g u
in ate
Ġterrit ory
Ġbe ar
oc racy
Ġreact ions
Ġcapt ure
Ġc row
Ġarchitect ure
ĠD an
ĠR oyal
Ġatt ached
Ġte a
c alled
ic on
h av
Ġf alse
Ġpart ner
ĠSc iences
Ġpercent age
Ġc os
Ã ¼
I nt
Ġpo ison
Ġob esity
er ior
Ġph arm
Ġdiagn osed
c ons
Ġvari able
Ġdi oxide
I P
Ġarr ived
ĠAtl antic
Ġlay ers
ĠT ime
if est
ĠP an
Ġdel ivery
Ġdemonstr ated
ren cy
im m
ĠE ss
ĠV is
ult s
Ġcont ained
ac he
Ġvirt ual
Ġr hy
Ġmar riage
Ġcon clusion
Ġprogram ming
dition al
Ġcompet ition
Ġsuc ceed
Ġcl ust
Ġread er
Ġdeb t
ĠC ult
Ġexam ine
ĠP ract
ĠD et
Ġcam era
Ġre cept
ell ed
Ġc ats
Ġprom pt
7 9
Ġt all
ub e
iction ary
Ġturn s
Ġjo in
Ġne ck
ĠKe ep
6 6
Ġmin erals
Ġz ero
Ġgreen house
ic ious
Ġfunction al
on ia
he ast
it ivity
te en
Ġknow s
Ġresult ed
ĠO h
y les
Ġtro ops
ut s
Ġr u
ren e
ap h
4 3
Ġparticip ate
ĠMich ael
0 5
Ġl ies
Ġfound ed
Ġarch ae
Ġsh ips
Ġequival ent
all s
Ġvulner able
Ġe ld
us iness
Ġpar alle
ĠH ome
Ġ ille
Ġstand ing
op ic
ĠStud y
Ġser ver
Ġphilos ophy
Ġcoff ee
Ġm ice
ne e
f it
D P
Ġcom ments
Ġref uge
ĠAd minist
Ġb ond
Ġsett ings
b an
ĠE xt
Ġpresent ation
od ing
Ġhor iz
Ġf u
Ġa str
ro at
Ġcomp ounds
or a
ro vers
Ġobserv ations
L E
Ġsp aces
Ġc m
et her
Ġfe ver
Ġexp ansion
Ġgu arant
ĠRev olution
ĠCl imate
c ar
ĠE qu
ĠAg ricult
rain ing
Ġiss ued
Ġnear by
Ġy ield
Ġbreat h
Ġt urb
Ġh olid
we ight
ĠCol or
ir ds
ĠM er
Ġte en
Ġbelief s
Ġfrequ ent
edi atric
s uch
Ġ199 6
ĠAcad emy
Ġm ent
Ġhe m
Ġgre w
Ġdesign s
Ġcirc uit
Ġdef ine
Ġelect ro
Ġpolit ics
Ġunder t
Ġ196 0
Ġdraw ing
Ġal ign
Ġestim ates
Ġch ick
O ver
Ġsp ending
Ġsignific ance
Ġmar ried
Ġp up
ĠP enn
esp read
Ġm aps
ab led
du le
Ġtr ials
Ġins ulin
Ġinstruct ions
Ġobject ive
ĠN orthern
Ġadminist r
Ġv ote
ĠF ort
h ow
Ġdef e
8 7
oc ation
r ine
Ġro w
is k
ain e
Ġaccess ible
Ġlaun ched
ro oms
Ġindepend ence
Ġjo ined
ĠSt ep
wh ile
Ġh op
as ters
Ġrel ation
ĠEmp ire
Ġdist urb
ĠG al
Ġp air
ĠBra zil
Ġadequ ate
ear ing
Ġwh atever
ĠII I
en a
Ġpre v
Ġinstru ments
ia h
Ġexpl o
ir t
Ġsur ve
Ġm and
Ġsign ed
Ġrep air
et ime
Ġacc ident
r us
Ã ³
Ġb order
Ġdep artment
ĠAd ditionally
Ġtub e
g ov
ĠW here
Ġconc rete
and on
p et
Ġinteract ions
Ġdemonstr ate
Ġhyd rogen
r d
Ġon going
Ġreg ist
he red
ĠT ake
I G
ĠD iff
es is
Ġrel iable
ĠW ood
ĠBo ard
Ġf ashion
el esc
Ġent ry
Ġt ons
R ec
Ġne ur
Ġag reed
Ġn est
sc ale
I M
Ġphot ograph
Ġoper ate
Q u
Ġexerc ises
ĠM ill
Ġarr ange
x ts
Ġmat ters
L ear
ĠC op
Ġcar b
Ġoff ering
Ġob lig
Ġmagn etic
Ġhyp othes
Ġappro ved
el ess
Ġv ac
Ġman ip
Ġres olution
Ġ199 5
ĠE nd
ĠIt alian
Ġd ys
hes is
Ġch rom
Ġsupp osed
Ġmod e
Ġevery day
Ġmicro sc
ure au
Ġrel ief
ĠS ing
Ġpro ve
Ġbr idge
Ġplay ers
Y our
rim ination
O f
Ġbut ter
Ġ18 5
Ġcry st
Ġmeasure ment
ion e
it ter
or ph
Ġ3 2
Ġmet ers
in ating
ak ed
Ġcateg ories
g ers
Ġt ight
her ic
Ġout bre
4 1
Ġsee king
Ġrout e
in ally
t op
Ġp ra
ite ly
ever al
i h
n ect
am ics
Ġhold s
Ġmort ality
ut er
ĠN az
Ġ7 5
O L
s he
Ġlegisl ation
ĠGu ide
Ġsc ene
ĠH oly
oura ge
Ġunc ertain
ĠG ard
% .
re land
st s
Ġinvol ving
ĠW ik
Ġexam ination
r ite
Ġa ward
0 1
Ġso le
Ġdra wn
om ic
Ġsm ooth
Ġnerv ous
b ur
pl ant
Ġtrou ble
anc hes
Ġsubst ances
Ġwid espread
Ġb anks
az ine
r at
e enth
id ity
Ġv s
iot ic
ĠH ave
Ġconstit ution
Ġrespir atory
Ġle ct
Ġm ood
Ġdang er
ĠC y
us hed
igh ter
Ġemploy ed
Ġemploy ment
Ġlov ed
ĠB ab
Ġhon or
ĠVict or
he nt
ĠSc ot
Ġinstall ed
Ġrecommend ations
Ġexplan ation
S S
Ġsh if
Ġredu ces
Ġinteg rated
Ġsh ad
Ġrespect ively
is dom
Ġhistor ic
Ġcollabor ation
Ġp apers
Ġb low
Ġst re
Ġr ing
Ġpow ers
Ġsp ok
Ġinf ect
op les
Ġput ting
abul ary
Ġvari ables
Ġtri p
ĠChic ago
ĠB rown
Ġstrong ly
Ġf er
am ine
Ġwas n
Ġ15 0
Ġus age
ĠGe org
F irst
E ven
ĠA ccess
Ġvirus es
Ġb ot
Ġdam aged
air y
Ġpass age
Ġr ice
he rent
Ġro les
Ġparticip ation
e en
Ġm os
Ġre ly
io x
Ġr ivers
ven ue
ĠA ge
Ġann ounced
Ġclean ing
m es
um ps
Ġsc an
Ġaccur acy
Ġconsid ering
Ã ¶
ident ial
Ġent ered
Ġcommit ted
ĠE U
Ġvol can
Ġneg ot
Ġ id
ĠP rop
Ġprevent ing
Ġdet ection
Ġtrans p
Ġint ense
Ġassoci ation
Ġadvant ages
Ġs ke
Ġindic ated
m aking
Ġcon ven
Ġor gans
l v
y al
Ġbr ings
an o
Ġint est
Ġ6 5
Ġcr ime
Ġguid ance
Ġf ro
Ġsac r
Ġst roke
Ġask ing
ur rent
Ġend ed
Ġremov al
Ġdo se
Ġpain ting
ploy ment
L e
Ġp ed
ir al
ĠSc ott
Ġmark ets
p es
ent ed
ĠD ar
Ġme al
ĠD ig
Ġcir cle
os ion
Ġear n
ic it
Ġrece iving
Ġingred ients
n et
Ġconstruct ed
Ġco vers
Ġmetab ol
f ish
Ġg ram
C A
ol a
ist ical
ĠL anguage
Ġsw im
ol ving
it tle
Ġeffect iveness
Ġbab ies
i ability
Ġm g
Ġinc red
O nce
Ġmoist ure
ĠB ig
Ġkid ney
ord ers
Ġb iod
Ġh ole
Ġout er
Ġlight s
Ġc up
Ġr ig
Ġcoast al
ĠCommun ity
Ġs ections
op eration
ir ation
est ion
Ġc av
th ritis
Ġpos itions
Ġfor th
Ġmole cular
ĠF ree
D on
ors es
ĠRes ources
Ġbl ocks
cycl op
Ġcol umn
Ġreal ize
Ġfor get
Ġrun s
A m
am ins
Ġph osph
ĠCo ast
Ġart ists
Ġfac ility
Ġwa it
hy d
R A
Ġdep art
Ġfram e
Ġconstant ly
ĠE astern
B S
ual ity
ĠServ ices
Ġinfluen ced
M e
Ġf urn
Ġpar as
k ins
Ġprepar ation
ut ch
ut rition
ĠAs ian
Ġsc ript
ĠBe fore
Ġne ither
ĠEar ly
ag ram
Ġsome what
Ġful f
ym ph
Ġn one
el i
ish ment
ĠI reland
Ġmiss ing
Ġsh ot
ĠMore over
al a
Ġmaint ained
Ġevalu ate
r ial
Ġst rict
Ġpublic ation
Ġwor ry
Ġcont rovers
Ġte xts
Ġcomp are
ov ascular
Ġshe et
ĠKing dom
Ġinform ed
b ra
ib l
Ġfall s
Ġmeasure ments
am ing
Ġcare ful
Ġm m
Ġb ath
Ġproport ion
% )
an i
Ġpl enty
Ġdest ruction
s is
Ġch lor
ĠB ill
Ġgluc ose
ĠA ND
Ġro cks
Ġele ction
Ġang le
Ġphys ics
Ġm ales
ĠPl ant
ot es
Ġstr ing
Ġhold ing
Ġac ute
ĠFurther more
Ġy e
Ġdis aster
Ġcontrol s
Ġmechan ical
Ġd rain
Ġhe ating
ĠInd ians
et ics
Ġearth qu
Ġtur ning
char ge
Ġim plications
Ġpl us
force ment
Ġsurf aces
ĠC re
ID S
Ġvict ims
Ġcl othing
ĠS il
am ps
Ġthan ks
E very
Ġdiv ision
ag en
Ġplan e
Ġab andon
Ġag ents
Ġintellect ual
ro x
ĠF igure
Ġmat ch
Ġcom plicated
os h
Ġest imate
Ġfem ales
ov en
Ġir rit
Ġpregn ant
Ġsubsequ ent
Ġcent ers
it als
Ġcent re
Ġb oy
Ġn ob
Ġnit rogen
Ġs ought
Ġfarm ing
ĠYou ng
ĠAd v
Ġdoll ars
Ġmere ly
I A
Ġst reet
Ġmin ing
ĠE ffect
Ġgra in
ĠWor ks
Ġfor g
ĠChrist mas
ĠY ear
Ġown er
Ġserv ing
ill a
Ġprov en
Ġimplement ed
Ġvol tage
m edi
Ġout come
row ing
M L
ĠPart y
g ien
Ġs ales
Ġfour th
Ġis lands
ĠA cc
Ġde eper
Ġinnov ation
Ġfac ing
Ġexcess ive
I R
Ġab normal
Ġcrit eria
Ġhapp ening
Ġbur ning
Ġdecl ared
he imer
Ġp and
og ether
Ġanal ys
Ġast hma
t rans
y th
ive red
ere n
Ġstat istics
am ination
Ġcor rel
Ġcomp osed
Ġar rest
Ġbi ology
Ġh un
ĠG rand
ĠCh ange
Ġins ert
im p
N S
Ġconvers ation
v in
r ane
ĠI ran
Ġconfirm ed
p rodu
Ġpe ak
Ġpass ing
re y
Ġhorm one
Ġa ims
Ġc ash
Ġdist ributed
C H
Ġsh ock
Ġcal ories
Ġphot o
s en
7 1
Ġknow ing
Ġc ards
ĠM el
Ġtrend s
Ġfair ly
Ġsc ore
8 1
Ġp ush
ur ric
p d
Ġfavor ite
8 3
ot ton
Ġdes ired
Ġteam s
ĠF ace
ult y
ĠS up
Ġsil ver
ĠMart in
Ġabs ence
usal em
Ġthe ories
Ġmus ical
Ġsatell ite
ĠTe ac
7 3
ĠS at
ab il
Ġsw itch
Ġcomfort able
Ġed ition
ogen ic
c hen
Ġeng aged
Ġcop per
Ġr ank
Ġbre eding
Ġbring ing
Ġvisit ors
Ġpan el
Ġscreen ing
Ġen emy
Ġto b
Ġattempt s
Ġl ake
Ġseem ed
Ġcateg ory
rou s
Ġde aling
Ġthem e
Ġcomm ission
Ġover w
Ġbo ys
Ġessential ly
Ġbeaut y
Ġev il
Ġt ropical
ĠS ometimes
Ġtra ct
ĠH ill
ĠF ollow
Ġstrong er
ig an
qu it
ĠL ist
it amin
Ġgradu ally
Ġhus band
Ġcontem porary
S u
T oday
il ation
Ġsl aves
ast y
i ary
int s
B ecause
Ġad vert
ap se
ol esc
b les
ort ion
Ġ4 00
r ary
Ġthe ore
the less
Ġir rig
U T
ĠW ord
ĠP op
Ġvari eties
Ġinterp re
ha ust
Ġrenew able
ĠDirect or
Ġparalle l
Ġt ut
ĠC reat
ĠH osp
Ġdepend ent
a ired
Ġesc ape
em ia
Ġm old
ĠA gency
Ġpro hib
ex ample
iox id
Ġp ounds
ail ed
Ġbl o
Ġro ads
Ġmin eral
Ġpro of
Ġche st
Ġcharacter ized
Ġclaim ed
Ġimag ine
L A
ian a
Ġshap es
Ġcount y
Ġprincip al
b ar
ĠP o
ĠG ulf
act ion
Ġpres ents
s m
Ġcre w
Ġtem ple
ĠNet work
Ġtob acco
ut en
ĠP olic
ĠSec urity
H D
Ġn ose
Ġbl ind
Ġfocus es
Ġcarry ing
Ġmay be
Ġplan ned
Ġkil omet
U N
Ġj ump
oh yd
Ġmov es
ĠInd ust
R ef
Ġor ient
Ġrad ical
ĠS ir
Ġg ained
Ġst ead
ĠV en
Ġunivers al
ask a
ĠM ethod
out s
Ġart ist
Ġwar ning
inc luding
C E
Ġconsider able
ĠSec ret
ĠH y
Ġcy ber
ru ption
ont al
Ġmess ages
ĠTh ough
ree k
Ġs ession
Ġtreat ing
Ġfac ed
' m
Ġit em
Ġsecond s
Ġdel ivered
Ġdecre ased
Ġprovid er
Ġinvestig ation
Ġrare ly
he alth
Ġprov ed
Ġserv es
Ġer rors
Ġdom ain
ĠT V
ĠF amily
Ġcl ar
Ġweap ons
Ġopp osed
Ġform ula
Ġens uring
Ġencoura ged
Ġsubstant ial
Ġcapt ured
ĠWh o
ĠChe ck
a wn
Ġbe ings
ĠD en
Ġrem ind
Ġcomb at
Ġdifficult ies
Ġm ixt
ĠO pen
Ġvide os
8 4
Ġconsum e
Ġnew ly
Ġinit ially
Pe ople
u gh
ĠSt ar
omm od
ĠOrgan ization
es ides
Ġf est
Ġin n
Ġphenomen on
Ġunus ual
Ġlist ening
h ar
ĠP et
ĠD espite
Ġra cial
Ġhaz ard
Ġtrad itions
Ġelimin ate
Ġath let
ĠDo es
Ġthreat s
ĠM S
ĠM oon
g s
an ing
ĠR ock
Ġst ations
Ġf ed
Ġcom plications
al m
Ġheav ily
Ġsen ior
Ġw ine
Ġd ates
S he
Ġlearn ers
Ġconcer ning
P er
Ġst uff
ĠN on
ĠDist rict
ak istan
lish ing
A pp
e ffect
i ological
Ġm ic
Ġconsider ation
Ġh oles
Ġjud ge
Ġl ie
Ġin her
ad ing
Ġexam ined
Ġoffic ers
Ġsatis f
Ġst ability
Ġdef ect
ĠF ire
Ġex clus
oun ter
Ġbat teries
Ġexperim ental
7 4
b a
ab eth
ĠL o
Ġtransl ation
ĠSpec ial
Ġany where
per or
ars h
ĠR om
ĠSt r
Ġproduct ivity
Ġexcept ion
ĠM en
ĠR esp
Ġem pt
Ġfin ished
in f
Ġasse ts
ost ic
Ġmod ified
____ ____
Ġwith d
ot al
Ġsurpr ising
a very
ig ate
ook ing
Ġphot os
Ġdis rupt
Ġwrit ers
Ġdem ands
Ġsche dule
O r
og a
Ġsp in
ĠCent re
ie val
M P
C D
Ġme als
Ġshar p
f ts
ĠC ell
Ġg ro
ri end
Ġla unch
it ual
se ll
o ir
Ġcor on
C P
ost on
Ġint ent
ou nce
ĠZ eal
Ġint ensity
Ġbr anch
ĠJer usalem
ĠM ath
Ġev olved
elf are
ĠI V
ĠAdminist ration
Ġcomp ound
Ġdis abilities
Ġstruct ural
8 2
z heimer
Ġfil ter
Ġw ound
Ġp estic
Ġchann el
Ġcomp ens
Ġaut ism
Ġbr anches
cl ass
Ġgal ax
ust ain
Ġ20 21
Ġmathemat ics
Ġhead s
ĠW all
ric ts
Ġt ick
Ġb omb
ĠSaf ety
Ġg ut
Ġpro ceed
ĠAm ong
Ġille gal
it ting
Ġar ts
C omp
r ance
ad y
Ġdisc rimination
br id
Ġmount ains
Ġtrig ger
e ut
ra ys
Ġhe aling
v ard
Ġsc ar
Ġgu ard
Ġbi om
ot ype
Ġprom inent
Ġinterpret ation
it ure
Ġreg ulation
Ġtarget s
C omm
h tt
Ġst ores
ag raph
Ġcook ing
Ġal ph
Ġman ifest
Ġc ort
Ġr oughly
Ġm ir
Ġ199 4
Ġsl ave
Ġflow er
Ġtele vision
ess ions
ĠFin ally
Ġprotect ing
ra v
og rap
ĠJ ac
ĠSu per
ro t
ĠI T
ri z
Ġinnov ative
ĠT op
Ġisol ated
E d
ĠZeal and
ic y
Ġam azing
Ġed itor
Ġobs erve
erm an
Ġdec or
Ġbig ger
pt ions
Ġus ual
Ġadd s
Ġco verage
Ġsl avery
Ġ19 50
Ġidentify ing
Ġvoc abulary
com ing
Ġdyn amic
ĠEngine ering
ĠOx ford
g reg
Ġfat ty
Ġre ward
ĠIsl am
ĠT ype
ĠM D
Ġinf ant
Ġdr iven
7 2
ĠMus lim
Ġc aught
ĠE r
ĠProt ection
ig are
n ight
ĠS und
Ġdri ver
Ġconscious ness
Ġ3 3
Ġprovid ers
ĠF und
Ġscient ist
Ġearl iest
ic ate
ol n
Ġphysic ian
im a
ĠA P
5 6
Ġprof it
re ated
Ġun w
Ġneighbor hood
Ġcere mon
Ã ¢
Ġab ilities
Ġor bit
ĠF our
ĠAng el
Ġo v
re qu
are n
j ust
at ial
ur a
Ġcons erv
ac ent
Ġassign ed
it ory
ish op
Ġfish ing
Ġequ ally
Ġcorrect ly
Ġnutri ent
Ġspect rum
ĠCam bridge
Ġcon qu
Ġla id
d oor
Ġdef end
Ġobject ives
Ġparam eters
ort ed
ĠN ever
pl ing
Ġvict im
Ġgr id
Ġconclud ed
ĠCons ervation
N ote
un icip
ĠAut hor
h ire
Ġwor ship
Ġdec ay
en ess
ĠF ather
Ġconf erence
Ġdiam eter
Ġra b
es ium
ĠS ar
Ġun ion
ĠDe v
O C
ĠU r
arent s
ane ously
Ġoccur ring
Ġbacter ial
ĠSup reme
Ġass ume
Ġdef ense
Ġfl our
ative ly
Ġprint ing
iz abeth
Ġantib iotics
Ġtax es
ig ue
Ġengine ers
Ġord ered
Ġpe oples
Ġview ed
Ġvit amins
Ġsus cept
Ġf inger
ist ed
Ġcor ner
ĠCol l
Ġt on
ĠIn s
Ġun iform
ĠHe b
ad el
Ġen ables
Ġwhe el
m od
Ġform ing
Ġsuper ior
Ġ18 0
Ġwind ows
Ġliter acy
Ġex haust
Ġch am
Ġover come
Ġsens itivity
l u
Ġinter ventions
Ġregard less
ĠMin ister
Ġg ast
Ġpl ot
ra ine
ĠL y
Ġk illing
Ġmin ute
Ġdirect ed
EN T
Ġl ip
Ġind igenous
erson al
Ġinsp ired
et al
isc o
ĠL ow
Ġprocess ed
Ġfun g
Ġsens ors
Ġrec over
Ġn ice
ĠU t
Ġad verse
ĠV er
Ġper ception
Ġmeas uring
Ġgrant ed
ol i
ĠSim ilar
P art
Ġim aging
Ġper m
Ġdet ected
en ger
al i
ĠL ess
ĠJ ul
Ġconcent rations
Ġreve al
Ø §
ĠC ast
Ġar ray
Ġident ification
Ġexperien cing
ĠH and
ĠE st
ip edia
Ġmanufacture rs
Ġplay er
Ġavail ability
uck y
ict ed
9 6
M A
ang er
Ġmar ks
Ġsou l
em a
Ġcont ribution
Ġatt ach
Ġwrit es
or ic
ĠL ib
Ġsp ort
Ġad m
ĠIr ish
Ġaccomp an
Ġeth ical
Ġacc ommod
Ġstreng then
Ġal ter
Ġtechn ological
Ġsettle ment
hold ers
Â ·
o ids
ild ren
ĠS ign
Ġacqu ired
Ġconf ig
ĠE p
cent ury
Ġtem por
Ġpand emic
E ar
Ġbound aries
ĠM ult
ĠP akistan
ud e
m ia
t les
u gg
Ġex ceed
est ed
Ġep is
Ġquar ter
Ġfar ms
Ġre aching
ir th
ĠL ar
Ġ199 2
Ġc ord
ĠPre vention
Ġv en
Ġen orm
az on
ĠColumb ia
Ġreport ing
Ġpan els
Ġanaly ze
ĠCur rent
on ym
om er
Ġsuff ered
ĠAl zheimer
Ġaut hent
Ġstate ments
acks on
ĠT re
ad der
Ġro se
Ġfind s
Ġsun light
Ġmembr ane
ic ing
Ġbre ed
Ġopp osition
ĠT able
ri ze
ol s
ur is
am ples
Ġext end
Ġoverw hel
Ġher b
Ġman aging
Ġprint ed
Ġenter pr
Ġad vent
Ġsw it
Ġcover ing
W here
Ġh orses
ck ing
og s
ĠTh ree
Ġaffect ing
all ow
Ġhard ware
Ġprotect ive
Ġrhy th
ul ating
Ġmicro b
Ġdut y
et te
arch y
Ġelect ed
sy lv
Ġcontribut ed
ic ular
d ef
Ġemphas is
Ġp ill
Ġt ables
ass es
Ġwhe at
Ġrel ie
Ġcap abilities
ĠPr inc
ĠT ry
ir ms
Ġres id
Ġbur ied
ĠSur vey
v a
Ġc oc
so ft
Ġarg ue
Ġcry pt
ĠP lease
Ġ ;
Ġfunction ing
Ġ199 3
ap or
Ġcr im
Ġflow s
Ġcommit ment
ut ing
Ġsit ting
man n
Ġb rows
ou red
ad ed
ĠL iter
es h
Ġg ases
Ġgrow s
Ġant ioxid
d r
ĠSw ed
ĠM ah
ĠK ar
Ġtem porary
Ġvari ation
Ġaddress ed
Ġst rain
et ary
Ġag ed
Ġdiet ary
av irus
ail able
ange red
Ġsepar ated
eg a
Ġcool ing
Ġecosystem s
U nder
] ,
Ġd rought
ĠUn fortunately
Ġvari ations
C ol
ĠS et
Ġprogram me
P re
Ġst ones
ast s
Ġmod erate
Ġsoci eties
C o
M ed
erc ury
Ab out
Ġg iant
Ġpo em
ane ous
Ġautom atically
Ġst ake
D S
as ant
Ġch ances
ĠN ote
Ġthere by
Ġdra g
Ġsub stit
ĠLear n
cyclop edia
Ġcl ient
ĠV iet
ĠJohn son
Ġr itual
Ġpres erve
inc oln
ĠF ind
roll ed
l ines
Ġpur s
im ents
Ġr an
Ġeng aging
ĠB oston
Ġcardi ovascular
Ġas c
Ġquant ity
Ġneut ral
Ġdis ability
Ġobserv ation
Ġlung s
Ġh oney
Ġc ab
Ġsupp lements
Ġdeg rad
Ġs izes
Ġvis ited
Ġhard er
Ġmet als
Ġcrim inal
Ġhe nce
ĠD O
Ġres il
ĠCh o
Ġsc ores
Ġold est
Ġp in
ĠL ee
Ġfall ing
ĠFace book
ĠD ou
ĠG r
et ing
qu ar
Ġag ent
Ġsod ium
Ġf ats
ĠT om
ag an
Ġphys ically
ĠJe ff
Ġinhab it
Ġfu els
ĠL ead
Ġgra vity
ĠOh io
ep ing
P R
Ġgra ins
gien e
i at
H A
Ġth read
Ġbl ess
ĠQue en
al ities
Ġl es
Ġcon j
Ġnarr ative
z ym
Ġachieve ment
Ġsur ge
Ġur ine
othe rapy
F ig
Ġw isdom
Ġtum or
C ons
ĠS aint
Ġcharacter istic
Ġemb ry
Ġphr ase
Ġst er
ĠH it
Ġcall ing
G et
pt om
htm l
sylv ania
Ġter ror
Ġsp ray
pl ed
Ġd ress
as y
ec ess
at hered
Ġher itage
ĠRo ad
ĠP en
Ġexpand ed
ĠHosp ital
% ,
Ġ vel
ĠP ot
ri x
our se
Ġsc hed
ĠBo oks
Ġf ur
ment ation
ine a
ĠJ o
ru it
Ġins ight
ĠAss ess
Ġemb ra
Ġf ellow
ple te
Ġmother s
Ġpromot ing
Ġâ Ĩ
Ġupd ated
C ar
e or
Ġv an
ĠGeorg ia
ĠW al
Ġ4 8
Ġcomp rom
aw s
Ġ5 5
ĠWith out
iv est
Ġmig ration
Ġhorm ones
Ġf ra
Ġsu p
Ġexpl oration
Al so
he a
Ġcolon ies
Ġtrib es
ĠPolic y
se mb
ĠU k
Ġbelie ves
Ġcreat ures
Ġunivers ities
Ġown ed
Ġadv is
Ġinteract ive
Ġpl a
Ġper mission
Ġweak ness
J ohn
z er
Ġ199 1
Ġcolon ial
Ġcommunic ations
Ġp it
Ġdefic iency
ĠI ss
Ġhuman ity
Ġvers ions
Ġmos quit
Ġh idden
Ġprop ag
Ġexc iting
Ġwor st
Ġmixt ure
P r
ig er
ĠEl izabeth
ĠT O
Ġne u
ĠN ov
ne ys
Ġperson ality
use t
Ġbe es
ĠB attle
ĠIm m
Ġmarket ing
Ġgir l
T P
Ġinc ident
Ġther mal
qu ir
ĠRead ing
s or
ĠC at
Ġal ive
Ġcan cers
Ġsm ell
Ġregard ed
Ġcontribut ions
Ġexhib it
i op
Ġt or
ĠColor ado
ograph ical
Ġimprove ments
h us
Ġeduc ators
Ġresearc her
H ist
Ġe ase
ist ant
ang le
Ġstri ke
Ġwa iting
E F
m m
6 7
Ġm ur
Ġgu ess
Ġord inary
ĠB usiness
ĠId ent
Ġpre ced
Ġlab our
Ġmathemat ical
6 4
T able
ĠL ight
pt ic
C om
ĠSt art
er ly
Ġgl ac
le te
ĠC ross
ric ted
Ġdesc ript
Go ogle
Ġintrodu ce
) |
bo oks
. ).
b our
u um
Ġconsum ed
Ġp H
ĠM ot
Ġcoun sel
Ġrob ot
ĠHeb rew
un a
ach uset
5 9
Ġre ct
Ġemer ging
Ġcustom er
Ġcalcul ated
Ġhousehold s
Ġsur g
Ġchem istry
Ġaim ed
achuset ts
Ġad olesc
ip e
Ġra ising
Ġkeep s
i ations
Ġd ense
6 9
Ġrepresent ation
it arian
Ġequ ation
Ġpsych ology
Ġcarb ohyd
ou l
Ġsub t
ĠS S
Ġsim ult
ĠKore a
Ġc ure
a o
on al
Ġiniti ative
L ast
Ġpoint ed
Ġcat tle
re ction
Ġt elesc
Ġd ies
Ġd imens
Ġsc ope
Ġquant um
ivest ock
ur ches
ert y
Ġpol ar
ans as
Ġplant ing
ment ed
ĠIm p
ĠTest ament
Ġg ent
ĠH im
Ġg um
Ġinteg r
j o
the w
Ġrecy cling
r ical
act ions
ĠArt icle
g ence
Ġflex ible
Ġbehavior al
fore st
ĠWind ows
Ġd airy
Ġcl ock
Ġres c
Ġfore cast
be an
rep rene
ĠO per
Ġer u
Ġappoint ed
ĠB ack
Ġac res
end ar
Ġ9 5
Ã ¤
Ġloss es
R C
Ġc ough
ĠDiv ision
E E
Ġf ing
Ġver tical
l ims
ur ning
Ġpur su
Ġcomput ing
ĠConf erence
Ġpray er
Ġbut ton
ĠÂ £
Ġox id
? "
y er
Ġo ste
ĠC orn
Ġse vent
Ġsafe ly
Ġprior ity
Ġexpert ise
c in
el ve
Ġfacilit ate
Ġste am
Ġholid ay
Ġc ul
Ġr ational
Ġchar ged
ut ation
Ġloc k
Ġmy st
Ġarg uments
Ġinvestig ate
Ġelse where
Ġinteg ration
Ġl ymph
ĠT im
Ġliter ary
Ġking dom
ĠMod el
B T
Ġplan ets
Ġpain ful
m ade
Ġse at
Ġra c
er ies
ĠSt an
fl amm
Ġd il
Ġclass ified
Be fore
Ġdram atic
it i
iv a
Ġatt itude
Ġperform ing
Ġemot ion
Ġr anging
Ġprefer red
re al
Ġsens or
Ġf o
Ġman ager
ĠHe ad
Ġstre ets
ĠCont in
A A
Ġp el
ul pt
b ec
d isc
Ġas p
Ġprom ise
Ġvacc ines
ĠSystem s
ĠH or
ĠD C
aterial s
ĠScot land
Ġ )
re f
Ġp y
ĠPenn sylvania
0 9
Ġo m
op l
ĠM ur
Ġch ap
ĠU V
h al
Ġdeterm ining
Ġdes ert
Ġ3 4
epend ent
Ġh al
ĠC r
H S
Ġt ong
Ġadd iction
Ġopt imal
er ally
Ġexp ed
Ġrem ed
Ġdeep ly
ĠL incoln
ap es
Ġsum mary
St ep
ĠMod ern
0 3
Ġent ertain
Ġdist ricts
Ġdri vers
Ġatt ribut
Ġinter face
Ġlow est
Ġfocus ing
ĠPar liament
Ġtown s
Ġoffic er
omet ry
Ġeven ing
Ġexec utive
Ġpl ain
Ġ3 7
Ġprec ip
ĠJ ackson
Ġline ar
Ġ19 30
Ġcorrespond ing
k ind
Ġcop yright
ad vant
l ights
Ġt ip
ĠMich igan
Ġab stract
E ach
Ġc ub
ĠD own
adel ph
Ġman ual
Ġin equ
Ġqu iet
ĠEd ward
Ġdigest ive
Ġt ort
Ġdem ocracy
Ġm ine
ĠIs lands
Ġper ceived
ĠOn line
Ġl aser
Ġarg ued
Ġshould er
Ġhabit ats
Ġwe aring
ĠChrist ians
Ġcra ft
ĠSch olar
ĠM id
Ġlog ic
Ġeng ines
Ġpar agraph
ĠS and
ĠM ach
Ġocc as
id al
Ġfac es
Ġf ought
il a
ĠMass achusetts
ĠR h
Ġpar ad
Ġcho osing
A re
Ġcap s
Ġstop ped
f ast
as m
Ġdirect ions
Ġthreat ened
at us
ĠJust ice
Ġremark able
p an
ail ing
ne um
Ġvers us
Ġpre y
Ġord ers
Ġd im
ĠCh apter
S m
Ġtell ing
Ġcolon y
Ġf isher
se ction
th od
Ġsh oot
Ġfat igue
Ġbal anced
Ġw ider
Ġl ens
Ġdefin itely
A B
w ords
ĠO l
Ġco operation
ĠLabor atory
Ġ Ð
op her
Ġdis m
Ġwebs ites
gh an
bor ne
I F
Ġre ign
Ġc otton
Ġrest aur
Ġaud io
Ġcon vey
Ġacknow led
ip her
Ġwatch ing
ĠHit ler
Ġreason able
Ġun n
Ġrec re
Ġworks he
Ġmind s
Ġsac red
Ġc as
O M
zy me
ĠW il
Ġcl ients
Ġro yal
Ġam pl
Ġpack aging
ĠAv oid
Ġenorm ous
Ġd uration
Ġthy roid
Ġjoint s
Ġfriend ly
' d
om al
Ġspl it
Ġre verse
Ġvir al
ĠS olar
ĠW ay
Ġcl othes
Ġcontain er
ĠHar vard
Us ing
th rough
Ġspok en
ĠA M
Ġch air
M ay
T ra
iz ers
Ġev ident
ch ain
Ġext ension
adelph ia
Ġtarget ed
ĠFor ce
hem istry
ĠAg ain
p ower
Ġre aches
ĠC D
ĠO tt
Ġins ights
ĠHaw ai
ĠL im
ĠO bs
er ts
ic ian
Ġreplace ment
Ġrequire ment
ĠL i
20 12
ĠIm pro
Ġdi pl
20 10
ĠConf ed
Ġwonder ful
Ġint ention
Ġpe er
Ġsustain ability
ra ham
Ġprov ince
Ġexpl icit
O D
Ġs aving
se x
Ġremov ing
ĠA R
Ġbiod iversity
ĠIn vest
Ġinf ants
rane an
ĠSund ay
ĠB u
Ġant icip
Ġrest oration
Ġstrateg ic
6 3
a is
Ġsu it
Ġcont ents
end ment
Ġdi arr
Ġec ological
Ġt ens
Ġref erences
Ġdiscuss ions
Ġspecial ized
ĠWild life
ĠAgricult ure
Ġsc iences
Ġprob ability
Ġsent ences
Ġcon clus
ful ness
0 2
u ity
ĠL ast
Ġestablish ment
Ġposs ibilities
Ġveget able
Ġent ering
Ġpreval ence
ĠPro cess
est ions
Ġcontin uing
Ġmedic ines
P ub
og y
Ġfl ash
Ġpass ion
ag s
Ġun cle
iss ipp
ay er
ĠP ur
ant ed
Ġch ose
Ġ3 9
Ġdifferent ly
D espite
Ġth roat
Ġw elfare
Ġbar riers
Ġheav en
Ġtraum a
Ġst yles
am i
Ġsp ots
ĠL os
ĠAn alysis
Ġg if
Ġlight ing
ay ing
Ġal arm
Ġassum ed
spec ific
Ġt ack
Ġd ance
olog ically
ĠAs k
Ġapp eal
Ġdef ault
Ġcomplex ity
Ġmetabol ism
J ust
Ġc rown
Ġdiff er
Ġtre m
Ġc ow
ber ry
Ġlo ose
Ġexpect ations
Ġdomin ant
ra q
ĠB uilding
ĠD rug
Ġtra il
Ġact ively
ĠP oint
c ut
re ens
Ġm ature
ĠSp ring
Ġt rick
Ġwe igh
ĠF ar
Ġfe els
Ġcur rency
Ġor b
Ġdis h
Ġbu ff
Ġlimit ations
us ive
b el
y ou
en ced
Ġg ift
Ġbur den
ĠInc re
Ġsav ed
Ġorig ins
Ġmov ie
Ġnewsp aper
ĠI ce
Ġbre aking
f eed
Ġserious ly
0 6
if ice
ĠG ar
Ġresist ant
Ġirrig ation
Ġf ires
ĠC ard
Ġemer ged
Ġcommit tee
ĠChristian ity
Ġhunt ing
U se
Ġp ets
ĠC lick
ĠP age
Ġcreat ivity
p ass
Ġdevelop ments
Ġob st
Ġvar ied
Ġinvolve ment
ĠLe vel
5 2
ĠHe art
Ġbu ying
ĠBl ue
Ġcelebr ated
Ġinter ior
Ġnutrition al
Ġimmig rants
s we
ĠC ir
Ġexist ed
Ġsett led
Ġhosp itals
ĠAlex ander
eut ic
) ||
L ike
Ġcon vert
Ġbo at
Ġastr onom
zym es
d ep
Ġprof ile
Ġstat istical
Ġl osing
ol ine
Ġscen ario
Ġrest ore
Ġoutbre ak
Ġl akes
Ġass ert
Ġaut o
ĠAm azon
Ġar c
Ġnut s
G E
The n
Ġaccompan ied
Ġs hed
ol k
ĠBi ology
ĠF act
Ġexpl oring
Ġground s
Ġs oph
it ical
Ġcirc ulation
ĠPhil ipp
Ġnot ion
Ġdr inks
Ġeng agement
Ġnot iced
Ġcour ts
Ġprof ound
g a
o z
Ġf lying
ĠC ost
um er
S ource
aw are
Ġsong s
en cing
ĠS ection
Ġha ven
ain ts
un ning
Ġsh ore
lect ed
Ġmeaning ful
Ġpurch ased
Ġther m
ĠB ul
Ġlif etime
. :
B M
S P
w as
ĠA L
Ġapp lying
Ġinc idence
te xt
w an
as ma
Ġsp r
Ġadapt ed
ou ds
Ġsp inal
Ġpay ing
Ġhyd ro
ĠTem ple
ĠNav y
' ,
Ġfr ust
Ġsav ings
oper ative
ic ts
Ġ19 20
Ġbreak s
u ber
un c
E ng
Ġbe at
or r
Ġvirt ually
Ġt ension
ĠB a
Ġent it
Ġanaly zed
ĠK ids
o ons
20 11
Ġread ily
Ġann ually
R el
N C
Ġh all
if er
Ġl ob
Ġl ists
Ġabsor b
Ġminim ize
Ġd ating
Ġmy self
Ġaccur ately
â Ķ
row th
ĠSp irit
Ġempt y
Ġb are
Ġ3 8
Ġveget ation
ĠKe y
Ġcelebr ate
. '
Ġj uris
Ġgl obe
Ġmagn esium
Ġagg ressive
Ġl ibr
ut her
od ed
Ġtrans mit
Ġviol ent
E G
u is
Ġgra des
ĠMus lims
Ġj oy
ĠPhil adelphia
Ġconver ted
Ġsh orter
Ġcl ub
Ġbas ically
ĠM ess
Ġra ys
ĠFranc isco
Ġsurg ical
Ġsymbol s
ent er
Ġwas h
Ġhand ling
f riend
ĠB ureau
Ġar ise
Ġclass ic
Ġunlike ly
e em
Ġclass ical
Ġmar g
Ġshap ed
Ġpip e
Ġl ivestock
Ġapparent ly
m ers
Ġh at
ĠG all
ĠEc onomic
ĠB ang
Ġreal ized
f e
Ġvar ies
Ġsed iment
Ġear s
Ġcompet itive
ĠMiss issipp
Ġben e
Ġdev ast
ick ing
cl aim
Ġinflu ences
ino is
S ec
Ġsp an
Ġw ars
m ble
Ġh ol
ĠE ll
ĠL ittle
Ġcl ay
th is
Ġde ploy
ĠE PA
Ġp airs
aw a
ĠAr ctic
Ġconst ra
f oot
m ail
Ġso ils
Ġcur ve
ĠPh ot
Ġassign ment
ĠPal est
Ġs essions
Ġwould n
Ġreflect ed
Ġoccup ied
Ġpil ot
in th
ĠC ode
iz z
Ġacc ord
Ġt ends
in er
Ġw at
og ens
Ġcould n
Ġjud gment
9 8
w orth
er as
Ġst ood
ĠM ax
ĠM aster
os aur
200 8
Â ®
ater al
Ġimp air
Ġvict ory
ak a
br is
Ġhy giene
Ġent hus
sh aped
Ġpen et
ter ior
Ġpr ime
Ġt ill
or ks
ĠL ew
Ġ20 22
ĠIsl amic
ĠS P
ĠR am
Ī Ĵ
Ġto mat
Ġsu icide
Ġs ulf
Ġp ione
Ġact ing
om eter
Ġtrans mitted
Ġrepresent ing
Ġm unicip
ĠC P
il st
ĠP ut
un ct
Ġt one
Ġbeg un
Ġ es
Ġcop ies
6 1
on in
Ġcontribut ing
T H
ĠCh ief
Ġgen ome
Ġor ange
rou d
Ġperson nel
agn etic
Ġtra its
Ġrec ording
Ġgard ens
ĠHer itage
ĠD utch
Ġse es
ĠN ob
Ġcalcul ate
Ġneur ons
0 8
iv ation
Ġag ing
Ġ4 2
pect ives
0 7
Ġb orrow
Ġatt itudes
Ġcollect ive
Ġt act
Ġg athered
Ġwork er
Ġpoet ry
Ġw ing
an z
ĠAnd rew
Ġrestrict ions
ĠWhe ther
oc ated
Ġche ap
ĠMin istry
Ġbene ath
f unction
Ġsw elling
Ġm ouse
Ġpl ates
lect ric
ĠHel p
b ell
l ock
Ġper mit
Ġproduct ive
Ġcal m
Ġflex ibility
g reen
Ġco at
Ġmin imal
Ġpay ment
wor ld
ĠK ent
ĠV e
ĠBe hav
pl o
Ġout door
ens ed
Ġcell ular
Ġs ons
as hes
ur able
ĠS everal
20 13
ment ia
Ġsp oke
Ġinc ent
Ġsol ving
ĠD am
C R
e fficient
Ġs ad
Ġreg ulate
chn ology
ira ble
Ġpresc ribed
ĠPer haps
us cript
Ġmem or
Ġconsequ ence
ĠTreat ment
ĠC E
ov es
Ġliter ally
P lease
htt p
! âĢĿ
Ġsc ulpt
ocol ate
Ġpass es
pro fit
Wh o
s k
ater nal
Ġqual ities
pd f
0 4
ign ed
Ġrepresent ative
Ġpredict ed
ly mp
ch o
Ġest ate
Ġreturn s
Ġcontroll ing
Ġv ibr
Ġpriv ile
Ġchrom os
5 3
ĠInd eed
Ġillness es
Ġd imin
ĠS anta
ĠI raq
ass ion
ond ay
Ġstr ange
Ġpup ils
Q L
ĠB al
Ġspec ified
Ġtub es
6 8
Ġ ion
ĠH T
ĠCent ury
Ġv ig
Ġdesc end
Ġbi as
at i
Ġo ils
reg ular
ĠH a
ĠF il
Ġcont amination
ĠK h
Ġtrans c
ict ions
ĠOr ig
Ġassemb ly
S im
qu ality
Ġopin ions
5 8
ce ans
ab ling
Ġmax im
ibl ical
Ġar thritis
5 7
U L
ĠSy m
Ġdevelop s
ol ves
Ġhypothes is
Ġse gment
ass ium
nes ota
an ol
T O
Ġt orn
Ġequ ality
Ġh o
Ġman agers
Ġinv asive
Ġabsor ption
Ġmotiv ation
ĠStand ard
ĠN O
rop ol
âĶ Ģ
Ġbe ans
ĠJac ob
5 1
Ġaddress es
Ġchick en
6 2
Ġspecial ist
200 7
ĠDig ital
Ġm ask
ĠC A
Ġas h
Ġident ical
Ġpost s
Ġaddress ing
ru e
Ġover view
Ġhealth ier
Ġbar rier
Ù Ħ
Ġar med
' .
a fter
Ġb ub
ĠN eed
Ġpers u
Ġsever ity
p re
ĠTr ust
Ġvary ing
R ep
Ġcan n
Ġrequ iring
Ġadv ances
Ġreve als
Ar t
out heast
Ġtransfer red
u v
Ġspace craft
Ġplatform s
Ġh am
Ġstra ins
p ress
Ġmagn itude
Ġlog ical
ĠMississipp i
ra it
Ġg ly
Ġemb ed
Ġdiv ine
Ġenh anced
ĠRem ember
N e
Ġchann els
Ġwood en
Ġpow der
Ġpro x
Ġsh r
ĠPl ace
200 9
Ġp ace
Ġplant ed
ĠF air
ĠF DA
Ġiniti atives
Ġevery where
Ġstream s
Ġsu g
Ġfund ed
Ġminor ity
Ġdro pped
Ġefficient ly
ĠOb ama
Ġw ise
Ġz ones
Ġdisplay ed
Ġintegr ity
Ġquant ities
b ox
Ġsp atial
ard ed
Ġsc r
en er
is ons
T wo
olog ic
Ġachie ving
ĠSm all
ĠA ction
ĠL in
Ġhy brid
Ġsus pect
Ġattract ive
Ġro d
ĠA C
Ġthem es
Ġdra ft
ĠSecret ary
ustain able
u its
Ġ( âĢľ
Ġprov ision
cept ions
Ġs ale
Ġd ict
Ġan throp
Ġat oms
ug s
Ġ194 0
Ġenjoy ed
Ġs ending
it ic
Ġdis advant
ry pt
Ġgod s
Ġabund ance
yth on
Ġsuscept ible
ob ile
Ġput s
sec urity
Ġaccompl ish
ĠIll inois
Ġan ger
Ġch urches
Ġadop t
Ġcitiz en
Ġhon est
II I
Ġb ought
ol er
ĠMus ic
Ġst abil
ĠR ail
ĠF ed
ĠCon vention
Ġ9 78
R eg
ce ive
Ġrul ed
Ġref lection
reg on
Ġcomp os
Ġpract ition
ĠEn cyclopedia
Ġphotograph s
Ġent reprene
iter ranean
Ġanalys es
end a
Ġdi ets
Ġinst ances
Ġpartners hip
Ġsche me
ru b
ĠComm ons
Ġassoci ate
al so
Ġpres erved
Ġ198 9
Ġver b
Ġpopular ity
Ġdimens ions
l av
Ġt ab
Ġt ap
Ġowners hip
Ġbe e
Ġvis its
A ut
Ġk nee
Ġtong ue
om ed
ist ing
vel ength
Ġmor ph
ĠS elf
ul ed
d i
ĠM oses
Ġpe ers
Ġoccasion ally
Ġsp ons
Ġdis charge
Ġtra ce
Ġsm ok
ĠSen ate
5 4
em b
Ġph ones
Ġspread ing
Ġdent ist
Ġregist ered
T A
ĠD esc
ian o
20 14
Ġamong st
Lear n
or ig
ĠBe ing
ĠCons ider
Ġconvers ion
Ġpu zz
Ġleg it
ĠPol and
do i
Ġfasc inating
Ġut ility
Ġgradu ate
Ġswim ming
Ġk g
Ġmed ieval
Ġpred omin
Ġsubs id
9 7
oc ity
Ġcra ck
Ġshe ep
ĠNe xt
Ġrob ust
Ġprepar ing
Ġwithd raw
ĠV itamin
th ur
Ġfif th
rit ten
ĠAr ts
Ġvis iting
Ġmeet ings
Ġto ile
Ġappl ies
Ġelev ated
iv ities
ĠÂ ©
ĠT own
Ġg ate
Ġble eding
Ġw al
Ġaltern atives
G l
ĠD ictionary
Ġele ph
Ġsleep ing
ĠWik ipedia
in ery
ys ical
ĠInd igenous
Ġre ef
pl ate
ĠH aving
Ġatt ributed
vern ment
Ġsudden ly
Ġind irect
Ġher self
fl u
Ġend ing
ou ri
ay a
Ġrest ricted
Ġjuris d
R em
it us
ar ks
ock et
Ġencoura ging
Ġinstall ation
9 3
w a
er b
ĠC apt
âĶĢ âĶĢ
m ond
Ġde bris
Ġper pet
ĠWh ich
Ġexc av
w orm
Ġm uc
Ġd oses
Ġ1 20
Ġinv ention
Ġlo op
Ġ ?
Ġsub sc
ĠDan iel
Ġc igare
Ġen cl
Ġdiscipl ine
Ġn oun
ĠInd ones
Ġcollect ing
Ġsatis fact
Ġalgorith ms
ĠO lymp
Ġlo an
Ġsc ales
Ġrel ate
Ġoper ated
Ġalong side
Ġrain fall
Ġju ice
Ġre vers
st ru
Ġpro l
ĠF ield
Ġfin ish
Ġcy cles
K e
erv ing
Ġref used
Ġperfect ly
Ġabsolute ly
Ġclass ification
Ġfav our
r in
Ġc able
Ġn om
ĠM ove
ĠP ain
ĠF red
Ġcy l
Ġwork place
ĠE mer
ĠPro ble
ĠMin nesota
ĠA ff
Ġcre am
Ġestablish ing
Ġc ited
el ing
ĠH ence
ĠR ight
ĠAb raham
Ġsurpr ise
em ies
S R
Ġaccept able
ac les
Ġcan al
Ġsym ptom
ĠGree ce
Ġreprodu ctive
9 2
Ġh ier
ĠFr id
Ġalgorith m
Ġin herent
k al
ĠM P
v ol
Ġre nt
Ġtra ding
Ġvolunte ers
if ier
Ġ2 50
ri um
ĠL ater
app ed
Ġdocument ed
k l
Ġsc at
Ġbr on
Ġaccount ing
Ġdyn amics
Ġregul atory
ab out
Ġinv asion
Ġval ve
Ġpros per
ĠM A
ĠP DF
Ġmod ule
S cient
r ust
ĠSupp ort
Ġsh ares
Ġsum mar
Ġdiagn ostic
omet ric
Ġst ere
ĠH indu
on ents
ĠM ic
Ġdevelopment al
j ud
Ġf ant
ĠH ung
ĠF arm
Ġdevelop ers
c ule
ĠI D
ad or
Ġ1 000
Ġdist ant
Ġdesign ated
ĠTur k
B I
or ters
Ġfil ms
Ġenc ounter
Ġmer ch
Ġw age
ĠP L
Ġres idential
ĠV iew
ĠMed iterranean
Ġ198 8
Ġexc lud
Ġpestic ides
Ġinhabit ants
Ġo l
Ġca ve
Ġg erm
Ġtrans formation
ĠHistor ical
Ġb ite
ĠR ab
ĠR est
ĠAn cient
Ġult imate
Ġsynt hetic
Ġs elling
Ġin ev
st ant
ĠD ie
mon ary
Ġathlet es
Ġres erved
Ġincorpor ated
Ġancest ors
et ically
ĠAnt ar
O P
is ations
Ġspeak er
ic ations
ut ical
Ġ4 4
Ġearthqu ake
g ments
ĠG M
Res earchers
Ġsurve ys
Ġs ister
ĠN utrition
Ġattempt ed
Ġpaint ings
e ven
j i
w estern
Ġl ingu
ĠB M
Ġkit chen
Ġmamm als
Ġsimult aneously
ĠM ain
ec onomic
ool s
ĠWe ek
Ġassess ments
Ġas ide
Ġequ ipped
Ġpriv acy
Ġdram atically
ĠH ard
Ġrec all
Ġatmosp heric
ĠAre a
Ġb inding
Ġf raction
ow ered
ĠCor por
Ġconflic ts
Ġsect ors
Ġincorpor ate
eli hood
ic o
Ġne ural
Ġvill ages
ĠC rit
Ġexpand ing
ĠAngel es
Ġex ch
Ġdis k
Ġro oms
Ġdist inction
Ġtot ally
G e
z one
Ġr anges
du ction
Ġun em
Ġmin ister
Ġcal endar
ĠAf ghan
Ġcivil ization
ĠOf ten
Ġburn ed
D L
ro se
Ġv om
ast ics
ils on
in ces
or us
Ġbe ll
ĠS on
Ġunder ground
id ers
Ġint ra
Ġall ergy
Ġallerg ies
Ġin ch
le ar
ĠL ine
Ġprop osal
He alth
200 6
Ġkilomet ers
h ost
Ġreg ime
Ġprecise ly
ĠSt ation
n ia
ĠW alk
Ġen zymes
ĠMexic an
Ġdo ors
ĠV an
ĠB eg
Ġemploy ee
Ġacc idents
Ġreflect s
Ġinfect ious
semb ly
ot ypes
ĠN a
ĠCar ib
Ġtransl ated
Ġbra ins
ĠMicro soft
an th
Ġf iction
Ġd ying
Ġmist akes
Ġtheore tical
ĠM rs
ĠL ook
Ġen forcement
Stud ents
Ġf t
ĠO nt
Ġh oly
ur se
ĠS qu
ĠCl ub
Ġhapp iness
Ġbl ank
res hold
ĠBet ween
Ġcele b
Ġorgan ism
Ġpack age
Ġdistingu ish
Ġal ert
Ġpoll ut
ĠPort ug
P V
v ation
Ġabandon ed
is ition
ĠS us
ĠD ue
akes pe
Ġto m
ĠO regon
3 00
Ġh opes
ĠH um
ian ces
Ġallerg ic
o is
Ġpart ial
Ġapprec iate
ugh t
Ġb orders
Ġsystem atic
ot ion
av en
Ġtum ors
akespe are
Ġbe ach
red it
Ġsens ory
riz ona
F ollow
ĠL at
ik a
istic ated
igh th
Ġper t
Ġconsum ing
Ġrepe at
Ġsem i
ĠT H
Ġbro ke
Ġsuggest ing
Ġabsor bed
ĠMat thew
ĠP ath
ĠF uture
Ġpro long
Ġwind s
Ġentit led
ĠW riting
ĠGu ard
Ġabund ant
Ġprev ents
Ġp neum
Ġr h
ĠAssess ment
Ġrel ating
Ġelect ions
Ġdrop s
Ġre venue
ĠF ish
Ġimplement ing
C lick
ous es
Ġman uscript
Ġret ain
Ġinject ion
P D
s ub
Ġwhen ever
pr ing
S ub
g r
Ġte ens
p age
ĠT ar
Ġutil ized
ĠScient ific
ri p
ĠO cc
Ġcam eras
ĠC T
Ġisol ation
Ġb onds
ĠWilliam s
F inally
Ġbe ars
an while
Ġh urt
ric ks
ĠMed ia
ĠApp le
b est
i y
ĠJ ack
Ġpartic le
Ġunt o
ĠBl ood
aut hor
Ġstru ck
iv ate
Ġconf usion
Ġlik elihood
Ġen zyme
Ġtrans plant
Ġbr ush
Ġfin ance
Ġe rect
old s
de velop
Ġcir cul
ari os
exp ected
ĠAl aska
Ġavoid ing
Ġmag azine
ĠMount ain
Ġcomp ost
ĠV ar
Ġstret ch
Ġconclus ions
d d
Ġo w
ĠB ased
Ġinj ured
Ġrese mb
Ġrespons ibilities
! !
b ury
ers ion
per t
itz er
b ow
Ġh ung
od ge
Ġcl ouds
Ġopt ical
ĠJ ones
Ġextra ord
Ġlect ure
Ġindepend ently
Ġcandid ate
c led
Ġtw elve
ĠMar ine
epend ence
Ġbound ary
an as
il itation
im en
Ġend angered
ĠGerm ans
ĠSam uel
Ġguarant ee
ĠH am
Ġ6 00
Ġdescrib ing
Ġhaz ards
ĠFrid ay
9 1
N ational
k er
Ġt ough
Ġcl oth
Ġcontin ent
r imin
at oes
Ġreview ed
Ġantib odies
ĠViet nam
et he
ide o
ĠTh anks
Ġimpro ves
est one
Ġconsist ently
Ġw ings
ĠP oly
Ġed ges
Ġstra w
Ġp ose
Ġoff ices
Ġoffic ially
ĠPract ice
Ġadolesc ents
Ġsp ine
isc ons
Ġevolution ary
Ġeld erly
ĠK n
ne a
Ġcor al
Ġsuggest ions
Ġengine er
ĠL uc
au c
Ġthan k
Ġrep utation
Ġleg end
Ġinfl ation
Ġmy ster
AT ION
Ġth irty
ĠP u
Ġde mentia
ov ing
Ġintellig ent
Ġon set
ĠN ic
Ġ198 6
Ġcollect ions
Ġsurround ed
Ġw ages
ĠN orm
ĠTw itter
Ġcorpor ate
ĠT raining
pl ay
Ġcontain ers
i ro
on ics
Ġre nd
ĠQ ur
Ġpen al
ĠAD HD
rolog ical
n ings
ĠN eg
ĠChar l
iscons in
Ġtend ency
Ġappoint ment
ĠP ass
iss ance
Ġpain ted
h r
ĠA T
Ġpart ly
Ġmetab olic
Ġse w
Ġint r
ĠO ffic
Ġdi agram
Ġdisc om
ct s
ĠC reek
Ġam ino
ĠCon nect
M an
Ġu l
Ġso y
Ġrep et
Ġgr an
Ġelement ary
D R
ĠC ub
the y
Ġgent le
Ġcirc ular
f ound
Ġmut ations
Ġsoci o
Ġcontamin ated
Ġl un
oc a
Ġmem ories
P ost
ig ious
Ġpart ially
Ġ4 3
i ac
ĠC H
Ġ6 4
Ġre nder
Ġwe aken
Ġdepos its
ent i
Ġr ough
Ġappro val
Ġbus y
ĠY es
Ġinter medi
An y
ĠTra de
M ar
ĠP rom
ak h
Ġprodu cers
ĠCol on
Ġl oud
Ġfact ory
Ġret ail
eng ers
Ġtherap eutic
wh o
Ġflav or
og ram
Ġbox es
G u
ĠL og
ĠA st
ĠM other
Ġr ib
Ġsurv iv
Ġg est
af e
Ġnurs ing
Ġo ceans
ĠB ol
Ġdis ag
Ġbroad er
Ġattribut es
ol ph
ob ic
Ġgra y
sc ience
ĠMiss ouri
A F
er ness
Ġwid th
Ġtrib e
Ġbrother s
t te
ĠM ajor
ĠW ales
Ġconsist ing
O s
ã ģ
Ġexp ort
ĠJer sey
a ver
ace utical
rib le
ĠEgypt ian
f ire
Ĥ ¬
Ġse al
Ġsh oes
Ġcoll apse
Ġsubsequ ently
Ġsc hem
Ġdep r
Ġcut s
gra de
Ã ±
ĠB rain
ĠR ather
ik ing
Ġver te
Ġdut ies
Ġrefuge es
i ating
Ġp ediatric
ip ation
Ġpat ent
Ġmodel ing
Ġeat en
Ġphilos oph
quir y
Ġv ine
Ġdel iber
Ġcomb ine
F ind
ill ance
osp el
" )
ĠC DC
ist ically
ecess ary
T rans
h amm
l am
qu es
ĠO p
ĠOther s
. ),
C he
C al
ĠPro duct
Ġcomple ment
in flamm
Ġatt ended
Ġ8 5
d a
ĠH yd
Ġorgan isation
ĠSh ould
Ġer osion
Y es
ĠB ell
Ġconf ident
Ġwa velength
ĠUn like
Ġhum idity
Ġcorrel ation
effect ive
Ġdiarr hea
Î ±
Ġdem ocratic
Ġinvest ments
Ġc ensus
Ġsome where
Ġarr ival
Ġsurv ived
ĠTur key
Ġd ried
Ġent rance
Ġadop tion
Ġg aps
Ġreason ing
Ġflu ids
Ġgra d
Ġfit ness
urric ane
v it
ĠS n
ĠJ r
ot ing
ay lor
th ood
Ġmonth ly
Ġstri king
Ġ rom
ĠA rizona
ĠR en
ook ed
ĠInt erest
Ġsch olar
ĠPhys ical
Ġ %
Ġsp ell
Ġthor oughly
Ġal tered
ĠR NA
Ġalg ae
Ġp roud
om on
Ġch ocolate
friend ly
Ġ( "
Ġde er
ĠB ush
ĠUn ivers
Ġsoph isticated
ĠB est
Ġdiv ide
Ġp ale
st ers
se ud
et erm
ĠH ay
Ġens ures
200 5
Ġdefin itions
Ġtrack ing
Ġreg ister
Ġevalu ated
Ġhoriz ontal
Ġth row
ĠI de
ore r
Ġv ice
Ġapp s
ĠAd am
Ġcandid ates
ĠF er
Ġax is
ĠD yn
Ġpar ks
ic an
ĠS av
ĠM ap
ĠInt roduction
9 4
Ġlast ing
Ġcat aly
Ġsepar ation
ĠC R
Ġexhib ition
ĠWork ing
Ġso vere
inc ome
Ġple asure
Ġinvent ed
A c
ĠH ig
Ġoper ational
ĠRes earchers
dom inal
Ġtox ins
art en
Ġdist ract
Ġshe ets
Ġpost ed
B D
ĠS em
Ġexp end
ĠPh D
ĠSimilar ly
ĠCarib bean
est hetic
ph ones
ps y
Ġuncertain ty
ĠD iet
Ġass ault
Ġpres ervation
Ġadj acent
Ġelectr ons
Ġdesign ing
Ġt anks
Ġpl acing
ip h
ĠBer lin
l ist
v an
Ġcos m
Ġdiscom fort
ĠB alt
Ġr ats
Ġcap ability
ed nes
ĠSh akespeare
ĠPl ay
ĠStand ards
Ġbot tle
erm at
Ġpromot es
ĠM ind
20 17
Ġche ese
ĠSchool s
EC T
imens ional
2 000
B A
o a
Ġweek ly
Ġadministr ative
Ġsub mit
el a
em eter
Ġse iz
Ġsub mitted
Ġfil ters
Ġapp et
Ġhyper t
ĠN ich
Ġgra ms
ath an
Ġfing ers
Ġal umin
nt il
ĠG DP
Ġj ew
Ġexc ited
st ep
th al
Ġpass word
Ġdes k
form ed
Ġmin i
onom ous
Ġel abor
ĠPr int
ade qu
Ġfac ulty
M od
ĠThe ory
ĠP aper
ĠSt ory
Ġcomm od
ple x
Ġrece ives
Ġterm in
Ġpred ators
Ġindic ators
ct u
Ġgl ob
ĠMary land
Ġauthent ic
C L
Ġw ake
Ġr ide
Ġtoler ance
Ġc odes
yp ically
Ġlab els
Ġspeak ers
ĠDav is
h uman
Ġdispl ays
Ġconven ient
v y
Ġcons ent
Ġclust er
Ġm isc
ĠApp lic
Ġrout es
ĠClin ical
Ġind oor
O W
Ġh ip
Ġnot able
Ġhome work
ĠComp uter
Ġcham ber
Ã ¨
at ile
Ġst ems
el ly
ell er
pl an
Ġhigh lights
Ġtreat y
atch ing
y an
ct ors
ĠN ation
âĢĿ )
Ġ4 1
Ġcy cl
Ġseason al
Ġgram mar
ĠOnt ario
ĠM onday
ĠLew is
, âĢĻ
Ġth reshold
od s
Ġint ensive
Ġeconom ics
Ġfat al
Ġattack ed
Ġaward ed
Ġlic ense
S L
an ium
ĠCult ure
W ill
Ġp ond
il er
ĠF ac
ĠOr der
Ġavoid ed
ot ten
un s
az e
ĠEx amples
ĠQu estions
ros is
thod ox
8 00
ĠW isconsin
ber ries
Ġcam ps
Ġagg reg
ĠW ars
ĠTh ird
Ġworks hop
ĠPr ince
Ġdest ination
Ġmur der
b ul
on ly
ĠH ab
Ġm ira
Ġgovern or
Ġtravel ing
y es
as al
Ġn ic
ff e
ĠO N
Ġprot est
Ġval ley
Ġir regular
Res earch
ac le
ĠAs h
Ġret urning
erc ise
Ġobvious ly
Ġpersist ent
um ns
os itive
Ġpay ments
Ġscen arios
l aw
Ġn odes
Ġlo ans
f ly
ĠO il
Ġper f
ĠSh ort
Ġupd ate
Ġtim ing
ĠTe xt
Ġtow er
ĠGard en
Ġel ig
Ġassist ant
Ġprecip itation
Ġp ine
Ġfound er
Ġimag ination
Th rough
Ġvel ocity
o om
Ġpl asma
Ġres olve
Ġinvest ors
b age
Ġcol ored
Ġaff airs
C op
Ġflu or
Ġflood ing
Ġimmig ration
Ġle ak
Ġshad ow
Ġwor n
roph ic
Ġtransform ed
quar ters
Ġpot assium
Ġcirc les
Ġfem in
ĠInt eg
Ġmob ility
ĠFranc is
Ġaccompl ished
ĠNaz i
or i
ĠH o
reat ment
ĠAs sembly
Ġadminist ered
Ġthr ive
Ġun expected
Ġdist ances
for ced
Ġwel come
W ater
iv als
Ġprom ising
urs day
U M
ree ment
ĠY ellow
Ġfoot print
Ġdoll ar
inet eenth
Ġb ull
du ate
Ġbi oc
ĠDiff erent
Ġal ike
Ġimportant ly
az z
Ġparticip ating
Ġexpress ions
Ġconnect ing
ĠF ig
Ġsequ ences
Ġafford able
Ġmir ror
Ġf irms
Ġcont rad
ap ing
Ġassess ed
Ch ildren
s ized
Ġv ag
Ġshould n
Ġleg acy
Ġprevent ed
yl on
Ġstrugg ling
ro le
ĠAn ne
Ġ198 5
Ġcompl iance
ĠSt ill
Ġ4 6
Ġoverwhel ming
h all
Ġb uck
ver ages
ĠWith in
Ġmole cule
ĠD oc
ĠO S
Ġconcent rated
Ġcert ific
E A
ĠB at
Ġpr one
Ġnum er
Ġprog ression
Ġdist ress
Ġdr ives
Ġsynt hesis
Ġem it
ER S
comm un
d ate
u an
Ġsym b
d ess
ĠPro per
Ġpers pectives
Ġfore ver
ĠÂ °
Ġdecre ases
Ġt ape
Ġs le
ar ians
ĠP ope
Ġmon ument
Ġbul lying
Ġshop ping
health y
b ro
c al
Ġthe sis
Ġn ick
ĠS ud
ednes day
W or
re strial
Ġear ned
Ġchar ges
Ġsurpr ised
Ġvac uum
c or
Ġf les
Ġinflamm atory
Ġp ushed
ĠC all
ĠM arc
ĠSc ript
200 4
Ġver se
ĠEc onom
Ġpros pect
Ġimper ial
Ġepid emic
Ġpurs ue
ra id
ĠJ im
ov ed
Ġfree ly
ropri ate
ucle ar
oc occ
Ġeduc ated
Ġindic ating
Ġarr ive
Ġpun ishment
Ġf an
ly n
Ġhe al
ub le
the re
Ġpath ways
-- --
Ġphysic ians
Ġa ster
Ġb ark
Ġd ow
om atic
ult ure
ĠIs a
as hed
Ġre hab
um bers
ĠN Y
Ġfib ers
Ġdrain age
Ġceleb ration
at ories
ur ated
ĠUnder standing
F urther
in ch
Ġhistor ians
it ate
ĠH em
ik i
Ġcont rary
h igh
Ġshall ow
ĠStat istics
Ġart if
Ġcr imes
ĠDar win
ric s
ne g
Ġexpl ored
Ġdev oted
Ġarg ues
Ġemp ire
ĠT enn
Ġen abling
Ġdef ines
Ġrob ots
Ġdefect s
A nt
A ss
ivers ary
ĠQ uality
Ġtrem end
Ġp est
le ton
Ġl oyal
Ġdead ly
Ġphenomen a
Ġm issions
Ġconf used
Ġcontribut es
Ġb ind
st orm
Ġ8 00
Ġqual ified
Ġsacr ifice
ol t
ĠN OT
ĠL ocal
Ġinsp iration
Ġtour ism
Ġpar liament
Ġobs er
ĠPe ace
ĠPsych ology
Ġp anc
ic ides
ĠD un
Ġstake holders
Ġcarbohyd rates
Ġpublic ations
sequ ently
ĠDem ocratic
ear ly
Ġtrans actions
200 3
Ġdistingu ished
Ġm ile
or ious
Ġpharm ac
Ġfall en
Ġm es
Ġan at
ĠG P
Ġj aw
hed ral
20 15
Ġencoura ges
: ||
Ġexp enses
Ġorient ation
Ġembed ded
Ġs ail
ĠRed u
Ġen lar
gg ed
Ġla wn
B ack
Ġy es
Ġhe ter
Ġbas k
ĠEm peror
ĠTeac hers
Ġdis hes
ĠInd ex
Ġ198 7
Ġoccup ation
ra red
Ġext inction
ĠGu inea
ĠGovern or
Ġacqu ire
Ġsp ir
ĠJ ava
Ġspeed s
ĠMat hemat
U C
j a
ch ron
Ġcar ries
Ġdistinct ive
Ġmanufacture r
H ave
ĠL ED
ph al
ĠTreat y
Ġstead y
Ġlibr aries
c ase
Ġg au
Ġtun nel
ĠUt ah
Ġde leg
ĠW ilson
Ġimp ressive
Ġprov isions
ĠIm port
Ġsn ake
os ity
ĠE nt
Ġse asons
ĠAl tern
ĠNet her
ĠCle an
Ġthor ough
Ġbroad cast
Ġrhyth m
4 00
Ġb in
Ġcolle ges
Ġmom ents
Ġcontinuous ly
Ð °
Ġf et
Ġland ing
Ġassoci ations
ĠT urn
ĠM uch
ĠH on
Ġmeth ane
ĠVictor ia
f are
Ġp ests
Ġg ains
ĠRe al
Ġsal mon
Ġdigest ion
Ġreserv es
D ef
Ġbe aring
l ings
ĠM ong
ac hel
ĠJ ob
Ġrepresent atives
ĠF a
ĠCent ers
R S
Ġh ack
st ic
Ġsh ade
Ġfert ility
Ġdial ogue
Ġtal ks
Ġdefe at
ĠFollow ing
Ġas ks
ĠLe ague
Ġcamp us
te enth
ef its
ĠStud ent
Ġen abled
Ġsaf er
Ġconduct ing
Ġrul ing
G S
y ard
Ġcons ensus
Ġspec imens
ĠScient ists
Ġarchae ological
Ġvom iting
t ype
u ine
ĠP A
Ġwas hing
ĠG il
Ġpr iest
Ġf rog
Ġpro state
m us
ĠC ore
Ġsearch ing
ĠVol ume
Ġpresc ription
Ġen act
Ġsp ark
Ġapp le
Ġpub l
Ġmat rix
do ors
Ġve ctor
IS T
Ġrecept ors
Ġm apping
Ġmal aria
Ġcoord ination
b u
Ġrel atives
ac her
ĠPh ilos
Ġreview s
erg arten
Ġshel ter
y t
Ġw ed
Ġutil ize
Ġinfluen za
swe red
b et
e ous
k o
im als
ĠA IDS
ĠH arr
Ġimmun ity
Ġco ins
Ġsub str
Ġorgan isations
Ġir re
Ġsett lers
Ġbag s
en h
Ġc ourage
ist ent
ĠTh ink
ĠMon th
Ġp ink
ig ma
ang el
ĠSc i
atur day
Ġwel ding
Ġbrows er
Ġre plic
Ġl unch
Ġtradition ally
Ġsole ly
Ġcontrovers ial
ĠNever theless
Ġmet eor
ĠB ern
ĠW HO
ins ula
Ġemer ge
W he
uls ion
d is
n als
Ġto ys
ĠH u
f ront
Ġnerv es
ĠSt one
Ġop ens
Ġdisapp ear
d on
or ney
Ġper mitted
Ġoccur rence
ĠPr im
Ġtherap ies
Ġgast ro
Ġdegrad ation
Ġtext ure
Ġf oster
ess ional
eg u
Ġcoun cil
ĠD id
ĠâĢ Ŀ
Ġgen us
Ġcritic ism
Ġreserv oir
Ġsk illed
Ġinflu ential
Ġdiagn ose
Ġmagn et
Ġextraord inary
Â ©
ce eds
ĠH an
Ġab ol
Ġb ills
he astern
ĠW W
Ġteac hes
Ġemploy ers
Ġillust rated
Ä «
et ry
ow ed
Ġrest ored
Ġsam pling
Ġadapt ation
Ġincred ible
B oth
m atic
Ġc ope
Ġh ill
ĠT ib
ĠR isk
Ġprec ision
Ġprogress ive
ĠBr idge
Ġpig s
Ð ¾
Ġp ou
are r
Ġins u
ĠAn imal
Ġz inc
Ġpoor ly
rolog y
ĠJeff erson
Ï Ħ
Ġf illing
ĠFrank lin
ĠN E
ĠCh all
Ġcol umns
Ġke ys
ruct ive
Ġthick ness
inflamm atory
. ||
n ected
ĠC e
Ġsp elling
D ep
Ġh arsh
Ġmed itation
Ġloc ally
Ġl ith
ĠF ull
are st
Ġname ly
Ġh ide
Ġch ron
Ġlim iting
Ġ4 9
Ġgener ating
ĠGra de
H igh
Ġhard ly
Ġ198 4
Ġcalcul ations
Ġsh ield
Ġsy ll
Ġdi ver
Ġrad i
Ġreprodu ction
l ation
ĠS ix
Ġarr anged
Ġincred ibly
ĠS C
ac on
Ġch ip
Ġgra ce
Ġfertil izer
M E
ĠD aily
ps on
Ġgather ing
Ġneed le
ĠAll ah
Ġdemonstr ates
Ġan ch
ĠH ot
act ic
Ġimp r
Ġincl usion
Ġen comp
Ġcomp aring
Ġ4 7
Ġcomple tion
tt es
ĠDe ath
Ġcr ust
Ġrefer ring
H T
r ons
ib li
Ġtra cks
Ġsk ull
the ning
Ġsusp ected
osa urs
Ġb er
ĠP V
Ġtrans f
Ġinst ant
Ġcar cin
Ġport ray
ĠPol ish
Ġlib eral
ĠInd ividual
Ġrecomm ends
Ġdecl ined
Ġimpl ies
Ġfro zen
own ers
Ġ ^
ic ting
ĠS ac
ount ered
gen er
ĠEx ec
R NA
Ġover weight
ĠAr m
Ġeduc ate
Ġdam aging
Ġmach inery
Ġc erv
Ġn ort
ĠS ab
Ġgen etics
Ġfeature d
Ġy ields
ĠNether lands
b urn
ĠS ource
Ġmark ers
Ġaf raid
Ġhun ger
Ġhazard ous
i ors
ick ed
ĠProt est
Wor ld
Ġp or
ĠA ud
i atric
id ae
Ġde hyd
Ġbr id
Ġresil ience
ĠC ase
ĠL u
co in
ĠEss ay
h ops
r un
ge red
Ġmet ap
Ġdiscuss ing
ĠH om
war f
in ition
Ġ Ø
Ġco inc
ĠRom ans
ĠR ose
Ġres on
Ġext rem
Ġenc ountered
Ġphot ography
ES T
Ġdin ner
C s
Ġth inks
ĠR and
Ġconf ront
ĠEn ter
Ġess ays
Ch rist
Ġanal og
fl ies
h our
as ures
Ġh orn
ĠG iven
ust er
Ġconsider ably
Ġprec ious
d imensional
ĠW atch
ag ger
ash ing
Ġcateg or
ĠSpec ies
à ¥
ĠB on
anc ial
Ġstorm s
f old
Ġf ate
ap ore
Ġatt ain
su pp
Ġelectron ics
ĠO s
Ġte ch
Ġ19 00
ile y
Ġmult ipl
. -
ĠG re
Ġdesign ers
Ġdisp osal
ios ity
Ġsucceed ed
ĠW rite
ĠE vent
Ġmain stream
Ġmyst ery
Ġt ied
ĠP rize
Ġacknow ledge
Ġreject ed
a ft
ĠW y
Ġins pect
Ġbo ards
Ġess ence
och ond
Ġin adequ
Ġ194 5
indu ced
ard ing
Ġqu ote
Ġstress ed
Ġorigin ated
Ġpreval ent
Ġab road
Ġfl ies
Ġreal istic
Ġdang ers
ĠBel g
Ġg land
Ġg ums
ĠL uther
r ange
Ġm akers
Ġl ying
ĠN ame
Ġsp erm
Ġher bs
ĠSp e
ann a
ĠTrans port
Ġlib erty
ropol itan
Ġpath ogens
Ġut er
Ġfa ult
Ġsitu ated
Ġpu pp
ro ck
ĠA h
ues day
Ġclass rooms
Ġaccomp any
s ome
ĠG ir
Ġpr ide
Ġillust rate
Ġcounter part
ĠJ on
Ġwrit ings
Ġgold en
Ġexec ution
Ġdism iss
Ġdom inated
ĠRepublic an
st ration
Ġdisc l
Ġdet erior
Ġsec re
Ġappet ite
Ġm a
Ġy ard
Ġemp ower
Ġconfig uration
Ġbe et
og ene
vel t
ĠInt ellig
Ġrot ation
Ġrevolution ary
Ġcomm em
Ġgener ator
Ġtele phone
ĠBudd ha
ĠS her
Ġd ign
ather s
Ġmass es
Ġinvestig ated
Ġprison ers
Ġexped ition
Ġvol umes
Ġprop he
ĠH as
ok ed
feed ing
V iew
Ġ198 3
ĠC F
ĠN G
Ġcomp at
Ġpolit icians
Ġaccept ance
f irst
Ġgen etically
ont o
Ġref rig
less ly
oph ag
Ġmut ation
Ġstim ulate
W ell
in stein
it le
ar ium
ul ates
Ġorgan ize
Ġmet er
Ġcross ing
Ġbelong ing
Ġexclus ively
B ased
k h
Ġvot ing
H is
Ġbe am
em ed
Ġequ ations
Ġbeh alf
Ġrecy cled
ĠM es
Ġk ings
rel s
Ġfurn iture
Ġs el
Ġeconom ies
Ġfac ial
Ġattract ed
Ġign ore
ĠAv ailable
e ared
x ic
em ics
ik es
Ġaqu atic
ĠAfghan istan
Ġst iff
am ents
Ġcomp act
Ġdist ribut
Ġimm ense
Ġprotect s
act ivity
io let
ĠBudd h
ĠSym ptoms
n atural
Ġt ang
ĠN C
Ġgra ve
Sp ec
Ġmist ake
ĠF ord
Ġsub tle
Ġeth ics
Ġweap on
s pring
Ġan swered
ry ing
Th ough
Ġsust ained
Ġsevere ly
l ink
â Ħ
ĠN ep
Ġaff il
ĠT ro
ĠT aylor
Ġsens es
v i
Î ¿
Ġt ag
Ġg ang
ĠM ission
ab etic
ĠN umber
ru ce
Ġlif t
Ġconvers ations
Ġdepart ments
Ġaccord ance
Ġsh ipping
iff erent
Ġunder go
Ġ5 2
Ġingred ient
Ġis ot
Ġv apor
rict ion
ĠAust ria
Ġdiscover ies
Ġconserv ative
Ġa ids
or ne
ĠElect ric
enti eth
v als
Ġ ic
op t
ac cess
ast ing
Ġpres um
Ġarrange ment
n ut
Ġh ang
Ġar bit
ĠZ h
Ġassum ptions
ar ter
Ġor n
oth y
ogn ition
Ġincor rect
Ġc er
ĠI ron
Ġout line
Ġcur ious
Ġpul led
ĠST EM
Ġcon g
Ġfest ival
! )
ĠP ear
ĠY ears
ĠMc C
Ġn urse
ĠO R
Ġ19 18
Ġpat ri
20 16
con f
ak i
Ġun ity
form ance
Ġcomb ust
Ġcat al
ag le
ose velt
Ġpr ies
Ġdocument ation
N ext
am ous
ĠCor ps
Ġunn ecessary
Ġm ast
ĠF low
Ġso ap
Ġmult ip
ipl inary
ow a
ĠC it
op ol
ers ed
our ing
Ġinf in
Ġem ission
Ġmil it
Ġsuppl ied
Ġresc ue
Ð µ
st ead
Ġcomm ands
Ġge ographic
Ġconstitution al
ĠIndones ia
p m
ĠT al
ĠD u
Ġ5 1
ĠSy ria
Ġo ught
ĠA z
ĠThe rapy
Ġr ic
end ers
Ġphys iological
Ġconsider ations
Ġin ver
Ġr ings
Ġart istic
ĠFr ont
ĠDep ression
Ġterrit ories
greg ation
. (
v ae
Ġ ~
ĠC old
Ġexam ining
Ġcost ly
ĠBehav ior
T ake
ĠP ython
Ġv iable
Ġ18 00
Ġinequ ality
or ient
ĠH op
Ġover se
Ġoper ators
Ġpow ered
Ġcollabor ative
Ġupd ates
ĠPers ian
bur gh
Ġprolong ed
s chool
ut y
Ġout doors
ĠTe aching
Ġsw allow
Ġenterpr ise
ĠCorpor ation
im eter
im edia
ĠB it
ĠN S
Ġdis in
Ġsee ks
Ġcat ast
Ġscen es
ĠE le
pt on
Ġport ions
Ġpollut ants
M us
Ġab dominal
ĠU lt
Ġexp ense
Ġblock chain
ĠDi abetes
in ning
Ġdis put
Ġgalax ies
Ġprogram mes
b ral
on ing
as is
art s
Ġsc rew
ĠPer u
Ġpick ed
ras ound
ĠEth iop
n on
ord an
ause a
Ġfe as
Ġhistor ian
Ġautom ated
x ious
Ġg aining
ĠB io
Ġ20 23
Ġquant itative
ris k
ĠPhys ics
Ġcount ies
Ġp ix
Ġm im
ĠB h
ĠN ig
Ġperson ally
Ġexpl aining
ĠPr ime
oles cent
ĠKore an
P L
ol ly
ĠL t
Ġextra ction
Ġco in
Ġent ity
Ġ9 9
Ġantib iotic
Ġpul monary
Ġrelie ve
Ġme ets
Ġrec ur
Ġmanufact ured
Ġprotocol s
ent ral
il ib
ig ration
ĠM and
ron aut
Ġapplic able
Ġspecial ists
Ġcardi ac
g iving
on ent
Ġm i
reat ing
Ġmotiv ated
Ġadvert ising
E l
Ġst atic
ĠD uke
Ġaccess ed
Ġdeterm ination
Ġtravel ed
Ġanaly zing
âĦ ¢
M ake
uss ion
ĠTr ump
ĠMar x
Ġ197 9
Ġsn akes
Ġexec uted
ĠStep hen
Ġsurve illance
P at
Ġn ode
ĠT ree
ĠI C
ĠScott ish
g ood
Ġb ike
ĠC ape
ĠE s
Ġveter in
e z
in ian
is hers
il ateral
Ġal b
Ġdig it
Ġod d
ĠPM ID
Ġye ast
w he
Ġm ercury
ĠLaw rence
last name
Ġw ra
Ġimp ression
Ġinter rupt
Ġcond em
role um
Ġde ple
Ġbr ill
200 1
Ġground water
Ġdat as
ĠSwed en
Th ose
Ġnecess ity
Ġmarg inal
A g
Ġp ec
ĠT alk
ĠAr men
e av
ĠC ond
ang ers
ĠK im
Ġsl ide
ole cular
Ġstop s
Ġbul k
Ġphr ases
Ġh ills
Ġpres chool
Ġris es
Ġep it
Ġde als
Ġsc al
Ġvacc ination
Ġstay ing
Ã³ n
ĠM oh
tern oon
Ġinteg ral
ĠRo osevelt
Gen eral
Ġb ands
Ġm art
Ġad mitted
eth yl
Ġgraph ic
Ġrepeated ly
Ġcoron avirus
ĠJ ane
Ġdeterm ines
Ġpip es
Ġat omic
ĠE val
Ġsim ulation
ned y
orr h
P M
Ġen emies
Ġmet res
Ġdatab ases
P s
he ster
Ġfor b
Ġwh ilst
Ġpot atoes
Ġfif ty
Ġfle et
t est
ĠR oss
ĠT ax
ĠC ra
ĠN i
Ġent ities
Pro f
Su pp
Ġal kal
Ġext ends
Ġ7 2
els on
Ġ198 2
Ġrespect ive
Ġign ored
he res
ĠP arents
Ġwealth y
ĠP a
ĠR us
Ġacqu isition
b its
â ĪĴ
Ġr ou
ĠJ un
ĠK ansas
Ġang les
Ġantioxid ants
ĠMove ment
R L
Ġgen uine
Ġprof its
Ġflow ing
ĠLe on
Ġabs ent
Ġcheck ing
organ isms
* *
E X
ag ine
ĠMark et
Ġnewsp apers
A v
Ġcheck ed
Ġang ry
ĠKen ya
ĠIndust rial
Ġtelesc ope
w all
he ld
Ġann iversary
Ġch a
ok es
200 2
Ġfrag ments
ĠLouis iana
Ġsubstit ute
t wo
ĠF A
ffic iency
isp here
Ġcompens ation
iz ational
arm a
Ġshort ly
Ġassum ption
Ġs ore
Ġb its
ou b
Ġdis asters
ier ra
Ġadv ised
ĠâĨ ĳ
T C
h ard
ar se
oc ur
Ġint u
Ġspeak s
Ġrac ism
Ġchap ters
Ġgif ts
Ġp ap
Ġre ar
Ġv on
ress ing
ĠJe an
st ud
Ġproject ed
ĠCont act
Scient ists
w riting
Ġmus h
Ġcy t
Ġ196 8
Ġattempt ing
Ġinher ited
ĠNob el
T ER
ĠL ind
Ġmean ings
Ġfail s
Ġconclud e
Ġepis ode
C ross
ĠH ans
Ġcomp assion
Ġgun s
Ġdim ension
Ġfles h
O b
ed uc
Ġd edu
Ġst uck
Ġcont ra
au g
ethe less
Ġl ig
Ġl apt
ĠS a
ĠB apt
onym ous
orig inal
Ġfor ty
Ġsp here
ĠO pt
Ġ5 6
osp here
Ġdoct rine
ĠP ay
ĠB ody
ĠR og
Ġcount s
Ġann ounce
Ġcas ual
au nd
Ġ5 4
P DF
p ost
Ġgu ides
Ġt ired
ĠL iving
form ing
rad es
Ġarchitect ural
ĠOb ject
s ens
ab ama
per ial
Ġj ack
Ġphot ograp
s ur
Ġc ows
ĠI L
Ġhe pat
ĠB an
Ġheart s
ĠH al
ĠRes erve
Ġvo ices
Ġsatell ites
ĠUk raine
k m
Ġw ax
um ing
Ġrec overed
Ġrep ublic
ĠUn it
Ġbow el
Ġinterpre ted
p o
ĠS leep
Ġbl adder
ĠHealth y
imm une
ĠSing apore
ĠDou gl
at re
ĠCre ate
o il
Ġsmall est
Ġrock et
ĠKnow ledge
m akers
ĠF all
Ġdef ining
s l
es see
Ġg ear
Ġbet a
Ġent ers
Ġautom atic
Ġcomprehens ion
Ġtoile t
S E
Ġ5 3
Ġfar mer
Ġbreak fast
Ġcompar able
Ġtransp arent
Ġ197 5
Ġpoll en
Ġn ineteenth
ra de
ĠB ow
ew ater
ĠV o
Ġbo ats
Ġpath s
Ġpath way
ĠArab ic
, '
Ġch ips
Ġun com
sc reen
Ġcast le
ĠMu hamm
v asive
ĠP oll
Ġper ipher
on ge
gen eration
Ġmel ting
p res
Ġd ual
ig o
ĠC hemical
Ġob sc
Ġview ing
Ch apter
emeter y
Ġmed ian
Ġ198 1
K ey
u ana
ul ative
Ġad ul
Ġsk et
ĠDe ep
Ġoper ator
Ġindic ator
ĠEduc ational
op athy
Ġbl acks
ĠNe uro
ĠMount ains
ĠTeac her
Ġasp ir
ĠTib et
for ward
Ġver bal
Î ½
Ġc oding
Ġd w
ĠC ut
est inal
ĠH ait
Ġret ire
Ġpublic ly
ik h
Ġterm inal
Ġpref erences
ĠA F
ĠEn c
sh ore
Ġrepl acing
ĠSer ies
Ð ¸
Ġb eds
ĠS ens
port s
app y
lar ation
Ġunem ployment
Ġhypert ension
ar ms
ĠM ental
Ġinv ited
Ġtem pt
ĠArch ae
ĠArch itect
Ġiniti ated
Ġign or
Ġneighb ors
Ġdescript ions
P ublic
p ur
in ced
ac ular
ĠSe lect
Ġpurch asing
Ġpredict ions
Ġbelong s
Ġdis par
Ġread s
Ġstruct ured
Ġgr ants
Ġassign ments
Ġcook ed
n i
Ġthr one
G od
ĠT y
ĠCar l
Ġrespond ed
Ġalph abet
Ġdevast ating
Ġst ack
ĠE M
Ġk in
int on
Ġhead aches
Ġpharm aceutical
best os
w ill
Ġt et
Ġs or
is ible
ot hel
ĠSo ft
Ġdefe ated
Ġsched uled
Ġsurviv ors
ĠS earch
ĠI g
ke ys
pl us
Ġreg ulated
Ġdepend ence
6 00
f ive
l ux
u h
Ġch ains
lic t
Ġnucle us
Ġstrength s
f il
ĠM aterials
ĠG reg
ĠN ort
Ġcoord in
Ġmethod ology
Ġinterview s
Ġgalax y
H er
al o
est eem
Ġmen u
Ġsubstant ially
Ġcrow d
E m
Ġth rown
ĠT en
ĠS ustainable
Ġenvironment ally
Ġden ied
ĠLin ux
Ã §
Ġsl ope
Ġteach ings
re ll
el and
ol as
ĠL ower
Ġag enda
ĠAr gent
Ġequ ity
Ġmov ies
Ġ197 2
ĠArch ives
Ġmag ic
Ġceremon y
ĠLar ge
( )
V I
Ġs orts
ation ally
B el
ĠA k
Ġv ocal
Ġpass ive
Ġbas ics
Ġge ometry
ĠPhilipp ines
Sec ond
Ġtremend ous
Ġcons p
Ġ197 7
Ġfe at
Ġser vers
Ġprom ised
sw er
Ġlabel ed
Ġge ography
Ġbreat he
Ġpoison ing
D isc
Ġb old
ur ally
ĠH unt
oc ent
Ġalle v
ĠA ges
ĠI b
res istant
Ġph ases
vious ly
Ġ194 2
P res
Ġg lands
ĠB ox
Ġpat ch
ather ine
go vernment
V D
Ġbe ef
ĠA N
Ġat om
vel ation
ĠInd ependence
Ġfoot ball
Ġconv inced
at ab
ke ley
ĠG ive
Ġover t
Ġeffic acy
Ġclust ers
ĠStan ford
Ġwh ales
aw ay
Ġbas in
lt ry
Ġinstitution al
aren cy
Ġconj unction
s un
ov a
Ġcreat ure
Ġhighlight ed
ĠS aturday
Ġcon ce
Ġwh ites
Ġwas t
Ġprop os
AR T
ĠFore ign
Ġnurs es
g ic
ĠW in
Ġbu gs
ĠCl ark
Ġcert ified
ĠConfed erate
Ġpractition ers
. ]
Ġre n
ig m
Ġad mit
In c
Ġconsist ed
Ġimpl ant
Hist ory
Ġim bal
Ġexpl os
Ġfol k
Ġbrief ly
ĠDie go
A ct
P ar
ĠR aj
ĠO m
ru p
Ġca ffe
Ġindu ced
Ġflu ctu
ĠPer iod
ilib rium
Ġcust oms
Ġtim ber
Ġpla que
b one
d eg
f our
Ġsur re
Ġmut ual
Ġalumin um
D id
Ġtempor al
Ġom ega
w hen
Å į
ĠM it
ĠTh ursday
Ġwell s
Ġcare ers
Ġrub ber
O ct
p ers
Ġp ushing
ĠB ad
ĠD om
Ġbl ame
Ġext ending
let ter
Ġcirc uits
Ch ar
Ġcontract s
t r
ĠS D
ĠB ah
us hes
Ġmod ules
Ġgu ided
ĠTurk ish
h ave
Ġ ib
Ġmiss ed
Ġmonit ored
v o
Ġinform al
Ġgr at
ES S
Ġcampaign s
Ġconstra ints
C or
ĠC ertain
ad ian
ential ly
ĠAr ist
Ġb ore
ĠP ap
Ġche aper
Ġpal m
Ġmicrosc ope
Ġst rand
ĠP i
Ġqu e
Ġob ese
Ġhistor ically
Ġfear s
ĠMill er
v ance
Ġg el
Ġy oga
ĠM os
igh ters
ĠAm endment
Ġkid neys
Ġrecept or
Ġfulf ill
J an
ĠIn iti
Ġgas oline
Ġcav ity
ĠIss ue
h ot
as a
ot yp
ĠM aking
ĠR E
erv es
Ġseem ingly
wh ite
ĠKen nedy
Ġaf ternoon
Ġartif acts
j amin
Ġ @
ĠR ay
Ġbuild s
O G
Ġ icon
Ġm ul
Ġl ining
ĠG and
Ġglob ally
Ġal ien
Ġra ises
ĠAr thur
Ġcoll agen
Ġvolcan ic
B L
m ill
Ġb ases
ĠW ednesday
Ġpress ures
ĠRel ations
Ġb ars
Ġm ail
Ġle an
ĠCh ile
Ġinteg rate
Ġste ep
Ġcert ification
d am
ol is
ĠL uke
Ġfract ure
c r
t em
ĠC ensus
Ġor th
ĠG rant
ex ts
Ġoper ates
ĠPat ients
ĠSk ills
Ġd ictionary
ĠS E
Ġ20 30
Ġrel iability
Ġpo ems
Ġaut onomous
Ġimpact ed
app ropriate
ĠCapt ain
Ġd well
Ġd irt
Ġfe e
Ġ194 1
Ġdelay ed
Ġsacr ific
F A
Ġg ross
Ġbur ial
Ġpromot ed
ĠNor way
emb ered
Ġo k
ĠN at
Ġimp osed
Ġchalleng ed
Ġagree ments
g on
Ġca ution
Ġsatisfact ion
Cop yright
ath ic
Ġdraw ings
Ġdecre asing
Ġpeace ful
Ġintest inal
C urrent
on duct
Ġev olve
Ġlar vae
Ġwar mer
ote chnology
Ġfunction ality
Ġgre y
Ġworks hops
Ġundert aken
ar p
ro ach
il ty
ĠSc he
sp e
Ġmount ed
Ġbank ing
Ù ħ
Ġbel t
ĠAct ivity
or ie
Ġpl ug
te in
ĠAr k
ĠRe qu
Ġsat urated
Ġp itch
ĠO pp
Ġrequ ests
ĠAn aly
Ġsaf egu
sy stem
Ġbiom ass
ur red
ra ge
ĠS now
ĠP R
ĠL ove
00 00
ob acter
lement ary
Ġpresident ial
Ġt ies
Ġt ear
Ġt ire
ch i
av ed
Ġrele ases
Ġce ment
ĠTenn essee
M at
l ob
op or
Ġmon aster
OR D
ĠDem ocr
y o
ĠL akes
Ġdo zen
Ġtra p
Ġfound ations
ĠEar l
Ġstri kes
ĠMo ore
Ġenthus i
M D
á ¹
Ġc her
Ġre ven
Ġcor ruption
S ometimes
as i
ĠT ri
ĠS ite
oth s
Ġdec omp
Ġmar gin
ĠProp het
Ġuncle ar
Ġjurisd iction
A ug
f at
Ġb om
Ġb ay
ĠE dition
Th us
Ġend eav
Ġaccum ulation
Ġphilosoph ical
P T
Ġwe eds
ĠF isher
Ġfe es
Ġslow er
ĠPlan ning
Ġlic ensed
o T
u ct
Ġan a
ep s
Ġdisp ute
Ġtrig gers
ir s
ĠH ong
Ġman kind
Ġlo ads
Ġmix ing
Ġworkshe ets
i ens
Ġm ud
Ġd rew
Ġex ert
Ġvari ability
ĠRes ource
Ġassess ing
ĠDec laration
ĠPub lishing
Ġlun ar
f ol
ĠS ex
Ġinter val
anc ies
ĠHis pan
Ġwin ning
ĠBas ic
D i
Ġto dd
ĠB BC
Ġar tery
ĠTe am
Ġmembers hip
â Ĥ¬
Ġfl ed
ien cies
Ġbreak down
ĠPart icip
Ġdiv or
mar ks
Ġalle ged
Ġdies el
Ġcommem or
ĠA qu
th s
ĠL G
Ġam mon
ĠAl abama
Ġemer gence
ĠEffect s
Ġt uber
ĠAl bert
Ġhost s
Ġwire less
Ġsc reens
Ġloc ate
arc hed
Ġmen stru
Ġdecl ar
ĠTor onto
Ġm aternal
Ġh ur
il ly
Ġbe er
Ġan k
Ġgl uten
Ġh ate
Ġparticip ated
ĠDef ense
Ġm arch
ĠJ ordan
Ġflo ating
Ġforg otten
ĠAcc ount
Ġintermedi ate
Ġelig ible
O rig
Ġl act
ĠD omin
ag a
Ġtrib al
Ġattach ment
o in
Ġw ires
Ġb rick
ĠR a
Ġk ne
In tern
Ġcar p
T HE
b acks
ĠS ep
ĠF ram
ĠG h
Ġcomp ression
Ġfollow ers
Ġdark ness
Ġnav igation
Ġles ions
Ġc ram
augh ters
Ġdest ructive
ic ul
ge bra
ĠG er
Ġev ac
Ġtra ged
we ed
Ġmod est
Ġpract icing
let al
Ġb icy
Ġf art
Ġin k
Ġrel ates
Ġfirst name
ĠWh it
Ġsing ing
Ġradio active
Ġrow s
ĠS ri
ad ays
int estinal
Ġ5 7
Ġactiv ists
Ġsurv iving
Ġrail road
eren n
Ġas set
ĠG as
Ġres idence
Ġcomb ining
Ġconcept ual
pro of
ĠCommun ication
ĠP ra
iff s
ĠSy ndrome
Ġappl iances
Ġinvestig ations
Ġalt ogether
b ot
c ription
p he
Ġd os
Ġpro sec
Ġres erve
Ġqu ad
Ġrelig ions
Ġparas ites
Ġp ound
ra ul
ĠD or
Ġsp ont
Ġsymb olic
ĠP it
rom agnetic
ĠF ive
Ġchar ging
ĠSh ow
Ġturb ine
Ġdescend ants
Ġab d
Ġacc used
Ġdiscuss es
Ġimag ery
Ġinterf ere
ĠAff airs
Ġd ump
ĠU C
Ġconsult ation
Ġclos est
Ġinadequ ate
h is
ĠK ings
Ġshif ts
oca ust
it oring
Ġhe ated
Ġcont exts
ĠK ong
Ġtr ies
ced ented
Ġinter vals
Ġcomb inations
Ġlack ing
Ġwet lands
j an
ĠK han
Ġimport ed
Ġed ited
ĠFl u
Ġcompet e
Ġprior it
Ġconstit ute
Ġmel an
Ġadvoc ate
ot ive
up iter
Ġge ographical
gra duate
Ġpneum onia
r int
Ġb es
Ġg er
Ġcon vention
Ġtra pped
Ġind ication
Ġsec ular
Ġhead ed
Ġconstit u
Ġoccas ions
Ġdow nt
ĠH ub
Ġve ins
Ġst ain
Ġnav igate
ĠBro ok
Ġarrest ed
ĠLiter ature
ĠObs erv
Ġo zone
ĠF em
Ġbut t
Ġposs ession
Ġvent ilation
Ġinher it
Ġth ou
Ġse as
Ġund ers
Ġpoly mer
Ph oto
el d
Ġdes irable
Ġelev ation
Ġcryst al
Am ong
ĠL ady
ĠV eter
Ġfound ing
ĠAl f
Ġter rible
ĠCons erv
I O
Ġnot ably
ult ural
Ġsym p
Ġtalk ed
Ġdemon stration
Ġcorpor ations
Bl ack
ĠS in
cell ular
Ġvirt ue
osy nt
W ork
Ġcr ash
âĢ¦ .
Ġinstruction al
ĠMuhamm ad
ed ge
Ġth umb
Ġl uck
ol ith
Ġ5 8
Ġsym met
reg n
Ġ197 6
ĠChurch ill
Ġinsu fficient
m outh
ra c
ĠS M
Ġsu ited
Ġland f
Ġnorm s
Ġprem ature
ĠUr ban
Ġtack le
ĠL es
Ġinc idents
In ter
Ġcomple ting
ĠPh arm
ĠPl ants
Ġbat tles
Ġox ide
Ġinsp ire
Ġstim ulation
Ġmosquit o
ĠTh ings
Ġless er
Ġpract iced
fort able
Ġkn ock
ĠAccess ed
ĠKent ucky
ic iency
ĠR out
Ġint act
Ġcor ros
inc ial
Ġdial ect
Ġan ten
ĠP resent
ors hip
ĠYou th
ann el
Ġreform s
ĠNig eria
D ata
S C
c at
Ġn ausea
ra ined
ĠC omb
ĠR ub
Ġcons olid
Ġsure ly
ĠBar b
Ġunp re
ĠCast le
e u
ad ic
ĠB ird
ĠH ad
Ġwor ried
Ġpl astics
Ġgl ory
Ġpur ple
Ġ194 4
l ied
Ġ ions
Ġm elt
Ġpass engers
ĠRep resent
Ġtri ps
D es
Ġb inary
am ation
Ġgra b
Ġread ings
Ġobserv ing
ĠMar g
Ġinterf erence
ĠTor ah
Ġperm its
ĠHawai i
Ġc ater
Ġr ash
Ġsp ite
ĠV ill
Ġact ors
Ġrel ies
ĠMar ia
Ġinput s
ĠC L
ĠR od
Ġint ens
Ġwere n
Ġillust rations
Ġevalu ating
Ġju ven
Ġcontrovers y
ĠPop ulation
ĠH ind
ĠN ile
Ġsh o
Ġ197 1
Ġsil ent
Ad d
ĠAdv anced
S ch
g ram
t ics
Ġde emed
ĠR u
rou ps
Ġpat ches
Ġsug ars
ĠP H
op sy
Ġwe ed
ib ration
ĠCh am
Ġed iting
ix ed
Ġpul se
Ġelimin ated
ĠC ert
Ġcol ours
ĠTra vel
ogen esis
vers ion
ĠEv olution
or b
am an
ist ence
Ġwor ms
Ġactiv ation
Ġsocial ly
Ġcalc ulation
Ġnav al
Ġacknowled ged
B et
d in
p owered
in ence
ĠP ack
ĠF OR
Ġatt ending
Ġcar ing
ĠCar bon
Ġvot ers
Eng lish
ĠIntellig ence
E urope
ĠC ook
Ġqu ot
ĠCol lect
Ġ197 4
Ġextract ed
Ġdys function
Ġscar ce
Ġfra ud
P P
he nd
Ġactiv ated
Ġgall ons
Ġexclus ive
M on
oc ate
Ġworld s
Ġcare g
Ġdr illing
plic it
Ġ196 5
Ġselect ing
Ġpan ic
Ġstrict ly
he rence
ĠC M
Ġtest im
Ġchem otherapy
Ġinstruct or
amil ton
Ġjew el
o en
Ġr ating
pl ane
ast ed
Ġimp aired
Ġar teries
Ġoff spring
Ġmod ify
Ġcra fts
Ġnegative ly
ĠBudd hist
ĠImm un
D own
p erson
Ġc ups
ĠVis ual
ĠCreat ive
h ol
Ġd ated
ĠM agn
ĠB os
ĠF le
we et
Ġwar ned
ĠBe ach
Ġpromot ion
re as
ig s
ĠC redit
Ġart ic
ĠOr thodox
ĠIm age
Ġfresh water
ĠImp act
d ec
l ades
r ish
y ers
Ġl enses
se ts
ĠS ierra
ĠC ust
Ġan ts
ĠR ap
Ġexam s
Ex pl
Ġdiam ond
Ear ly
c m
p ose
ing ham
as ia
Ġh ind
ĠN ap
ell o
Ġun healthy
Ġcar rier
ator ial
Ġrul er
Ġsepar ately
Ġinsp ection
Ġgro cer
Ġp seud
Ġin h
Ġpro claim
ĠM alt
lud e
Ġquestion na
Ġintrodu cing
urg ical
Sc ience
Ġvolunte er
A f
g ia
Ġpro be
ress es
Ġdisc rimin
Ġ6 6
Ġinvest ing
ĠUs ually
Im age
A V
ĠIn nov
pro cess
ĠReg ional
Ġemp athy
Ġban ned
J u
ĠF acts
Ġse gments
Ġnew born
Ġcount ing
Ġexpl ores
Wh ich
Ġep ile
ĠCult ural
n est
w ich
ail and
ĠAl b
ect or
Ġ19 14
ĠK at
Ġins ulation
Ġdesign er
Ġtru ck
Ġfrequ encies
ĠExec utive
b led
p ub
s ource
Ġt ale
Ġy og
ĠGu id
Ġconcent rate
ĠPhil ip
Ġfung i
d em
Ġs ins
ut ri
ose x
Ġsimilar ly
Ġelimin ating
Ġrestaur ants
D ec
ĠT ok
ĠL ic
Ġmet all
ĠCon c
Ġvers es
Ġmill enn
Ġtoxic ity
W S
it ar
Ġse ats
ious ly
Ġnum b
ĠCap ital
l ip
m id
Ġto mb
ĠT uesday
ul ent
sel s
Ġgovern ance
Ġ197 3
ĠDise ases
Ġsurge on
Ġentertain ment
ĠFred er
v as
Ġw ool
Ġwhe els
Ġcontin ually
ĠCon stant
Ġunt reated
ĠBer keley
ĠCa es
Ġpron ounced
Ġunpre cedented
Ġv oy
Ġind ivid
Ġsystem ic
Ġlong est
Ġlandsc apes
ĠHistor ic
Ġinsert ed
itzer land
Ġcombust ion
z ens
Ġex em
Ġcl osing
Ġper sec
Ġpresent ing
ĠIndian a
Ġdream s
unc iation
Ġlegit imate
S ign
Ġl y
ant ine
Ġch amp
ĠR ain
ĠG PS
Ġph on
ĠRes ults
ĠUS DA
Ġinnov ations
Ġw ounds
ol ia
Ġcon ve
Ġoff set
Ġcou pled
Ġmac ro
ĠC hen
ag u
ang ular
Ġn asal
ĠB ob
are t
Ġup set
ĠCol lection
aut ions
ij uana
Ġexplan ations
ĠSum mer
Ġsod a
Ġa ug
Ġn urt
ol utions
ĠAn th
Ġsens ation
Ġgard ening
Ġalt itude
ĠTer rit
ĠVen us
Ġl ighter
ĠD ak
Ġres ident
Ġrem embered
Ġplan es
Ġconf ined
ĠAll en
ĠIm perial
ĠGold en
il ization
ig nt
ins ic
Ġreal m
ĠComm and
Ġglass es
Ġsettle ments
li hood
osc ow
ĠCop yright
Follow ing
B en
S everal
b ial
ĠS ant
Ġ197 8
ro ve
st able
ĠT ai
ĠM IT
ĠF ox
Ġdep icted
enn is
Ġimpair ment
F L
am bo
Ġprov inces
Ġ7 00
Ġstat ue
Ġvolunt ary
Ġobst acles
Ġre pt
ĠSt ress
Ġshar ks
Ġbrid ges
Ġm urd
ir ical
Ġsc rap
Ġexpl osion
ĠZ e
Ġsix th
Ġincl usive
Ġhepat itis
ĠT our
Ġdis se
Ġpre jud
Ġident ifies
Ġsimilar ities
Ġload ed
f ather
m ind
Ġf its
ow ers
ru bs
ass ment
Ġtw entieth
Ġbow l
Ġpy ram
Ġhung ry
Ġaff irm
oven ant
D is
b en
l ies
ic ut
ĠS i
ers hip
ĠB uild
ĠW as
Ġse af
Ġtrans cript
Ġrev ised
n ames
y st
ar ity
im ination
Ġgra vit
Ġ9 7
F ood
Ġp od
Ġp iano
Ġan xious
Ġle ts
Ġunc ons
Ġnegot iations
Ġcaffe ine
ac re
ac erb
Ġref ined
ug ar
ĠDep ending
Un fortunately
Ġjour nals
ĠMem orial
ĠAuthor ity
G reen
Ġp orts
Ġl ux
ĠC hemistry
ĠB esides
Ġper ceive
ues e
Ġrein force
Ġaccommod ate
Ġdign ity
Ġs ake
Ġc ro
ĠP as
ĠP ict
Ġwork force
Ġbas eline
Ġteen agers
U p
om ething
ig ion
ĠB ot
ĠSt aff
Ġwar rant
Ġpack ed
ĠGree ks
Ġbott les
ĠEv idence
Ġpou ltry
it ives
Ġr ip
ĠAl ways
Ġintest ine
Ġimpr ison
Ġbrill iant
N on
N et
Ġs ends
Ġb on
Ġadvoc ates
Ġcub ic
ĠA B
os itory
ĠL ie
Ġad min
Ġimp ul
cul osis
ĠGen erally
Ġsold ier
ĠT B
ĠC ru
os ures
Ġout standing
Ġtra ins
Ġmod es
Ġpoint ing
Ġpositive ly
Ġnetwork ing
Ġoutl ined
Ġcultiv ation
G ood
H el
Ġm ines
Ġinv al
Ġbit ter
Ġsequ encing
ĠAgricult ural
Ġexplicit ly
Ġs emic
ar on
Ġch at
ĠF un
Ġser um
ĠStr ateg
Ġprosper ity
ĠT ogether
Ġra ces
ĠAl i
Ġprom ises
Ġsil icon
Ġclin ic
Ġast ronaut
Ġdiss olved
Ġdeploy ed
ĠS outheast
ĠE C
per ature
Ġ196 9
ĠIniti ative
r ings
s ite
Ġper me
Ġsome how
Ġenh ancing
ĠFre edom
Ġconsid ers
Ġsan ct
Comm on
Ġcrypt ocur
Ġun su
ĠAnd erson
Ġachieve ments
Ġprior ities
Ġmicrob es
opor osis
in ar
ĠB all
ac ity
ĠD ub
10 16
Ġplace ment
Ġeconom ically
Ġfather s
Ġtrig gered
Ġuncom fortable
F C
N T
Ġtrans it
Ġdisc ount
K now
c ount
v ised
ĠP il
Ġret ention
Ġlast ed
Ġblock ed
Ġcru el
ĠCom ment
Ġcitizens hip
ĠBas in
Ġbill ions
Ġearthqu akes
D av
L S
f in
Ġd warf
im ental
ĠB rad
Ġsh ark
ĠJ upiter
ph a
uc ks
Ġunc omm
Ġillust rates
b uilding
u ate
ĠH ou
Ġat e
elt a
Ġdemand ing
ĠAnt i
ĠDi agn
Ġfro st
Ġc ock
Ġv ow
ĠU pper
Ġcount less
Ġmon etary
Ġfre ed
isc al
m ates
Ù Ĩ
Ġbe verages
ĠC S
ĠW inter
aud i
Ġa rom
Ġb od
Ġen erg
ĠCh ap
Ġstr at
Ġbeh ave
Ġsubject ed
Ġtur tles
Ġvot es
Ġantioxid ant
h ome
Ġp umps
ĠB oy
Ġdis abled
ĠV ery
Ġpast e
Ġod ds
Ġnob le
Ġbask et
Ġwast ewater
d ated
ĠB road
art icles
Ġreg ards
Ġter restrial
Ġ196 7
Ġtit les
Ġdefic it
d ig
v ic
ron es
Lear ning
Ù İ
Ġc od
et on
Ġcon sec
ĠP s
Ġex acerb
Ġcrit ics
Ġfund ament
ĠMars hall
Ġshel f
Ġembra ce
Ġg ently
Ġdel ight
Ġsil k
Ġstay ed
rag on
Ġjo ining
Un iversity
dep th
V is
Ġt y
Ġin quiry
Ġdes per
A I
is er
Ġb iblical
Ġin ability
Ġlater al
Ġtravel s
Ġstri p
Ġadjust ed
Ġcompr ised
Ġdiscipl ines
Ġwat ched
t ically
ar b
ĠH az
em an
Ġ6 2
Ġequ ilibrium
Ġdam ages
Ġfail ing
sec ond
Ġflood s
Se pt
l an
o ard
ĠI owa
op ing
ri ans
Ġrec ru
Ġhead ache
Ġconnect s
roph y
Ġreprodu ce
ignt y
ist le
Ġ19 17
ĠBen jamin
ĠBro ther
ĠDen mark
1 50
ĠS ound
ĠP erson
Ġtem ples
ze ch
ĠTest ing
ĠArab ia
Ġentreprene urs
F eb
Ġsh ame
red ict
Ġ5 9
Ġgr asp
Ġrad ar
Ġaccording ly
M arch
u y
im ity
ra ce
Ġsynt hes
Ġstret ching
! "
P E
S ocial
it ime
al in
ĠB ishop
Ġr iding
Ġinf rared
Ġsol ved
Ġpass enger
Ġdel icate
ĠAll iance
pro t
ĠAnt on
Ġextensive ly
O U
ĠP rior
ff icking
Ġgener ates
ier ce
ĠSw itzerland
Ġcyl inder
Ġrehab ilitation
ĠP ediatric
ĠF eed
ĠCol omb
G A
un es
ĠVir t
Rem ember
ï ¼
Ġb apt
Ġf ost
ad i
ĠM aine
ĠB ed
Ġen roll
Ġwar fare
Ġstandard ized
Ġsurround ings
Ġincorpor ating
Ġindivid ually
F S
i pt
av y
els h
ĠÂ ·
Ġtransport ed
Ġpries ts
ĠF est
ĠN urs
Ġche cks
Ġec ology
Ġest rogen
Ġneg lect
Ġcompet ing
Ġwitness ed
Ġpra ise
ĠCho ose
âĢ ³
am el
Ġr ival
Ġfact ories
Ġharm ony
Ġsil ence
Ġtou ching
cons cious
rox imately
Ġrefrig er
or se
op ter
Ġde af
ri ends
Ġinter con
Ġhand ful
az a
Ġdraw s
ĠMil itary
Ġpure ly
h as
p y
ig e
Ġad hes
Ġunder m
ĠCom par
Ġdisapp eared
Ġol ive
ena issance
Ġtomat oes
H z
ĠK u
Ġcar go
Ġprot otype
Ġcort ex
ĠE instein
Ġpot ato
Ġproblem atic
Ġ193 9
th reat
Ġpre lim
Ġfail ures
ĠIsrael i
Ġlegisl ative
Ġrecip es
s im
Ġco ating
Ġret rie
Ġport able
T ime
Ġd amp
ĠK it
hes ia
Ġdr ill
Ġpred iction
Ġstreng thening
Ġvulner ability
ĠT rib
im ated
us ions
Ġagg ression
ĠBang lades
u ated
ĠT ob
um a
Ġint rig
ĠAl ong
Ġ6 8
Ġbr ut
ĠPol itical
Ġprelim inary
we alth
Ġmod ifications
Ġcent res
ias is
Ġapprec iation
ocy tes
Ġhop ed
ĠWorks he
ĠMathemat ics
Y et
p op
ing e
Ġd ye
ut ers
Ġlit ter
Ġpot ent
ĠPl us
Ġh ob
Ġhigh way
Ġflu x
Ġas ym
ĠD ental
un ks
Ġpe as
hem atic
Ġeth anol
cont rol
Ġpref erence
Under standing
Ġl iber
ĠP ersonal
Ġexplo itation
Ġf ans
ant e
Ġsupport ive
ĠReg ion
Ġscat tered
Ġ6 7
Ġlive lihood
Ġcoll aps
AR S
Whe ther
Ġcerv ical
O UR
Ġs au
Ġ1 10
Ġinf o
Ġorgan izational
Ġleg ally
Ġcurrent s
Ġtit led
S ym
ĠP RO
Ġ194 8
Ġtable ts
Ġmosquit oes
ro d
ĠA ward
ĠR oc
Ġter rain
ĠTe le
ĠMach ine
raul ic
re ach
ar atus
ul iar
ĠH amilton
Ġarrange ments
b ound
re hend
Ġe ternal
ĠC ab
ĠP y
ĠTh ailand
Ġinst inct
ĠChar acter
Ġreb ell
Ġlik es
Ġswit ching
Ġremed y
Che ck
ĠEconom ics
Ġto ll
Ġsu cc
arc hes
ĠEx cel
Ġacid ic
ĠProt ocol
ĠQue ens
forest ation
Ġveterin arian
s erv
Ġdr um
ĠCount ry
Ġcross ed
Ġc el
Ġst amp
ress ions
Ġdeliver ing
Ġadvent ure
Ġcann ab
a us
Ġredu ctions
Ġpass ages
Ġtri angle
Ġpip eline
ĠHol ocaust
Ġneu rological
ĠS QL
Ġapp les
Ġatt ribute
Ġtru cks
AT E
Ġtrou bles
Ġmunicip al
S y
ĠM ason
est ab
Ġun ions
Ġpub lishing
ĠAg reement
ĠMag azine
Ġinev itable
ĠC ro
Ġam ph
Ġmon arch
ĠCon n
Ġutil izing
Ġmyster ious
ot ted
Ġst ir
mon th
ĠBel ow
Ġst ocks
ĠM oscow
Ġcrit ically
ĠSu ccess
Ġinvestig ating
ĠRad io
Ġspir its
J une
P C
g roup
Ġfor cing
th ird
ĠE at
St art
Ġincent ives
Ġuncons cious
Ġuncomm on
t w
Ġv ic
au nt
Ġlight ning
iol ence
pro f
Ġsex ually
Ġchart s
er ce
ir k
ĠV ideo
Ġult rasound
ĠFin ancial
Ġstraight forward
Ġstimul i
M s
Ġn od
Ġint ric
Ġind o
20 19
Ġemphas ize
Ġrecon struction
F e
Ġs its
ro ts
ĠH PV
Ġaut umn
Ġ6 3
h ad
Ġo un
un n
Ġhas n
Ġinf erior
Ġret ained
Ġcomb ines
Ġobt aining
Ġp erenn
Ġf ired
Ġm asks
âĢ ²
ĠG ame
Ġem peror
Ġrecogn ised
ĠPortug uese
atab ase
re a
Ġs ink
Ġmark er
ĠMay be
Ġped est
Ġelabor ate
= "
en ergy
Ġqu oted
Ġtra ces
Ġstrugg les
Ġwaters hed
ĠConnect icut
f ood
r ator
end ix
ĠCh ron
arm ing
ĠMe anwhile
Ġur gent
ĠAlex and
ĠCir c
Ġlingu istic
M in
S ur
T ube
t i
el le
Ġen rich
mer cial
Ġright eous
ceed ings
ĠTechn ical
Ġepid em
Ġturb ines
Ġt ears
ar an
ro b
ch ild
Ġsign aling
ĠEurope ans
Ġconsist ency
ĠPlan et
ĠD og
Ġwas hed
ard less
Ġperman ently
Ġdrag on
U D
c ost
m ay
Ġrequest ed
Ġsatisf ied
pp ers
Ġr um
Ġprec autions
Ġmit igation
Ġtraum atic
Ġm as
ĠC ass
Ġ1 30
ĠD E
Ġpo le
Ġappro aching
Ġindu ce
Ġdispl ace
Ġnation wide
Ġpray ers
ĠBuddh ism
The ir
Ġepis odes
ud son
all ing
Ġsub mar
Ġgu ilty
Ġfram es
Ġregist ration
F T
st yle
ĠW right
Ġr anks
Ġres olved
Ġra m
Ġed it
ĠNe v
Ġcon gest
Ġparent al
Ġprim itive
Ġappropri ately
ĠProtest ant
Ġwh ale
Ġafter wards
Ġmaint ains
Ġmicro organisms
oler ance
Ġ à¤
Ġc ables
or ical
Ġf ool
ip ed
ry st
Ġlet ting
ĠCo al
orient ed
L ife
ur ities
ĠS A
ĠG ab
Ġam bit
Ġexam ines
Ġcommand er
d oc
Ù Ī
ow ing
ke eping
Ġcomp elling
Ġval ued
sc ill
Ġdirect ory
Ġpress ing
Ġflow ering
Ġoblig ations
Ġoutbre aks
F l
Ġd irty
pl er
au x
Ġprop ri
Ġthreat ening
Ġaltern ate
Ġrecon struct
Ġcomprom ise
ĠBapt ist
ĠR enaissance
ys ics
Ġfe athers
ĠSim on
Ġhoriz on
Ġcryst als
ĠLess on
Ġtr illion
Ġvari ant
Ġemploy er
lim ited
ĠT a
ot le
ill es
Ġwound ed
O ut
f u
he um
ou ch
ion ed
ĠL anc
Ġformer ly
Ġsoci etal
Ġalph a
Ġoccas ional
Ġexclud ed
Ġber ries
ĠLt d
Ġpropos als
il i
ĠM as
ill ary
ĠB or
Ġr ust
ĠF at
ĠF unction
ov id
Ġbre eds
ĠIm ages
Ġbreak through
Ġce iling
Ġreflect ing
Ġsn ack
Ġpet roleum
R ed
R et
Ġo ct
ĠD ur
old ing
mark et
Ġinvent ory
ĠÎ ¼
Ġfung us
Ġrestaur ant
Ġpredomin antly
D oes
r ative
Ġ `
ĠB urn
ĠD al
ph y
Ġtrans action
Ġpost ure
ĠPat rick
Ġsufficient ly
ĠMethod s
l aim
an ic
im ore
ĠE D
ĠE V
Ġdo zens
Ġper ceptions
ĠY e
ĠCon sequently
Ġconcept ion
Ġmit ochond
Ġsan itation
ĠCurrent ly
Ġastronom ers
k g
re port
Ġd aughters
Ġinv isible
Ġgau ge
p her
z o
Ġtem plate
Ġtransl ate
op oly
Ġse am
ĠL ive
ĠL ink
Ġad mission
ĠAt hens
Ġclaim ing
Ġ196 6
Ġdiv isions
ĠSm art
199 9
Ġgraph ics
Ġalign ment
Ġtransp arency
kl ah
l og
Ġbu g
Ġext inct
Ġz o
Ġwalk ed
Ġharvest ing
Ġb ol
ast ically
Ġcomp iled
Ġmod ification
ĠMe chan
s ight
ĠS oci
Ġtr unk
Ġlast s
Ġexcept ions
Ġc ous
Ġqu otes
Ġport rait
Ġparam eter
Ġhop ing
Ġcigare tte
Ġfant astic
T op
d y
w id
Ġe ager
ard o
cer pt
Ġdef ence
ĠAct ivities
Ġtherap ist
ĠPark inson
Ġspot ted
ĠCle ar
Ġpull ing
Ġenterpr ises
p ack
ĠA str
ĠC zech
ĠD raw
Ġj et
Ġfl ame
Ġ6 1
Ġfree zing
amm a
Ġtour ist
Ġsusp ended
Ġrail way
or ia
ant ry
ound ing
Ġben ch
Ġrecip e
ĠExt ension
Ġritual s
ĠPrim ary
ĠJ oh
we g
ĠDis order
De velop
Ġschem es
Ġar ises
Ġpub lish
ĠTe ch
Ġsuper vision
Ġabd omen
ol lo
og lob
ell ar
te ch
Ġpr inter
ĠBr un
Ġjud ges
Ġastr onomy
H uman
O V
id el
ĠSt ock
Ġany way
20 18
ĠDe ad
Ġtour ists
Ġdin osaurs
Ġtut or
a ic
z es
ing ing
ĠTra il
ĠBet ter
Ġtempor arily
Ju ly
klah oma
) )
Ù Ĭ
Ġb ureau
Ġal leg
ĠB eng
ĠL ank
Ġinf est
Ġsim ulations
Ġmat ching
plic ity
Ġdom ains
Ġmicro bi
Ġ196 4
Ġhar ness
Ġtrust ed
m other
Ġall ies
Ġsw ord
Ġmot ors
ĠIndust ry
Ġcounterpart s
b irth
ĠT aking
od us
ĠB ron
Ġsupp orters
Ġstop ping
ĠMal ays
Ġsubstr ate
Ð ½
Ġg ig
th an
Ġhead ing
Ġod or
Ġunw anted
H R
H aving
Ñ Ĥ
ill ery
Ġhe s
Ġdis char
Ġj un
Ġpresent ations
Ġlay out
Ġholid ays
Ġmicrob ial
ĠFed eration
ĠHig her
ĠW ords
ĠO w
Ġshould ers
Ġvari ants
Ġrecre ational
b ird
h ouses
l ie
Ġo re
ĠC and
ĠH un
Ġne arest
Ġev olving
Ġhand led
Ġpract ically
Ġanim ation
AN D
Ġantib ody
Ġmembr anes
op hers
Ġcl ot
Ġdry ing
spec ies
Ġgastro intestinal
ut ter
ig uous
ĠL oss
Ġform ats
ĠPr ice
Ġemphas ized
Ġimper ative
Ġtut orial
Ġpec uliar
ar bon
Ġm ad
ĠS ong
if iable
th y
Ġpl ural
Ġtr ash
Ġcol oring
Ġ7 7
Ġrecommend ation
Ġmit igate
exp ensive
ĠDougl as
ment al
Ġde ce
Ġwhere ver
Ġdisc iples
ax is
br ates
Ġel ite
Ġnut rit
ĠPart ners
N G
in ters
on i
ĠA y
ĠL E
Ġcar ved
ĠNew ton
str ong
Ġhead quarters
ER E
Ġdram a
Ġdu ct
Ġelectro ly
Ġeleph ants
F ree
Ġh ub
ĠE ve
Ġab ortion
20 20
Ġexcept ional
M c
is a
ass ing
sp eed
ĠSol omon
Ġcertific ate
f und
us ually
Ġwell being
Ġel astic
bol a
Ġmic row
Ġster ile
B as
V ol
Ġs our
ot ional
ĠR os
Ġimp ed
Ġass ass
Ġexc ite
Ġadvoc acy
Ġabnormal ities
ight ing
ace ous
Ġpe an
Ġve in
ĠUS SR
Ġstrong est
ĠQu estion
Ġmoment um
ĠSar ah
Ġmetap hor
th a
ĠBl ock
Ġsubject ive
Ġassemb led
c ils
Ġw ishes
Ġb esides
Ġf riction
ĠHow ard
Ġprevent ive
Ġdemand ed
Ġcompr ises
F P
T ype
it ics
Ġth ir
Ġun int
ĠK y
Ġrec ruit
ific ant
Ġsm ile
Ġpost er
ĠAb original
Ġcompan ion
Ġphosph orus
Ġnumer ical
ry ption
ĠCh air
esp an
Ġfisher ies
Ġshoot ing
o i
Ġre ass
ĠK ind
Ġtreat s
ĠPre vent
Ġcultiv ated
Ġaster oid
S um
f ting
Ġ q
Ġf usion
Ġnot ing
Ġcl ues
ĠEx ercise
199 7
Ġclick ing
Ġfoss ils
Ġharvest ed
E v
ĠP ast
ĠE L
ĠE u
Ġinc ons
Ġdes cent
ĠChrist opher
Ġsimpl er
oub ted
a uses
c ap
o ys
Ġex it
em en
Ġdes ires
Th ree
Ġlower ing
Ġweek end
Ġcapital ism
Ġqual itative
Ġsyn chron
Ġsovere ignty
Ġp rize
Ġn a
ur rection
ĠS eed
Ġtime ly
Ġent ries
ex pl
ĠSy n
Ġneighb oring
ĠImpro ve
Rel ated
Ġambit ious
ĠH ope
Ġv ascular
ĠW olf
Ġmet ric
There fore
Ġfol ks
Ġfirm ly
u ction
at ics
Ġsec ured
Ġorgan izing
Ġrun off
Ġmyth s
Ġsevent h
Ġfart her
ĠG rowth
eng u
Ġfif teen
Ġshell s
ĠHT ML
M r
ĠA er
ab s
ĠF ried
ĠU ntil
Ġve t
Ġglac iers
Ġas bestos
cc oli
Ġar row
Ġland ed
Ġ9 8
oll en
Ġcop ing
Ġrul ers
Ġap nea
Ġillust ration
Ġsp ill
ĠV I
Ġform ally
Ġblood stream
Ġcommunic ating
B ook
a ism
p ill
ĠT ips
ig ating
ĠH ell
iz able
Ġad olescent
Ġqu een
Ġret ired
ĠEn s
ĠAng lo
flow er
Ġalign ed
Per haps
Ġreef s
ĠLG BT
ĠDak ota
A pril
d ependent
it ches
Ġsh ower
Ġinc om
ĠPro ceedings
Ġstr ings
Ġbus h
Ġirrit ation
Ġwithdraw al
L a
M R
f ram
ĠT itan
ĠS el
ens is
Ġcomm erce
ne ath
Ġmem orial
Ġlect ures
ĠBab ylon
Ġshif ting
er k
ro st
ĠS audi
ĠD ate
ĠR on
Ġ19 19
yp ical
ne ver
Ġresp ected
ĠÂ ±
Ġdefin itive
Ġdecl ining
bre aking
Ġstimul us
Ġp ocket
Ġn ights
ĠF ocus
ĠU g
ĠSp orts
Ġbul b
Ġworth y
ĠSaf e
Ġworkshe et
Ġw re
ĠP ul
iv ic
ĠW elsh
St ate
Ġunc on
Ġbirth day
atur ated
Ġseiz ures
% ),
Ġbe aches
ĠC art
Ġcon form
ĠG ames
Ġen velop
Ġun ited
ĠSe attle
Ġrecogn izing
Ġroll ing
ĠVictor ian
p i
ĠT ut
Ġan not
ĠTh om
Ġ19 10
Ġher d
ĠAd ditional
Ġshort age
Ġrepresent ations
Ġdocument ary
ĠBC E
Ġchlor ine
ĠSat urn
Ġbare ly
ĠAntar ctic
s ize
at is
Ġsh ops
ock ets
ĠSe ven
Ġbrand s
Ġneighborhood s
dr iven
ed ience
ag rams
ret ion
Ġlay ing
Ġnest ing
Ġoblig ation
Ġgravit ational
d irect
ĠC C
Ġelect romagnetic
ĠSo il
Ġ196 3
ĠEmer gency
H ome
m ans
il age
Ġwith stand
ĠD er
ĠL iver
Ġtra ced
ĠY ah
Ġcontin ental
Ġpos es
Ġcr ude
Ġrele vance
Ġden y
Ġgod dess
unct ure
Ġtact ics
Ġlith ium
A ust
h um
ĠE aster
Ġint im
Ġ6 9
sc ape
icult ural
Ġpursu it
b es
l en
Ġu pt
ĠSwed ish
es y
Ġb ats
ch a
ĠN elson
ath s
ĠProgram me
Ġburn s
lear ning
Ġrend ered
ĠBit coin
Ġtraged y
w alk
Ġd orm
ay ers
Ġor ch
Ġoff ensive
Ġvis ually
Ġexerc ising
le ys
ĠS L
ĠM RI
ĠO ak
ĠJ oe
Ġevery body
Ġcur iosity
Ġbo om
Ġop io
ĠProf essional
Ġbackground s
TS D
Ġfract ures
+ +
Ġd op
ro sc
ĠI oT
ĠG round
ip olar
now ned
ĠAd ams
ĠTo o
ĠLeg isl
ĠM un
ign ment
Ġpres erving
ĠAl ber
Ġmin istry
verse ly
Ġder iv
Ġdisapp oint
Ġrig id
S D
Ġt ie
ĠT ell
Ġan terior
ill er
Ġspec ially
Ġ10 1
Ġplace bo
Cont in
ĠRob inson
Ġblo om
if iers
Ġinc ub
Ġdel icious
Ġmar ijuana
ĠPar ks
Ġmechan ics
Ġrespond ing
Ġnarr ator
Ġcontamin ants
Ġcounsel ing
Will iam
Ġadul thood
f ires
Ġl in
ac hers
ĠJ oint
Ġup coming
Ġmon ks
AC T
Cl ass
Ġmand atory
at ivity
Ġan emia
We b
ĠNorth west
Ġcred its
ĠPol ice
Ġadministr ators
Ġcommission ed
Ġprohib ited
d ose
m n
Ġde alt
Ġrel uct
Ġspec imen
Ġsign ature
Ġrest ing
new s
Ġpack ages
ĠPub l
Ġmaxim ize
1 10
b ling
p iece
st ock
ĠE mb
Ġres ort
Ġ18 50
ĠWe ather
Ġeas iest
ĠBi ological
Ġload ing
disc iplinary
ĠWalk er
ĠSoft ware
ĠBanglades h
oubted ly
Ġt rop
Ġd ens
ĠT erm
ĠT ypically
ĠB ull
ĠD ark
ĠV ien
ES CO
ĠG ospel
ens ions
Ġaccess ibility
Ġpark ing
Ġgar lic
Aug ust
E duc
S uch
il is
Ġcol i
ject ive
read ing
Ġpet ition
amil iar
ĠHung ary
Ġerect ed
S M
Ġh ollow
Ġse ism
Ġcivil ian
ĠCommun ications
Ġindo ors
is an
Ġto y
et ric
ĠM ercury
Ġhe ct
iv ated
ĠF if
Ġtrans ist
Ġec o
Ġ7 8
com a
Ġsuppl iers
Ġclim b
ĠGall ery
Ġuter us
el ong
Ġ18 80
Ġsing ular
Ġtarget ing
Ġvent ure
M ark
o vers
t ar
est hesia
ĠO klahoma
Ġperiod ic
Ġadjust ments
Ġpuzz le
Ġo ak
ous ing
Ġprof iles
Ġrad ius
omet ers
199 8
ĠOtt oman
Ġp ist
ĠE ating
ĠF oot
we ek
Ġappro ached
Ġcav ities
ĠE sp
ĠG i
ĠN uclear
Ġpl ag
Ġlear ner
ĠShe l
Ġball s
Ġsurprising ly
n ote
ign ant
ob ia
Ġ8 8
ĠSy d
Ġspread s
Ġcolor ful
ĠAnn ual
Ġton nes
Ġf ox
ur ate
Ġbur st
point s
Ġsatisf y
ĠWal ter
Ġauto immune
D esc
c hest
ĠSt ra
Ġexp orts
Ġpack et
Ġur inary
ĠProble ms
Ġdisag ree
le ans
ĠIn it
Ġar sen
ring e
Ġaud iences
Ġvolcan o
Ġfeas ible
ĠHou ston
i w
ab y
Ġ20 50
Ġrem inder
Ġret reat
Ġfil ed
ĠB ud
ĠH ug
Ġact ed
Ġpat ron
Ġkind ergarten
Ġparticip ant
Ġexpress ing
Ġsick ness
ĠProv ince
Down load
ĠA venue
ac ial
ĠK al
ren cies
Ġco h
ef t
Ġfr ight
ĠRec ent
Ġfavor able
ĠLy me
threat ening
g ly
Ã º
Ġthe ology
ĠH art
ĠH ills
Ġgen re
Ġcor rection
Ġmat ches
Ġep ic
Ġgradu al
Ġbreast feeding
Ġsin us
it ated
Ġp iv
Ġl ion
Ġn ests
ĠT ypes
ĠA ra
ĠR at
ĠF u
Ġexp ose
Ġed itors
Ġval ves
Ġstress ful
Ġbul bs
Ġsulf ur
is ite
Ġup ward
Ġdec iding
Ġcor rupt
eng ine
Ġbroad ly
ĠClin ic
Ġcryst all
Ġallev iate
S w
W H
Ġd ermat
Ġpro c
em bers
ĠAn imals
Ġselect ive
rav iolet
Ġtomat o
ĠEvent ually
Ġperipher al
ch ildren
ĠU RL
Ġwater ing
Ġ18 90
Ġ8 2
Ġbul let
Ġremed ies
ĠPhilos ophy
Ġin expensive
Ġl augh
st an
im eters
am er
ĠP oor
Ġtr im
Ġinter ven
Ġcor related
Ġconc ert
ĠProt ect
uten ant
Ġanticip ated
ĠCaes ar
an alysis
ĠP ic
ĠPh oto
ĠBen efits
Ġvalid ity
ĠRef erence
Ġadvert ise
Ġbub ble
F orm
Î ¹
Ġn ail
Ġlim estone
Ġspect acular
ĠWork ers
Ġcoord inate
Ø§ ÙĦ
Ġhol istic
ĠPalest ine
achel or
I d
b iqu
ro v
op ard
ĠD ick
In stit
Ġele g
Ġ194 7
Ġanaly tical
Ġeru ption
l ad
p in
p ublic
Ġd ive
Ġst arch
Ġover night
Ġcar riers
ĠDe b
Ġbase ball
Ġru ins
Ġfo am
Ġt ires
on ut
is ol
ĠB and
ĠD ra
ĠD eg
Ġatt orney
Ġel imination
ann y
ĠComp an
Ġpal ace
Ġbuff er
Ġcompat ible
e er
e lectric
ĠS kin
og rams
Ġ19 13
Ġsuggest ion
Ġcondition ing
Ġlink ing
Ġcontact s
Ġviol ation
Ġmer cy
Pub lished
ococc us
Ġoverse as
Ñ ģ
ĠYou Tube
Ġwild erness
ĠRec ord
ira cy
ĠMc K
Ġpick ing
on ed
im b
Ġunder water
com put
Ġwar nings
Ġterm ed
Ġviol ations
Ġlob by
Ġthe or
id ation
Ġdiff ers
Ġdi abetic
Ġgl ue
NA SA
ĠGe ographic
ĠÂ »
ĠReg ular
Ġrelax ation
ir ie
ĠH udson
Ġaccount ed
Ġlif ting
ĠQu ant
ev a
Pro v
Ġregul ating
Ġretire ment
ĠGand hi
Ġepile psy
ĠSyd ney
Ï ģ
ĠT R
Ġst oring
Ġac ne
Ġfle e
ĠSil ver
Ġclar ity
op a
Ġbl end
Ġprot ests
Ġkey board
bo ards
ĠBr ig
Ġsecret ary
Ġgrocer y
Ġt ent
ot ine
ĠN ag
Ġk ills
Ġsc roll
Ġdisc ont
ĠFor um
ĠCons ult
Ġfit ted
Ġancest or
ĠOlymp ic
ĠBelg ium
Ġdeclar ation
op en
Ġclean ed
Ġtend on
Ġhot el
Ġp ad
Ġb ibli
ĠT s
Ġsal ary
ĠCit iz
D NA
Ġswe at
Ġsp ider
Ġdet er
Ġ9 6
Ġintrodu ces
Ġwood s
re tt
ro kes
ct ica
Ġu mb
est het
Ġcur t
Ġ7 6
ĠZ one
Ġver ify
Ġadequ ately
Comm un
Ġtestim ony
m ath
Ġh urricane
ĠT rue
ĠG ram
Ġspec ify
Th anks
Ġdecl are
Ġexhib its
ĠEthiop ia
Ġh anging
Ġle ather
Ġfl aw
Ġcount ed
Ġtre asure
AL L
Ġassist ed
Ġvot ed
Ġlik ed
Ġprox imity
Ġfluor ide
Sept ember
Ġnutrit ious
M M
Ġg ay
ĠM ort
ord on
Ġchar ity
Ġprem ium
Ġguarant eed
Ġst ays
ĠC amb
ophag us
Oct ober
ul as
Ġas leep
Ġ194 3
ara oh
ĠRober ts
ĠCE O
Aut hor
Ġcorros ion
b oth
b irds
t elling
Ġ 000
ot te
ĠL am
Ġfe ast
Ġsupp ress
Ġjust ify
Ġpar ish
min ute
Ġge ological
ĠMor gan
Ġradical s
âĶĢâĶĢ âĶĢâĶĢ
Ġt ales
it ations
Ġwor m
Ġmon uments
Ġconf using
ĠGen esis
ly wood
Ġauthor ized
Ġconnect ivity
ĠPal ace
Ġmuseum s
Ġtom orrow
ĠAnth ony
B rit
ore st
ac ies
ĠH D
Ġdep ressed
ĠÃ Ĺ
ĠNev ada
ad er
Ġhe ll
ore sc
ĠN an
Ġunder neath
Ġgu itar
ĠAcad emic
Ġconven ience
Ġchromos ome
1 20
h oe
ĠW ang
art ed
ĠIn fect
Ġwhere by
Ġrese mble
Ġke en
light en
Ġenjoy ing
Ġtur tle
Ġdestro ying
ester day
Ġmeth yl
ĠC hem
ĠB acter
ĠTh or
Ġprodu cer
ĠWe ight
ĠDel hi
Ġprol if
W omen
Ġ á
it at
Ġf ut
Ġh ired
ĠT ool
Ġst ew
od d
Ġab st
du e
iz oph
Ġfl ights
Ġfree ze
ĠMan ual
ores cent
ĠEd itor
Ġdepos it
ĠT otal
Ġst ating
ĠB art
ĠB rand
Ġr het
ĠN ear
Ġsh rubs
Ġhum id
Ġserv ants
Ġcond ens
Ġtext book
Ġut ter
Ġap ost
Ġroutine ly
Ġshif ted
ĠPen insula
N ET
ĠA G
ĠS O
ĠD atabase
ap olis
Ġwell ness
Ġfun gal
ĠExpl ain
ĠColumb us
ĠHait i
L ong
N ovember
Ġl ady
ĠC as
Ġat he
og ly
ĠTh ank
oci ated
On ly
Ġoverl ooked
Ġhier archy
f a
Ġmod er
ĠSp rings
Ġinstall ing
Ġtal ent
ĠSt age
gen cies
Ġinj ust
Ġball oon
Ġpun ct
iling ual
p ot
u z
Ġr ated
ĠF L
Ġ7 4
eng ue
Ġmat urity
Ġinvest ed
ĠOr leans
Ġmedic inal
Ġmusic ians
Ġcompar isons
ĠIsa ac
Ġfeat uring
izoph ren
B o
i ography
m g
u pp
Ġp ir
ĠT ower
iv ia
Ġqu it
Ġsum mit
Ġfol i
ĠProble m
h ind
n utrition
p ret
w ind
Ġc ues
Ġst icks
ĠC row
Ġcent ered
Ġappear ing
Ġpen cil
Ġcommerc ially
Ġlov es
ĠT her
ĠN am
ĠL odge
Ġdis ruption
Ġj ar
Ġgo ver
ĠHe at
ock ing
Ġ7 3
sc ient
Ġbi opsy
Ġrev ision
ĠRec ords
Ġcou ples
ĠEvery one
ĠUk rain
Ġprivile ge
Ġsemic onduct
? )
m ir
ar o
âĢ ĳ
Ġbr ushing
ĠJud aism
Ġrandom ly
Sim ilar
Ï Ĥ
Ġn our
se arch
ĠR ic
ĠG a
ĠFin land
Ġround ed
Ġdivor ce
L ist
s um
Ġl amp
ud a
Ġcomp osite
Ġ16 0
P N
P oint
S outh
om orph
ĠC atal
ĠR ot
ert o
Ġdisc ourse
get s
Ġmar ble
Ġbad ly
ĠPan el
Ġinfin ite
B R
O H
Ñ Ģ
Ġs ul
le vant
ĠA round
ĠC os
Ġnon profit
Ġ196 1
AS T
Ġcourt esy
Be ing
Ġbelong ed
Ġeleph ant
Ke ep
ĠSud an
Ġt ended
Ġl ucky
ch y
Ġmind set
ĠDo ctor
Ġfast est
ĠArgent ina
en c
Ġen force
Ġcru c
ĠFood s
ĠIss ues
se a
Ġg am
ĠP ent
ĠO K
Ġ196 2
Ġemb arr
Ġcontroll er
or o
ĠC rown
ĠM olecular
ĠO ri
Ġimport s
Ġ18 70
Ġstress es
Ġsoon er
Ġrespond ents
ixt y
Ġclim ates
Ġinstrument al
Ġtelesc opes
Ġoste oporosis
Ġrom antic
P ol
ĠB eth
og ical
ast es
ĠV erm
Ġlif espan
Ġcommod ity
Ġfoli age
O K
t an
ĠL iber
ĠK a
ĠPro b
ĠAd vis
Ġlim b
Ġgr ate
ĠTr uth
ĠAm b
enn y
Ġstead ily
Ġmisc on
g el
Ġp osed
Ġb aking
Ġapp aratus
te g
int o
Ġgener ic
ck ed
Ġhist ories
Ġenc oun
Ġfriends hip
Ġtow ers
Ï ĥ
Ġpe pt
Ġaut onomy
Ġend less
Ġlot tery
Ġemp irical
Ġadjust ment
rep resent
L ess
j e
w ick
Ġthe e
Ġsc ans
ĠAmeric as
Ġche w
eral d
mit t
Ġ14 0
Ġmor ality
ĠMe asure
Ġwond ering
Ġgrass es
Ã¡ n
Ġanat omy
Ġenact ed
fol io
k rit
Ġ âĢĻ
ĠR ow
Ġdemonstr ating
Ġshap ing
Ġtoler ate
Ġwal ks
W A
re r
Ġover head
Ġrel ied
Ġinter section
Ġcar n
Ġadv ise
ĠPh ill
Ġcra w
ĠCour se
Ġconclud es
ĠScript ure
g rim
Ġ ×
he ads
ĠP un
ĠR ule
un ing
Ġtra gic
pe ople
Ġsmok ers
ĠBalt imore
7 00
G s
I H
e le
Ġh ay
Ġl ips
Ġl iability
ĠE bola
oc hemical
ĠU T
av al
ĠAl cohol
hold er
Ġjud icial
Ġautom ation
Ġpun ish
ĠArist otle
wid th
e lect
Ġb ites
ay an
Ġde ployment
ĠG I
ĠN AT
ĠO d
oy d
ĠPro duction
Ġrecogn ise
Ġaccept ing
ĠNich olas
m i
Ġa rose
Ġu biqu
ir ts
ĠD elta
ĠE R
Ġacc red
Ġtechn ically
Ġsl opes
Ġclean er
Ġmagn ific
Ġtri um
ĠHar ry
Ġadop ting
Ġmis under
ĠTai wan
M et
b ecause
Ġs ap
Ġh its
ere rs
int erest
Ġed ible
ĠHar bor
ĠRo om
Ġpul p
ĠCur riculum
Ġphosph ate
ĠIdent ify
N E
g rad
p us
y g
Ġt in
Ġd urable
st ory
ri ages
ĠCh ris
Ġconst ell
Ġide ology
Ġill um
ĠAust rian
Ġaer ial
Ġtort ure
Ġs ie
Ġdis l
Ġcomp ly
Ġdec k
Ġ8 4
Ġsl ides
F r
h u
Ġe u
il ia
im icro
ĠE X
ĠR A
Ġac re
Ġnever theless
Ġaccount ability
Ġadvance ment
Ġcomment ary
Ġsimpl est
m el
s a
Ġc itation
Ġre wards
ul ing
Ġman ure
lud es
ĠV acc
Ġob struct
Ġdem ographic
Ġlim bs
che ll
Ġcos mic
Ġadmin ister
ound ed
rit er
Ġbu nd
any on
less ness
Ġblock ing
ĠSer b
pat ient
ĠDet erm
Ġkilomet res
Ġtuber culosis
ĠFreder ick
D ay
e at
Ġo scill
Ġh iding
ist a
Ġsp rou
Ġreact or
ĠMc G
Ġminor ities
Ġjewel ry
Ġm ant
art z
ĠUn iverse
ĠSp ect
Ġbehavi ours
Ġfib re
amil ies
Ġembry o
ol ics
ĠH yp
ĠG raph
ass ed
ond ition
Ġatt raction
Ġjust ified
hy l
Ġtend er
Ġhost ed
Ġesc aped
osc opy
Ġment ally
ĠVien na
Ġa esthetic
re ate
Ġb ru
et ed
ĠS ut
vel and
Ġtra fficking
Ġpost erior
bre v
L C
n ational
ĠR un
Ġcont est
Ġco operative
Ġpat ience
Ġwant ing
ĠSim ple
A IDS
N N
S chool
ĠT ools
Ġsh ots
Ġ19 12
Ġnew er
Ġtrans m
Ġpot s
âĢ¦ âĢ¦
ĠSw iss
Ġped ag
Ġeru pt
G iven
Ġd olph
Ġth under
im ation
Ġ3 50
ĠCont ent
Ġcra cks
ĠProg rams
ĠEc ology
Ġimpl ants
Ġmanip ulation
Ġrepet itive
ĠFest ival
D ig
E c
it ably
ĠT ask
Ġy ards
ĠD R
ĠR ole
Ġmark ing
ĠOver all
Ġunf ortunately
Ġrig orous
Ġcigare ttes
ĠSqu are
Ġbod ily
Ġm ol
ĠS alt
ĠAd vent
work ing
ĠRep orts
Ġfaith ful
Ġdepth s
Ġincom plete
M C
O ld
Ġreg en
Ġstri ps
ĠDis orders
Ġfert ile
ĠDon ald
Ġnovel s
Ġexpend iture
w ritten
ĠS ad
ĠR S
ĠAll ied
ĠInstit utes
Ġtou ched
Ġclim bing
ĠNor weg
Ġdisturb ance
ĠAntar ctica
N O
p ent
Ġd awn
Ġ7 9
ĠSh are
Ġhyd raulic
Ġfast ing
ĠChe roke
ĠAp ollo
ĠThrough out
Ġpron oun
ĠMic hel
H ar
is ure
Ġf iring
Ġf etal
op ia
Ġv end
ond er
ĠMon itoring
Ġult ra
Ġcommand ed
Ad ditionally
Ġterrit orial
Ġpenal ty
Ġdehyd ration
Cross Ref
Ġf ocal
ap le
ash i
ware ness
to o
Ġmar ry
Ġdeterm in
Ġpolit ically
Ġsens ing
Ġdeb ates
Ġpool s
ĠCommon wealth
ĠIce land
Ġmim ic
% ).
Ġl ad
Ġg ates
ĠA bs
ĠL ORD
Ġsp iral
00 1
Ġoff shore
Ġintern ationally
ĠUp on
Ġepit hel
it o
ĠC hes
Ġen rolled
Ġref lex
ĠFl ore
Ġdyn asty
Ġparad igm
Ġlapt op
Europe an
J ew
Ġa ver
ro ads
if ting
ĠP le
Ġpl ots
Ġam endment
Ġbo ot
Un like
Ġintent ions
Ġscr atch
Ġger ms
c ard
s ign
Ġa pt
Ġm ate
Ġhe x
ĠE ye
Ġant iqu
NA L
ĠNe u
Ġenh ances
ĠArch ived
Ġscan ning
Ġmenstru al
olith ic
n orm
ĠC ould
ĠP ale
Ġv iv
Ġim plicit
Ġref use
Ġcr imin
rate gy
head ed
Ġimmig rant
Ġdisput es
he im
Ġbl ade
Ġher bal
Ġmet a
Ġremain der
ĠHigh way
Ġvoy age
s ocial
Ġc ens
ar ious
ĠE pid
ater n
ĠCl inton
Ġple asant
Ġur ge
ĠHer od
Ġcook ies
Ġwet land
ĠAtl anta
Ġprompt ed
Ġdos age
d ays
Ġd ub
ĠO ral
Ġlike wise
br ate
Ġparent ing
pro v
RE E
ĠNep al
ĠEval uation
Ġkne es
in us
Ġse aled
Ġserv ant
Ġgu ests
Ġopp ression
Ġemphas izes
ias m
ĠSer ver
Ġrein for
b ad
ut able
th ink
Ġ18 60
Ġset up
ĠAl t
Ġdel ays
Ġphilos opher
Ġhom eless
s ky
ol en
ĠB ase
Ġdark er
Ġto es
om nia
ĠW ould
ne x
Ġret ina
Ġlabor atories
Ġoccup ational
Ġquar ters
organ ic
ï ¬
ĠD in
Ġch op
ĠF alls
mer ce
cl amation
Ġ8 1
Ġcy cling
Ġrecogn izes
ĠMar ie
Ġcool er
Ġsmart phone
Ġethnic ity
Ġsew age
ĠGil bert
Ġh ipp
ĠE ver
ĠG ib
Ġcap ita
Ġlegisl ature
Ġemotion ally
Ġbron ch
U P
W R
ĠCh i
ĠZ ion
Ï Ģ
Ġt ide
in cess
ĠE lementary
ĠN ight
ĠL oc
Ġcont ag
ren al
Ġgrow ers
Ġut ilities
Ġcompar ative
ij ing
uke mia
Ġoptim ize
Ġtight ly
Ġdecor ated
Ġcomprom ised
ĠCub a
heum at
e ur
Ġt une
ĠR ange
Ġqu ery
ĠV ision
Ġgra pes
Ġdef ensive
Ġhost ile
Ġplanet ary
pat hetic
De cember
Ġchick ens
ĠCy ber
Ġpropag anda
ĠLank a
G reat
g ate
Ġc uis
is ive
ĠL A
Ġcomp uls
Ġgra zing
ĠAl an
lo ads
ĠOcc up
i oma
ut o
us er
ĠL aur
Ġ3 60
Ġfe eds
Ġ9 2
ĠBr anch
Ġconstit utes
ĠSl av
ĠNaz is
Ġpestic ide
Further more
ĠTransport ation
a an
l ab
ĠM s
te es
ĠY ale
Ġdist ribute
Ġconsequ ently
Ġdro ve
Ġw are
ĠC anyon
ul ator
Ġcomp rehend
Ġprov incial
Ġpurch ases
Ġmig rants
ĠHispan ic
e an
Ġs q
Ġb end
le ading
ro it
ol era
ĠP E
Ġmus cular
Wh ite
Ġkn ife
Ġbutter flies
Ġearn ings
ĠMult iple
Ġdipl om
ener ative
Ġbron ze
th irds
âĢĿ ).
Ġun ch
Ġpop ulated
ĠBy z
Ġprec urs
Ġhyd rox
Ġadapt ive
Ġdro ple
Ġinhib itors
Ġnob ody
Ġaccompany ing
Ġ iv
Ġt icks
Ġw olf
Ġd ancing
ĠC atherine
ĠL en
Ġcle ared
Ġaffect ion
Ġlist ing
ĠBe yond
Ġsou ls
ero ids
RO M
Ġlov ing
Ġchromos omes
ĠRus sell
ĠArk ansas
Af ric
Ġw and
Ġre nowned
ch t
Ġu plo
ĠW et
ĠF ah
Ġ9 3
ĠAb d
Ġexpect ancy
ĠMem bers
Ã¼ r
ĠColomb ia
E xt
at ts
Ġp onds
ĠI l
ĠM R
Ġne urop
Ġdes erve
ĠAl most
Ġbel ly
orth y
Ġter r
be y
ene z
Ġfit ting
ĠProg ress
Ġrat ios
Ġaqu arium
ĠSol utions
Ġveter ans
Ġveter inary
Ġrank ed
Ġjuven ile
ambo o
B re
J apan
T reatment
m ount
Ġthe ater
ed ed
Ġl ag
ce phal
Ġall iance
Ġtra it
Ġpartners hips
Ġarm ies
Ġparas ite
Ġswit ches
c os
Ġg host
ĠS ay
ore n
Ġne on
ĠL ot
Ġme g
ĠCh ronic
Ġdifferent iation
ĠRe agan
Ġgu est
Ġdetect or
Ġcareg ivers
izophren ia
p a
Ġp ile
ac a
and al
Ġpre st
Ġi P
ĠArt icles
Ġ193 3
Ġthr ust
Ġcoord inated
m aker
p ine
Ġb il
Ġcons erve
Ġexhib ited
Ġmist aken
Ġspons ored
A ccess
G M
c ultural
om ics
ĠT an
ul us
ĠB iol
ĠO k
Ġconst ipation
ox ic
itud inal
IN E
Ġmanip ulate
bour ne
Ġweaken ed
spe aking
he it
Ġg low
ob s
Ġdifferent ial
Ġmar row
Ġdam s
ĠCommun ist
auc as
ĠDoc ument
Jan uary
ĠNap ole
f ed
n as
v ia
v able
Ġth irst
ĠC over
ain ted
ĠW H
ĠF ile
Ġsc aff
Ġro pe
ix on
Ġbel oved
Ġcred ited
Ġund oubtedly
Ġmig raine
Ġcoron ary
ĠM aj
ew orks
Ġtw in
Ġgovern ed
Ġphot osynt
ĠHarr is
Ġcatal og
Ġexem pl
m l
Ġd ur
ĠS ans
ad ium
Ġab oard
In stead
Ġend emic
ĠApp lied
Ġtable t
bl ack
Ġassum ing
Ġrestrict ion
osh ua
ĠCost a
Ġalkal ine
Î µ
ð Ł
Ġs lic
il k
Ġref lux
Ġloc om
Ġbelie ving
ĠZ oo
Ġprop ose
Ġaud itory
ĠMarg aret
l anguage
el come
Ġr if
Ġcomp ress
Ġimp ly
Ġ19 16
Ġtra ject
ĠV ari
Ġ7 1
uss ian
Ġ8 6
Ġair port
Ġinteract ing
Ġdefin ite
IT Y
Ġappe aling
Ġadvance ments
Ġbless ed
Ġentreprene ur
Ġdeliber ately
Ġyog urt
b in
c ience
z i
Ġ esp
ed y
ĠT am
Ġg ym
Ġpl um
Ġsal vation
ĠMin or
Ġlog s
Ġsou p
ĠCam er
Int erest
Ġ ||
ĠE ric
Ġcl ause
Ġneed les
Ġlow ered
Ġmid st
ĠVal ue
ĠHand book
ĠSus an
ĠP ed
ĠL ate
ĠAnd roid
Ġ194 6
199 6
I B
c hem
g raph
h ill
ens ing
ĠCh anges
Ġdevelop er
ĠAr n
Ġdon or
Ġperform ances
Ġur anium
Post ed
N orth
Ġpro st
em at
Ġk ern
ip es
ĠSt ay
ĠAd m
Ġver bs
Ex ample
osa ic
Ġoverl ap
Ġsurre nder
g age
ĠM oney
ĠB irds
ri ors
Ġref ine
the ir
ĠDes ert
last ing
ĠPC R
trans mit
Ear th
Ġcaps ule
ĠThom pson
D ate
d iv
f amily
Ġ ).
Ġt sun
Ġin appropriate
ur u
up uncture
Ġ8 7
ĠGe ological
Ġposition ed
iot he
Ġang els
Ġ193 6
Ġ193 8
ĠCle veland
hist ory
ĠSing h
Ġlock ed
ĠMur ray
Ġamph ib
A tt
Ġ iod
Ġb ent
le m
ĠT elesc
Ġse ized
ĠN ik
Ġ19 11
Ġcompet itors
ĠPre p
ĠAut ism
ii i
Ġmicrosc opic
Ġignor ance
2 50
Ġe cho
ĠB uff
Ġall ocation
Ġbro ccoli
Ġproport ions
ĠVis it
Ġrecre ation
f erence
ĠM ol
ĠD ry
Ġch ord
Ġsh rim
Ġtra ils
rit ical
ex per
Ġmat hematic
Ġrele asing
Ġprob able
ocr ine
Ġassum es
Ġrender ing
m etic
Ġw ore
ĠC roat
Ġex agger
Ġyear ly
Ġunder graduate
Ġremov es
Ġdispl aced
ĠLet ters
ĠRel igion
Ġinject ed
Ġdin osaur
Ġacceler ate
Ġexplo it
/ .
ir i
ĠB att
Ġany more
Ġdet rim
Ġple ased
Ġfinanc ing
Ġoccup y
ĠSal mon
Ġstimul ating
Ġcong ress
d ata
m ap
es ome
low er
ĠCh annel
ĠAl low
Ġcle ans
Ġutil ization
Ġcand y
Ġfort une
Ġpursu ing
ĠVe get
ĠChall enge
lighten ment
v ings
Ġf iscal
Ġv ivid
ov ol
Ġspecific ations
ym akers
ĠNot es
199 0
Ġroot ed
iat ry
Ġul cers
Ġgover ning
L ook
O pen
Ġn aked
id ney
ort ic
ĠG ent
Ġunder going
Ġhyd roc
Ġpron unciation
Ġmand ate
Ġloyal ty
Sym ptoms
D ue
N ever
e ffic
ĠH E
ĠF ortunately
Ġdifferent iate
Ġsign ing
Ġback up
Ġresearch ing
Ġopp osing
ĠMan ufact
coh olic
ĠDel aware
Ġoutl ines
Ġven om
Ġmultip ly
p ool
r idge
w ere
ad ers
pl ants
ult an
Ġident ities
ĠCon cept
ĠSh ah
Ġreve aling
Ġcompl aints
Ġdiscover ing
Ġcoal ition
Ġembry os
ĠCr ime
Ġmonaster y
Ġs isters
Ġw rist
ke ep
ĠD ogs
Ġun stable
Ġrec ession
Ġam end
Ġfe ared
Ġemb od
Ġnorth west
Ġmal icious
ĠApplic ation
Ġd ots
th ree
ub ric
Ġcur ves
Ġgu ilt
Ġneg lected
Ġpath ogen
Ġult raviolet
Ex per
ĠCong o
ĠVar ious
ĠIndividual s
Ġinherit ance
Feb ruary
h n
Ġt u
ic idal
ĠT itle
ĠA th
ĠM att
Ġde forestation
ĠLe v
Ġsqu ir
cont rolled
Ġfertil izers
ĠFa ith
ĠObserv atory
Ġc ite
ĠB L
ĠH R
Ġgen ius
Ġam id
Ġmain land
Ġfun eral
Ġhand ed
Ġang el
ĠGal ile
ĠVirt ual
: -
? ?
Ġm asters
st age
ut t
am on
ap hyl
Ġun rest
cy cle
Ġdr astically
ĠPer formance
ĠUN ESCO
oster one
p ositive
at onin
ĠB ec
ĠO wn
Ġpe pper
ĠV ersion
row se
ject s
Ġass im
ann ah
Ġindirect ly
ĠDemocr ats
Ġdetrim ental
s olving
Ġm our
Ġd a
Ġst unning
Ġrep ly
Ġreason ably
Ġlif elong
Ġnit rate
Ġfrag ment
ĠColl abor
ĠIncre ased
ĠUnivers al
Ġcoordin ates
ĠFram ework
Ġrebell ion
O h
Ġt we
Ġc um
Ġd ip
ĠI BM
Ġcon ceived
Ġbas al
ĠCamp aign
" ;
st ones
Ġex otic
ĠW aste
alth ough
Ġexec ute
Cons ider
Ġwavelength s
er red
Ġg amb
Ġlaw yer
Ġgre ens
plic ate
Ġinvestig ators
Ġrot ating
Ġsurvey ed
Ġaccum ulate
Ġacceler ated
l it
as ury
se en
ĠN T
pl ess
ec hes
ĠMan ager
Ġment ions
Ġweakness es
c ir
c ourse
ot onin
Ġ19 15
Ġvis itor
Ġsl ip
Ġunc overed
Ar ch
Ġaccum ulated
car bon
Ġhem orrh
ĠMot or
ĠAgain st
Ġfavour ite
Ġintr insic
Ġdisplace ment
g rown
Ġw olves
Ġb ass
Ġrec omb
Ġsupp ose
can cer
Ġqual ify
ĠClass room
ĠResp ons
Ġenthus iasm
h o
y our
Ġb ishop
Ġe cc
Ġl ent
id ency
ĠR oy
ary n
ĠSt alin
Ġbl ades
Ġfl oss
Ġcent r
ĠCon struction
Ġsuccess ion
Ġprop het
Ġeth n
Ġinterpret ations
ĠGet ting
urric anes
Ġceremon ies
Ġresil ient
Ġclub s
Ġbub bles
Ġpanc reas
Ġnort heast
Ġex terior
oc ene
rop ortion
Ġfl ora
Ġart work
Ġbo iling
Ġlab s
Ġarch ives
Ġsed iments
Ġalt ar
ĠMalays ia
p ol
in os
ĠW ard
ĠR io
ĠJ en
Ġsol uble
Ġadv ancing
Ġpur ity
Ġpass words
ards hip
Ġengine ered
Ġdomin ance
Ġpil ots
Ġobser ver
Ġexcite ment
S te
at ter
an ning
ind ex
ĠAn na
Ch ina
ĠTra ditional
Ġgradu ates
Ġscholars hip
Ġdescript ive
Ġdisadvant ages
G erman
us p
Ch o
ĠBra h
ĠFre qu
Ġproport ional
hist oric
Or gan
icular ly
Ġrept iles
ĠQueens land
Ġl acks
ĠP ick
Ġsh rub
Ġsome body
ĠAust in
ĠCom plete
ĠQue bec
Ġacceler ation
Ġblo oms
Ġgrat itude
Ġok ay
ĠAlf red
m ont
Ġex clusion
Ġequ als
Ġmat ched
ĠInstit ution
Ġvacc inated
Ġhighlight ing
Ġelectro de
ĠRab bi
Ġammon ia
Ġ ]
Ġin land
am y
In f
Ġpol es
Ġdem ol
Ġbenef ic
ĠCrit ical
Ġo t
ĠE S
Ġpl ague
Ġpat rol
Ġback ed
Ġ195 6
Ġseed lings
Ø ±
it ol
ĠM ig
Ġk ick
port ant
ĠSte ve
Ġobser vers
Ġfet us
Dav id
Ġperenn ial
oresc ence
Ġre nal
ĠA wareness
od a
ĠD ream
Ġout ward
Ġrem n
Ġav iation
vironment al
Ġer r
Ġrout ines
Ġbra ve
u cc
out heastern
ĠIn v
Ġme ats
ĠK ra
Ġbo il
Ġactiv ate
ĠBl og
Ġbal ancing
ĠRec on
ĠMor ris
D s
Ġto ken
oc ard
ĠF riends
Ġdet ox
Ġinform ative
Ġpop ul
ĠCan al
Ġpsych ologist
Ġtransl ates
Ġcelebr ations
Ġconv ince
ĠSen ior
Ġrandom ized
Gl obal
Ġmerch ant
S al
in ator
er r
ment ioned
ĠE ur
ĠG H
Ġass ured
ĠHe aven
Ġco ach
Ġca ut
oph ys
Ġmob il
Ġfrag ile
ĠMo z
ĠLab our
ĠLiter acy
ĠGuid elines
Ġastronaut s
E st
i per
m ass
Ġwh it
od ia
ĠB irth
oc ide
ang les
Ġdisc on
other mal
Ġ15 00
of ten
Ġpsych iatric
Ġcou p
Ġ193 7
ĠLa ure
Ġroll ed
Over all
ĠPrinc iples
Ġwed ding
Ġrou ter
ĠTok yo
Ġmetall ic
b earing
Ġw omb
ĠC ris
ĠI CT
Ġse gregation
Ġhand y
pr ising
Ġbelie vers
Ġopt imum
Ġcollect ively
Ġharm on
Ġsouth west
ĠResp onse
Ġmicrow ave
Ġo ven
Ġp ic
Ġl one
us c
Ġinc omp
Ġ19 29
Ġ8 9
be at
ĠPr ivate
Ġcoll ision
Ã© s
Ġsqu ares
ĠDis ney
Ġdivid ing
Ġinhib it
Ġcart ilage
Ġfest ivals
Ġcyl ind
Ġanch or
Ġc aves
Ġe ighth
Ġre use
ĠSt rategy
ĠV in
form s
ict ional
Ġgener ators
Ġgra vel
ĠAn at
Ġhuman itarian
Ġsuccess or
Ġbra ck
Ġcorresp onds
Cont act
Ġru pt
ĠOffic er
Ġintric ate
Ġdop amine
B E
P op
g rowing
Ġn m
ĠM C
Ġcl ip
Ġev apor
ĠSt op
ang a
rib ing
Ġinv ite
Ġrest oring
Ġreflect ive
Ġnotice able
ĠPC B
Ġath lete
Ġ8 3
Ġ12 5
Ġur ged
ĠTechn ologies
Ġjournal ists
Ġdiam onds
Ġmyth ology
Ġattend ance
Ġrab bits
ĠE ld
ĠR w
ĠN H
ple asant
ov al
Ġstr ive
ĠIm ple
Ġpsych ologists
Ġgot ten
ĠRepublic ans
Ġfold er
Ġcarbohyd rate
Ġsculpt ure
Ġtrium ph
Ġp s
ĠT es
Ġun h
ĠK ash
Ġche wing
Ġpot tery
Ġclear ing
ĠGo als
Ġhon our
Ġdoub led
ĠIll ust
Ġemit ted
Ġma ize
Ġmush rooms
" ).
L ondon
Ġl oses
ĠS ic
ĠM ir
est ial
ere r
Th ank
Ġunc ont
Ġrespond s
Ġblog s
Ġrecip ient
Ġrecip roc
Ġmicrosc opy
ogene ous
Bel ow
Ġimbal ance
G R
Ġp ays
Ġth rowing
Ġcom et
Ġdec ides
ert ility
br aska
ĠBe ijing
Ġenc ryption
ĠFl ag
Ġrob otic
Ġbright ness
Ġtail ored
Ġarchae ologists
Ġlip id
Ġw ard
as se
ĠS ky
Ġsur plus
Ġcult urally
Ġ195 9
Ġjump ing
Ġvibr ant
ĠA le
Ġcon gen
ĠG ordon
og g
Ġpart ition
Ġris en
Ġgovernment al
Ġlaw su
Ġmind fulness
M al
T ypes
j u
Î »
ac cept
Ġlaw yers
Ġprint s
Ġphilos ophers
ĠProduct s
B ar
m ination
Ġp ear
ĠC ognitive
Ġan omal
ĠB iblical
eg al
son ian
.... ....
Ġconqu ered
ĠPrinc eton
ĠRail road
worm s
ĠNeg ro
) ?
s ki
en z
ĠS oc
ul ence
Ġse ptic
ie ve
lic ted
own ed
Ġsn acks
ĠMem ory
ĠDisc uss
Ġtermin ology
Intern ational
I X
Ġmin isters
Ġdown ward
Ġlearn s
ĠJu an
Ġlength s
Ġhyp ot
Ġresid ual
Ġpreced ing
ĠTerrit ory
nd s
ro cess
ur i
ĠM ade
Ġall ocated
Ġman eu
Ġqu iz
Ġbus es
Ġperform s
Ġtemper ament
ĠSo on
Ġsqu ee
OR E
Ġ195 7
Ġdisturb ances
Ġtorn ado
Ġrod ents
Ġdepr ivation
Ġvine gar
ĠHop kins
N atural
U E
m un
n ish
Ġp ave
ou ver
Ġre lying
ĠSt ories
ĠInd ependent
ĠSp eech
Ġ9 1
ĠGen eva
ĠCal cul
Ġsal iva
Ġemb ark
year s
Ġhous ed
Ġdepos ited
eli ac
Ġsecre ts
ĠTelesc ope
g rowth
Ġm esh
am as
ĠP ier
Ġex cerpt
ĠE t
ans om
Ġchar ter
ĠAt mosp
Ġlog ging
Ġcolon ists
Ġaer os
ĠCamp bell
Ġflo at
onge vity
f s
ra wn
ĠP el
ĠP TSD
ĠR ivers
Ġse als
Ġsh aft
Ġcor ners
Ġcompet ence
ĠCat hedral
Ġincent ive
d ist
f requ
Å Ĥ
ic us
Ġst igma
Ġ9 4
Ġopp onents
ploy ed
sp ace
Ġclin ics
E ffect
u ce
Å ¡
is y
ĠS ide
Ġle mon
Ġbat t
Ġarch ive
ĠUs ed
Ġmiss ile
Ph ot
ĠProv ide
d eterm
Ġde ar
um ption
Ġdec entral
Ġphys iology
Ġair plane
Ġeight eenth
ĠGreen land
ĠDyn asty
m o
â Ĺ
Ġh ast
ĠA V
ĠM ike
ĠG ate
pl ates
Ġext r
Ġunderstand s
Ġmet ast
Ġdon ated
Ġinit iate
Ġpersonal ized
Ġarchitect s
Ġ195 8
Ġhorm onal
ĠLike wise
Ġconqu est
lip se
f uel
art icle
Ġheav ier
ĠSur gery
Ġcollabor ate
Ġliqu ids
Ġrelax ed
Ġhero es
Ġclar ify
Ġremind s
Ġcatast rophic
ĠUg anda
ĠUkrain ian
Ġa il
Ġd row
Ġfor um
ĠM ember
ĠB ruce
ant o
lud ed
ah o
Ġopen ly
ĠPl ate
ĠAfric ans
elt ic
Ġgar bage
Ġarbit rary
ĠBrook lyn
oglob in
ĠNorweg ian
in formation
es ters
Ġw ives
Ġn ons
ĠS H
ĠS ave
od ium
Ġj e
Ġinf ilt
Ġgl ad
Ġcomput ational
Ġsun screen
Ġcere bral
Ġhem isphere
ograp her
imicro bial
F our
r ong
r atory
w ave
Ġs outheast
Ġunder w
Ġsupp ression
Ġco il
Ġbi ography
Ġfram eworks
Ġdisp os
Ġpresc ribe
ĠBrazil ian
orks hire
Ġfrog s
ĠAnton io
at ra
Ġc roc
ed a
all as
ew able
av ailable
Ġac ou
rib es
ĠAr c
Ġsw ollen
ĠOr d
ĠCath olics
Ġsubsid ies
Ġmuc us
mind ed
ĠBeng al
c ium
Ġrisk y
arc ity
Ġpress ed
Ġmind ful
val ue
Ġdetect ing
Ġdefic iencies
Ġrenew ed
roid ism
Ġsup reme
Ġfrust ration
Ġdesk top
Ġdownt own
M ult
g one
ĠT un
Ġg em
Ġex empt
Ġcapital ist
Ġpossess ed
Ġneighb our
Ġinn ocent
F i
ĠM t
Ġsp iders
Ġ19 21
Ġj ail
ĠK an
Ġexp on
Ġco efficient
Ġant iv
ĠTe ach
âĢ¦ âĢĿ
Ġvit ro
Ġwond ered
ĠHy per
iz ard
Ġad vers
ren heit
Ġprof itable
osp ace
yl um
Ġreact ive
Ġweak er
Ġjournal ist
Ġemail s
Ġtrad ers
N R
f ig
ĠS W
ĠP ad
Ġcle ver
Ġflu orescent
Ġsuper vis
Ġinstruct ors
Ġcelebr ating
ĠEngine ers
ĠNav al
Ġthread s
ĠPu erto
Ġcataly st
Ġmagnific ent
is ers
ĠThe od
ĠAd apt
Ġgr inding
Ġill umin
ĠFl ood
Ġ195 5
Ġflo ors
osex ual
ĠAlber ta
F F
G B
V al
a ire
Ġc ovenant
or able
Ġl amps
Ġle ver
du p
Ġra ins
ĠAct ive
Ġinterf aces
Ġcompens ate
Ġprolif eration
Ġb acks
ĠS ax
ĠH erm
Ġint imate
ass ociated
Ġpe aks
els ius
be it
Ġautom obile
bi ology
amps hire
Ġglac ier
Ġhect ares
m ile
n osis
ã Ĥ
Ġe ch
ĠD ent
Ġ19 22
Ġinst ability
Ġgl oss
ccess ful
Ġsum m
Ġtext books
ĠLet ter
Ġunf air
Don ald
Ġrab bit
ĠDown load
ĠLic ense
Ġm aj
st ra
Ġup right
ential s
ah n
Ġide als
az ines
ĠCl ar
lex ia
Ġic onic
E lect
ĠT el
ĠM O
Ġwe ights
Ġra pe
Ġbl oss
Ġreg ression
Ġref eren
ĠAct s
Ġinstruct ed
ĠPub lished
Ġchlor ide
Pub Med
R ich
h ole
Ġs aint
Ġc age
ag g
ĠSt ructure
Ġstat istically
ER D
Ġtransl ations
Ġlib eration
Ġfle w
ĠArchitect ure
l as
l ia
ro f
ct ory
Ġal gebra
um en
ĠK ath
Ġast on
ĠIS S
Ġwin ner
Ġfol lic
ĠPort land
ĠPalest inian
Prof essor
Ġreven ues
f ar
m aster
Ġt ense
al ph
ĠH ob
ĠF ra
Ġcl ergy
Ġplant ation
Ġer ad
________ ________
Ġoxid ative
Ġscr ut
ĠApplic ations
F R
P H
d f
h alf
t ings
Ã ¦
Ġl ubric
ĠP arent
Ġv ague
Ġun e
ĠK le
Ġprocess or
ĠPr iv
Ġvers atile
ĠCons umer
Ġneuro transmit
Ġcompr ise
Ġinhab ited
Ġspr ings
ĠVill age
Ġquestionna ire
Ġt iger
Ġm ites
ĠC ovid
az ed
ĠAb stract
Ġ195 4
ĠIP CC
ĠJon athan
ĠCheroke e
W ar
er os
ĠD A
ĠD I
Ġen amel
Ġun aware
Ġar ist
tern s
cept ive
ĠWe bs
Ġec lipse
gen ic
Ġsimilar ity
Ġrepl ied
ĠCo ord
Ġnan op
develop ed
Ġaggreg ate
n c
r ise
Ã ĥ
Ġin ert
ĠC BD
ĠL ang
ĠTh inking
ace ae
Ġcal orie
Ġport folio
ĠEm ploy
Ġrecon cil
ĠEst ab
Ġfluctu ations
Ġcater pill
à ¸
Ġn aming
ri ver
ĠO t
ĠIn flu
Ġun pleasant
Ġrep airs
Ġmon oxide
view ed
ĠEx ample
Ġoxid ation
Ġgif ted
) (
Ġst rokes
Ġhe red
ĠE ight
ĠG ro
Ġfl ock
Ġref ract
Ġmin ers
Ġdown stream
ĠEc onomy
ĠIran ian
Ġdipl omatic
Ġdatas et
othel ioma
Å «
Ġhe lic
Ġle isure
ĠElect ronic
ĠAp ost
Ġeditor ial
Ð¾ Ð
he ll
he tt
Ġwas tes
Ġr ush
ĠCh and
ĠSc reen
Ġproject ions
Ġcalcul ator
ĠCom plex
ĠPol itics
ĠDiv ine
ĠDisc overy
S et
T E
W ash
Ġout s
ĠBl oom
Ġquick er
Ġcommit ments
Ġ193 5
Ġsch izophrenia
ĠAut om
ĠStr ong
izz iness
Ġbicy cle
K ing
ch lor
ri k
ĠSt ruct
ish ops
ffect ed
In formation
As k
Ġpred isp
lo or
Ġvisual ization
Ġrock y
Ġesc al
Me anwhile
ĠCP U
Ġmul ch
Ġank le
1 12
D irect
T R
Ġin security
ĠC aucas
ĠH imal
Ġcomp ressed
Ġun equ
ĠWar ren
Ġconver ts
Ġshut tle
c op
d ale
i ates
l iness
Ġf ont
Ġd engue
Ġh ire
Ġg on
Ġor ph
ill as
ĠB Y
iv ores
Ġcan on
Ġsp ores
Ġinc on
Ġj ury
oth ic
Ġactiv ist
Ġimpro per
Ġhar assment
Ġdetect ors
Ph one
Ġshr ink
Ġresemb les
ĠInnov ation
Ġcongest ion
Ġto e
ĠP ray
ĠL ith
end ent
ile m
Ġsub ord
Ġschool ing
Ġopp onent
Ġaccount able
ĠIntern al
Ġ193 2
Ġmal ware
Ġflag s
Ġrefuge e
ibl ings
ĠGre ater
Ġcryptocur rency
Ġcannab is
ĠFah renheit
L ar
M I
g ender
ĠD a
ĠJ os
ĠJ ama
Ġcur ved
Ġ10 5
Ġneg lig
Ġ194 9
Ġfer mentation
Ġparad ox
ĠNorm an
Ġenlar ge
b at
Ġ ..
er ic
Ġc ivic
al ach
ri ad
ĠSt ew
Ġrec k
ah a
ĠCl oud
sh ire
Ġunp redict
occ up
Ġproceed ings
Pres ident
% ||
f n
o ic
Ġc ake
al ks
as ers
Ġh ook
id i
ĠR ice
Ġres in
ach ment
les i
rop s
Ġmon keys
Ġcy an
ows ki
Ġnews letter
ogen ous
Ġdial og
ÃŃ a
Ġcomplement ary
ovol ta
og an
Ġimp ose
Ġstud io
Ġinv aded
Ġgl oves
Ġrespons ive
Ġpolic ymakers
Ġcapac ities
Ġwond ers
Ġconver ting
Ġcompr ising
ĠPortug al
Ġintu itive
Ġvic inity
enez uel
Ġp our
Ġre velation
ĠP red
ac ulture
ĠCh amp
Ġpain ter
Ġsw ift
Ġcat ar
Ġvent ric
Ġdomin ate
Ġrein forcement
Ġcyber security
Ġcoc onut
Ġmerch ants
M icro
P O
b as
p ace
Ġs nee
Ġg rief
ul atory
ĠB ry
ĠH S
ĠH ampshire
ort ing
ĠN one
Ġk et
Ġland mark
ĠPh oen
oid al
Ġenjoy able
Ġord in
Ġhope fully
With in
Americ ans
ĠSum mary
Ġbutter fly
Ġes ophagus
ĠRail way
ĠBM I
Ġpresum ably
. [
l iter
w er
Ġn u
ĠM ust
ĠP S
ĠE N
urn al
angu ages
ĠNe braska
resp ons
ĠMess iah
Ġreson ance
Ġcer amic
C ent
U RE
g as
Ġp ads
Ġb id
an ical
ed ication
Ġf ence
Ġex ile
ĠR ace
ag ic
ĠK el
Ġgen ital
iss a
Ġform ations
bl ood
Ġathlet ic
Ġmanuscript s
Ġlux ury
Ù ĩ
ĠT anz
ĠB uck
vent h
Ġeduc ator
Ġrece iver
Ġgradu ation
Ġder ive
Ġconv inc
Ġscholar ly
W est
Ġd ull
ĠA BC
ge on
Ġinc omes
Ġsocial ist
Ġthir teen
D T
ĠA ld
ĠH orn
ĠR ound
Ġtra ps
Ġpr ince
Ġred ist
umb ing
Ġcry ing
Ġtim eline
ĠMont ana
Ġbless ing
Ġencl osed
v oc
Â »
on ian
Ġp m
Ġf ake
Ġd ome
Ġv est
ri pp
Ġsol ids
over ing
Ġce ase
Un ited
ĠRel ated
Ġdro pping
ĠCa uses
Ġundert ake
Ġcuis ine
I E
a a
ing le
ĠC elsius
ab us
our ge
ub a
Ġant igen
Ġeconom ists
ĠGen e
Ġtri ple
Ġ190 8
Ġrecy cle
Int roduction
Ġinn ate
ĠColon el
Ä ±
her ical
ĠP ages
ess ed
Ġsu ng
os ke
em br
Ġser ial
ĠSy mb
Ġstat ues
yl ogen
ĠSim ply
Ad ditional
Qu estion
Ġremind ed
ĠFour th
Ġpassion ate
N As
c ounter
l ass
u ilt
Ġc ad
le an
ate mal
ĠE sc
Ġman ually
Ġj unction
Ġra mp
Ġbl u
Ġgener ous
ats on
ĠPh ase
Ġhost ing
ĠRec omm
ĠEgypt ians
New s
Ġcham bers
Ġpurs ued
ĠOpp ortun
ĠJoh ann
S earch
u art
Ġg ospel
Ġne at
Ġback ward
Ġrepl ication
Ġge ology
Ġcompan ions
ĠGerman ic
Ġdisp roportion
Ġimag ined
Ġacad emics
Ġtooth p
Ġfort un
Ġpros pective
ĠExper iment
Ġreject ion
ĠFact ors
Ġnick el
Ġbes ide
n uts
ĠM anc
Ġv as
ĠN iger
ĠSt re
Ġpel vic
Ġprejud ice
Ġconsec utive
Ġ Ø§ÙĦ
Ġs aves
Ġc ant
ot ics
Ġy esterday
ĠD ays
Ġle ukemia
ĠN ar
ĠIn j
Ġout let
Ġinteg rating
Ġrein forced
Ġhun ters
c lick
ĠC ou
ĠM i
ĠJ ay
Ġear ning
iod iversity
ĠCal vin
With out
part y
ĠOrgan ic
ĠDO I
ĠPear l
Ġcha os
Ġupt ake
C ount
Ġf ame
Ġin acc
Ġn arc
ĠB aker
Ġsc ler
Ġunder way
Ġexp osures
Ġoffer ings
ĠIS O
Ġfort ified
Ġannounce ment
Ġgrate ful
B O
t own
Ġn ails
op ause
ĠV ice
Ġattack ing
Ġcalcul ating
Ġseism ic
R ad
t ail
Ġm ating
iv ism
ĠD awn
ĠG ender
Ġdi agrams
Ġkill er
Ġwilling ness
ĠM L
ĠR F
ĠG ray
Ġinst antly
eng es
Ġfore most
ott om
iam i
Ġsuff ers
Ġcapt uring
Ġmag ical
produ ct
Ġinev itably
J ames
Ġt enth
Ġo vere
Ġb unch
an throp
ur ring
Ġ1 15
Ġab brev
cess ion
Ġindu ction
Ġcr ises
Ġcreat or
Ġyoung est
zz le
ĠLeg al
Ġthe atre
it ous
ĠS ugar
ĠW i
ĠG ran
ĠJ our
ount ain
Ġlim itation
ours es
ĠCar ter
IV E
Ġmath s
Ġnarr atives
Ġcritic ized
Ġske letal
Ġspr ink
Ġt il
Ġl bs
ĠP apers
ac ious
ĠCh art
ĠUS B
Ġwarm th
Ġmig rate
Ġmonit ors
ĠPract ices
Ġauthent ication
ĠâĨ Ĵ
ï¬ ģ
S em
g om
l ived
Ġt ags
Ġa wards
it ures
ĠA x
ĠP ow
and y
Ġcont ing
Ġra y
Ġrep ository
Ġwhere in
Ġorgan ised
Ġday light
ĠAt hen
Ġkind ness
ĠGen etic
ĠIm agine
Ġthreat en
Ġbra ke
Ġ186 1
ĠThanks giving
bet ween
S QL
g i
Ġc emetery
Ġw iring
Ġm erc
Ġd ot
ĠU l
Ġair borne
ĠShe et
Ġreact ors
ops is
IC E
ĠContin ue
Ġenlar ged
Christ ian
D em
c f
in av
in burgh
Ġp ie
ill in
um m
ĠL em
Ġfl ip
Ġins omnia
Ġmult itude
Ġtravel ling
ĠCor on
Pro t
Ġ195 1
Ġdefic its
Ġ186 5
ĠMet ropolitan
Ġprem ises
Stud ies
ĠCoast al
Ġbutt ons
ĠBarb ara
m ad
Ġs ixty
Ġb or
ĠB rief
Ġha w
pl aces
rop he
Ġgra pe
Ġsuccess ive
Ġcompet ent
ĠMad ison
Ġvolcan oes
Ġpione er
Ġvig il
b ach
l ov
n atal
Ġp ains
al ion
ĠP eters
os in
ĠSt ore
Ġcell ul
Ġser otonin
de v
Ġve ctors
Ġaccess ing
hy th
over ty
Ġgradu ated
Ġinsp iring
ĠÎ ±
Ġpump ing
Ġtal ents
Ġblind ness
Ġhier arch
Ġpix els
Ġencoun ters
A ir
Ã ª
Ġd ors
Ġh atch
Ġl ump
ies el
ri el
ĠY orkshire
Ġsim ulate
ĠCon cer
Ġperiod ontal
More over
Ġapprec iated
Ġorient ed
Sm ith
Ġsel dom
Ġdisin fect
Ġwra pped
Ġsubmar ine
st op
ĠS ah
ĠD anish
Ġle thal
Ġint end
Ġair way
ĠPl ains
ĠBe at
St and
Ġlif ted
Ġcard board
199 5
Ġinfluen cing
Cl imate
ĠPsych ological
Ġsupposed ly
Ġparagraph s
L ow
ar ound
se tt
ĠH old
Ġcan e
Ġsp ike
ĠY ang
ov irus
ĠCanad ians
Ġharm less
ĠOther wise
rote in
Ġbank rupt
Ġamb ient
Ġstick y
ĠColl ins
Ġdiscont in
âĹ ı
T em
Ã Ĺ
Ġt ricks
Ġc ents
ĠT u
ĠA part
Ġwh oles
ĠB ear
Ġun ified
ens on
Ġbl ast
Ġend urance
Ġplant ations
St ill
ĠPat ri
Ġvulner abilities
Ġsen iors
Ġlabel ing
Ġsocio economic
A nal
C are
Ġb ipolar
ĠA CT
if ers
ĠR osen
ĠL ack
Ġph il
Ġend orse
Ġel bow
Ġsuper f
Ġarr iving
ript ions
Ġcivil ians
Ġfront ier
ĠRec overy
Ġones elf
Ġ195 3
Ġ190 9
Ġprepar ations
Ġstret ched
Ġoutl ook
Ġpup il
produ cts
Ġdecor ative
ĠLead ership
ĠBalt ic
Ġnic otine
Ġprospect s
ing les
Ġbe verage
ol uble
ex isting
Ġ9 00
Ġgroup ed
Ġpred icting
IN T
Ġcapt ivity
ĠLaw s
Ġunf amiliar
Ġsem ester
Ġfabric s
Ġcrow ded
f illed
o ar
s ix
Î ¼
ol in
ig hed
ĠB R
Ġwor s
Ġtw ins
Ġob ey
Ġend uring
Ġrecord ings
ĠBre ast
aph rag
Ġtrick y
o S
s ac
y cle
Ġp ills
Ġin effective
Ġst ool
ĠR ud
Ġle aks
ĠN ick
Ġsh out
Ġprov es
ĠAl ice
Ġvol atile
AS E
ony ms
Ġguid ing
Ġhit ting
Ġsmart phones
Ġmarg ins
Ġprivile ges
T ry
d el
d oms
Ġt ennis
Ġd ressed
ver b
Ġr idge
Ġmar vel
sh ine
Ġtox in
Ġund erest
Ġsexual ity
Ġsusp ension
Ġtens ions
Ġproclaim ed
Ġfundament ally
U ST
l ined
l ooking
is en
Ġm arsh
Ġd rones
ĠS R
ĠD h
ĠD ow
ort ium
ĠN ord
all i
ĠJ enn
ograph s
Ġcal f
oura ble
ĠAss istant
ĠComp et
eal ous
Ġtransc ription
Through out
Ġsket ch
government al
S k
r ass
ĠM ack
ĠW a
ĠL yn
Ġrec alled
ĠSc and
Ġred d
oph age
Ġcapt ain
ĠChar ter
Ġdisp ers
ĠAre as
Ġmer it
Ġ190 5
ĠDet roit
Ġcircul ating
Ġcommod ities
Ġshrim p
ã Ģ
ĠC ole
ĠP rad
Ġhe d
Ġpl ains
Ġcont raction
Ġval leys
ai ro
Ġveget arian
Ġbirth s
AC E
ĠSpec ifically
Ġsynt ax
ĠEvery thing
ĠExper ience
ĠCre ation
Ġpersec ution
Ġintrig uing
M aking
P I
p ath
Ġcan als
Ġen jo
Ġâ ĪĴ
Ġpoison ous
Ġspin ach
Ġcompos er
O x
U V
Ġm ph
Ġbe ams
ra its
ĠM B
Ġde le
Ġhum ble
Ġart illery
ĠAd ult
Ġele ven
ĠLe ban
ĠUnder stand
Ġnurs ery
Ġdisadvant age
W HO
o ise
Ġt ours
ĠM aint
ble m
Ġeven ly
ĠPro tein
Ġmot if
ĠCreat ing
Ġham mer
Ġrevers ed
Ġcoh ort
i ably
ad ow
ĠP erm
Ġup wards
Ġcur ric
ĠInd o
ĠEn h
Ġnation ally
ĠSte in
Ġmir rors
ĠLib erty
Ġterror ism
Art icle
M ethod
Y S
i our
Ġp ockets
Ġch i
anc ouver
Ġcr ater
Ġquestion ed
Ġcit ations
Ġacqu iring
Ġ195 2
ĠGuard ian
Ġenerg ies
Aust ral
i Ã³n
Ġs aints
Ġe ll
Ġre per
Ġl ongevity
ĠS ent
ĠE gg
Ġwor sen
Ġact or
ĠFor ces
der ived
Ġcontin uity
Ġstri pes
ĠReg ister
Ġuns afe
ĠRevolution ary
ĠMel bourne
m ain
Ġc uc
Ġn ull
Ġbe an
ra cle
Ġu pl
ĠB ir
us able
est ing
ĠSt yle
ĠV enezuel
Ġgu y
az ar
Ġpack ets
Ġcere al
def ined
ĠCorn ell
Ġseiz ure
ĠPit ts
P ress
u i
Ġs pp
Ġg amma
ĠC er
est on
ĠF ast
Ġuse less
Ġmar itime
Ġenc rypt
199 3
ĠVol unt
Ġcorrespond ence
add le
ĠEth ics
mod ern
Ġrepet ition
Ġcasual ties
Ġcrimin als
re asing
ĠI R
Ġan th
Ġby pass
oc ular
Ġ18 40
ĠRet urn
Ġund es
Ġmag azines
Ġfib rosis
Ġ186 2
Ġtick et
Current ly
Ġt iles
el ed
Ġ( $
ess ive
ĠL eft
ĠSt ri
Ġsim plicity
Ġve gg
ĠOr ange
Ġsand y
agon al
Ġinterpre ting
gr ass
Ġbeet les
1 000
Ġin qu
il ic
id ering
ĠC ool
ĠP in
Ġde generation
ĠH urricane
Ġne c
Ġle verage
Ġwater ways
Ġform ulas
Ġdep osition
Ġnow here
Ġeduc ating
ĠGen eration
ĠMay or
Ġlat itude
ĠIsrael ites
Ġisol ate
Ġelectro des
Ġsovere ign
ĠT ab
ĠS it
Ġcon e
um ble
Ġman g
ĠV ers
ason ry
Ġwar n
ograph ies
Ġcorrect ed
su per
ĠMet eor
Mod ern
ĠImport ant
ĠPediatric s
' '
U ntil
Ġf ierce
Ġe lic
est y
ant ing
Ġsp are
ide press
Ġwork out
Ġlear nt
Ġloc als
ateg ory
yl oid
You ng
Ġdecl ines
199 2
Ġsecret ion
Ġclim atic
Ġstret ches
ĠNO AA
bu ilt
Ġin aug
ry s
Ġout reach
Ġsk ip
Ġmin us
Ġmen ing
ĠGu atemal
Ġsusp ic
Get ting
Ġmultipl ication
ĠRog er
ĠStrateg ies
ĠSans krit
Ġiod ine
Ġcongen ital
L ooking
W atch
l ishes
m ium
p ox
z h
Ġs iblings
Ġb amboo
ĠM orm
Ġag rees
Ġbu il
Ġben ign
Ġdon ors
Ġansw ering
ĠCont ents
Ġdisturb ed
Ġperf ection
Ġbuck et
Ġcollaps ed
Ġinjust ice
O ff
c ode
Ġd edication
ĠB eck
ell s
we b
Ġgra ves
eb ra
cont in
ĠPublic ations
Ġdece ased
Ġsul ph
or por
Ġn atives
ĠD iversity
Ġle ap
Ġsc arcity
Ġdr ift
Ġexec ut
Ġgraph s
Ġmeant ime
Ġencomp asses
ĠCris is
t able
ĠA ch
Ġst up
Ġsu ck
ĠD NS
ĠJ am
ĠK o
ĠAn throp
ĠRe form
Ġhome owners
Ġsuccess es
Ġlocal ized
ĠRem ove
Ġpix el
9 00
K S
s er
Ã ¸
Ġl av
ĠI M
ill ation
Ġex ceeds
Ġform ulated
Ġcontin ents
ortun ate
ĠMed ieval
ĠRep ly
199 4
Ġgall ery
Bet ween
D ifferent
ä ¸
ĠC eltic
ĠW aters
ĠE T
oc amp
Ġeng ra
ĠZ ika
let in
An swer
Ġarg uing
Ġlove ly
Ġgrad ient
ĠHub ble
à ¦
Ġt at
re ts
ic ient
ĠT amil
ĠM ine
ĠM amm
ĠP ont
ac o
ĠF ew
ĠIn side
rit ers
Ġdisc oura
âĢ¦ ]
ĠÂ µ
Ġinstall ations
ĠSen ator
Ġtun n
Ġundert aking
Ġabol ition
ĠVerm ont
A ng
Ġm ould
Ġl ord
ol ation
ĠH ur
rom b
ric hed
ail ure
Ġac et
Ġjust ification
eg rad
Ġgu ys
Ġmeas les
Ġtext ile
htt ps
Ġinver te
Ġcontag ious
at um
Ġd ug
Ġh int
Ġre nov
Ġl od
ill us
um erous
ĠL l
min ated
Ġinstit ute
bor ough
Ġru in
Ġille g
produ cing
1 18
Ġd iving
qu er
Ġte asp
Ġar ter
Ġco herent
Ġrese t
acter ial
oll ar
Ġexpect ation
ĠBar n
Ġextract s
Ġstimul ates
Ġintest ines
Ġorb its
Ġbioc hemical
Ġdismiss ed
ĠParticip ants
Ġseaf ood
Ġtsun ami
p arents
r Ã©
se ver
Ġg olf
ĠB ee
ĠH arm
Ġanal ogy
Ġcharacter ization
ung le
ĠState ment
ĠVal ent
Ġrat ings
Ġstrugg led
Ġaw a
Ġcorpor ation
Des ign
ĠAdm iral
ly cer
ĠE SA
Ġnot orious
Ġman ages
te chn
hes s
uss ia
anc he
Ġcertain ty
Ġann oy
hib ition
Ġnucle i
Ġjud ged
Ġoutput s
Ġcoc aine
ĠPhot os
ĠGreg ory
Ġspont aneous
Ġcel estial
Ġw rap
Ġl ava
ol ism
ot or
Ġde eds
ĠB E
ĠR idge
Ġen er
Ġpo orer
Ġfam ine
cl ock
Ġden ial
Ġdyn am
Sh ort
Ġwitness es
Ġpla us
Ġfrust rated
ĠInterest ingly
Ġcondem ned
Ġoun ces
Ġeleg ant
gom ery
D ist
E ss
P al
in ctions
Ġthe ft
Ġh urricanes
Ġen forced
Ġyour s
Ġmet ropolitan
Ġproject ion
Ġcat hedral
Ġsepar ating
Ġcivil izations
Ġlength y
Ġadjust ing
clus ive
ij i
Ind ia
Ġdrople ts
S ection
T r
il ated
ĠF ine
Ġinc oming
Ġar ising
ĠSt reng
cl er
ĠWh atever
Ġlight ly
Ġinject ions
Te chn
ĠBab y
Ġoverwhel med
Ġportray ed
Ġdw elling
Ġtodd lers
1 30
I ES
L ab
U K
b ath
h im
l ook
Ġo wing
Ġc in
Ġhe ights
Ġex h
ĠW ide
ĠF ern
Ġsp ices
ĠV R
Ġneed ing
Ġprov ing
ĠSy nt
Ġsal ad
ster dam
hel p
ĠProject s
Ġpractition er
ĠBeg in
ĠWorkshe ets
ĠKash mir
c ott
f iction
j ar
in as
Ġp ars
Ġl id
Ġad here
ĠTh reat
Ġout lets
Ġthere after
Ġcons cience
Ġhel met
Ġdep icts
Ġret inal
Ġdr one
ĠEx change
br ush
bo at
Ġdemonstr ations
Ġrot ate
Ġpig ment
Ġfulf illed
ĠCell s
Ġreward ing
Ġdimin ished
Ġdeliber ate
H y
J es
l ier
re th
Ġb oss
st art
ĠM ut
Ġde form
ĠN umbers
Ġk its
Ġover load
Ġrel iance
Ġexam inations
Ġtechn icians
ah l
Ġtemper ate
ÃŃ s
Ġren amed
Ġbuil dup
E nd
ad os
os lav
Ġsh ipped
Ġsec uring
Ġfun ny
Ġdesc ended
Ġdig ging
ER T
Ġbar rel
Ġge ometric
Ġenjoy ment
Ġincl ined
Ġspin ning
Ġgrad ers
F O
P ot
T otal
b rain
z ema
at itis
Ġf ishes
ĠS oph
Ġch olera
and o
ĠF uk
aj a
ik ipedia
rehens ive
Ġincorpor ates
Ġgrand father
ĠExp ress
Ġarchae ology
Ġinfant ry
ĠSign s
Ġcous in
m any
Ġw ished
Ġm oss
ĠC ities
ate ur
Ġwas ted
so on
ĠV iolence
Ġver ification
Ġ193 4
Ġcompl aint
Ġfract ions
Ġtransf ers
E s
M uch
P ort
i ots
Ã ł
ro aches
ĠW u
ĠD ipl
Ġsym pathetic
ĠAd ults
ĠMay o
arr ison
ns ic
Ġcolon ization
co al
Ġcast ing
Ġvac ation
Ġforb idden
b ishop
Ġc ognition
ĠSt ev
Ġour s
Ġdisc arded
Ġcr ushed
Ġreview ing
ĠEd inburgh
ĠCor inth
ĠSur v
Ġmotiv ate
Co V
Ġembra ced
Ġexpend itures
P aul
l ength
Ġ Å
Ġa ph
le ft
ĠT ow
ĠH V
Ġcan vas
ĠN othing
Ġpl ed
ĠK am
Ġav oc
ĠComp are
ĠChild hood
Ġ190 1
Ġtransform ing
Ġsched ules
Ġpyram id
ĠH A
Ġen vision
Ġimp ressed
Ġpain ts
Ġcontem pl
Ġcab inet
Ġstere otypes
a que
p it
ve t
Ġst ance
ĠD iam
ĠG IS
Ġab norm
Ġad s
ass ador
Ġ19 23
gg ing
Ġopp ose
Ġscient ifically
ĠCo oper
Ġtax p
Ġfav ored
rim inal
fall s
Ġcab in
J oin
b rown
ã ĥ
ĠC ave
Ġdiff usion
ĠCl ay
Ġdel ivers
Ġpast ure
ĠQu ick
ĠTibet an
Ġsacrific es
R ev
Ġs ized
Ġc aste
id ad
Ġsh ake
Ġpo ets
Ġblood y
Ġview ers
Ġcolle ague
ĠTr inity
roll er
Ġfire f
Ġtravel ers
Ġreported ly
Ġrhyth ms
Ġvag inal
ĠHot el
ĠArmen ian
ĠGh ana
pher d
Ġenvelop e
ĠTes la
C DC
G H
L ink
T er
e ks
ĠM E
Ġar che
Ġtr an
Ġbi ases
Ex amples
off s
Ġancest ry
agon ist
Ġborrow ed
Ġinval uable
serv ice
Ġener get
Ġt ribute
Ġl ap
st ar
âĢ Ĳ
im mer
Ġst aple
th alm
Ġun even
ĠK rish
Ġfl ank
Ġmy riad
Ġins isted
Ġcor rid
Ġspecific ation
ĠQu arter
Ex p
Ġconstruct ing
Ph il
Ġske leton
ugg ing
Ġpenet rate
al am
ĠM end
ĠB ald
ĠJ ere
Ġev ap
Ġcor als
gen e
Ġel ong
Ġestim ation
Ġresid ue
Ġvig orous
Ġsle e
Ġmurd ered
Ġkern el
I ts
c ra
á ¸
on line
al g
ĠM obile
ĠD S
ĠV ancouver
Ġwar riors
ĠGl ass
cast le
ĠGra ham
m und
m orph
p rop
Ġm l
ith metic
ĠM ak
ĠM iami
um ed
ĠK elly
Ġdec imal
Ġins cription
Ġcarbon ate
Ġcross es
ĠDevelop ing
Ġcul p
Ġreluct ant
N F
W ind
Ġt yr
ig g
Ġit ching
ab olic
ĠB rian
Ġsu its
ĠD ys
Ġsp ear
ia e
Ġgl ance
Ġview er
Ġcy st
ĠGen etics
col ored
Ġbath room
Ġconqu er
Ġstiff ness
ĠAlexand ria
C M
y on
he ter
Ġb other
ĠT ol
ĠP omp
ĠL ect
au er
Ġreal ities
Ġ186 3
ĠSmith sonian
Ġsupplement ation
sell ing
Ġsuscept ibility
Ġcough ing
Id ent
Ġb ile
Ġre ception
ur ved
ra ment
ad ata
op last
Ġnot ation
pl ain
Ġad renal
Ġph y
Ġass ay
Ġmy el
Ġthink ers
Ġdon ation
Ġbi ologist
Ġstat ute
Ġap artment
ĠAugust ine
Ġautom otive
ĠInf antry
ĠEffect ive
sm all
ustain ability
Ġstrengthen ed
Ġre un
us ch
ĠL DL
Ġsystem atically
aw ning
Ġdesign ation
anc ers
Ġposition ing
Ġbase ment
Ġâ ī
Ġmel atonin
Ġsimpl ified
Ġdil ig
Ġpubl isher
Ġhob by
ĠEpid em
Ġint olerance
Ġco arse
Ġvis ibility
oun cing
ĠCl aud
Ġdev ised
Ġbi ologists
Ġenc oding
ĠSouth west
Ġtax ation
ĠEl se
ĠExp osure
Ġexplo ited
Ġdepart ure
ĠArchae ology
utri ents
S ah
n om
o ffic
ir uses
ould er
Ġapp rent
Ġrel ay
Ġlit eral
Ġconf idential
Ġdev iation
Ġfre ight
Ġpric ing
Ġhun ter
ĠVen ice
Ġfra cking
ĠMalt a
u f
Ġw oven
Ġd izziness
ĠS ources
ĠB P
ect omy
ĠL as
ĠL ag
Ġar rows
ĠK enn
Ġover th
vers ible
ĠV ent
Ġrep orter
Ġ' '
ĠMor oc
ĠRel igious
uls ive
Ġweigh ing
Ġinherent ly
fil m
Ġintercon nected
e ast
k it
Ġw icked
Ġl ined
ĠS ure
ĠC ow
ĠW A
Ġch im
Ġtw ist
Th ink
Ġcor ps
ĠPl ans
Ġresearc hed
Ġemploy ing
ĠX X
Ġcontribut ors
Ġ190 7
Ġreplic ate
Ġlandf ill
Ġrecruit ment
) -
Ġt astes
Ġp agan
Ġf aint
am ines
ĠG ates
ok a
Ġrem arks
Ġmod elling
ĠJohn s
Ed it
Ġorb ital
frequ ency
Ġc ured
Ġd ilem
ch air
ant i
Ġfl ush
cl in
Ġcra zy
ĠRec ently
Ġdisplay ing
Ġunf ortunate
Ġprev ailing
ĠPop ular
Ġconstell ation
Ġan onymous
Ġan esthesia
ĠP D
ĠG A
Ġsh ale
Ġspec ulation
Ġgu ards
Ġsl aughter
Ġleg ends
ox y
Ġground ed
ĠDr ive
con duct
Ġtur key
ĠJud ge
Ġregul ators
dr iving
Spec ial
Ã £
Ġm aker
Ġh alt
ĠA pr
ĠS ARS
rough ts
Ġadd itives
Ġatt ained
ĠAn swer
ĠDe al
ĠSh aw
Ġemer gencies
ĠApp alach
la very
ĠHor se
Ġalarm ing
Ġmorph ology
Ġsho ots
d ie
h l
Ġo lig
Ġp ier
ic ated
Ġl i
ĠT rees
ĠC NC
ĠM om
ment ing
ĠH ep
ĠR oll
ĠPro ced
pr ise
Ġcit rus
na issance
Ġdisp ersed
Ġtrack ed
ĠRef uge
Ġdisturb ing
Ġpenet ration
Ġprophe ts
V itamin
Ġbe ads
ol o
ĠF amilies
ĠL ud
ell ite
ĠGe ography
Ġconsult ant
Im pro
Ġ186 4
Ġpill ars
Ġforecast s
ĠCharl otte
Ġasym met
fram e
F act
b ank
c orn
Ġb orne
Ġd ess
Ġl adder
ĠC ord
Ġcon ventions
Ġal oud
ill o
ĠF inal
Ġman if
Ġso f
Ġadd ict
Ġlight weight
Ġsun ny
B i
ĠS iber
ver bs
qu et
ĠW TO
ĠD allas
ĠG O
Ġres ide
Ġtr ump
Ġpr inters
Ġdisc ern
hat tan
Ġimm ort
Ġill usion
Ġphot ons
Ġsal ts
ĠPar ad
Ġbehaviour al
Ġadministr ator
ĠIncre asing
Ġmira cle
ĠMong ol
ĠArn old
= =
v ar
Ġp oured
ir atory
iv an
ph p
Ġgen eal
Ġexp osing
Ġmake up
Ġcommun ist
Ġnow adays
ipp er
ĠFl ight
Ġdefic ient
ĠSecond ary
Ġleaf y
ĠScient ist
Ġresid ues
Ġom n
Ġextrem es
ĠNapole on
oar thritis
e very
f ocus
er obic
ĠC yp
ĠC emetery
Ġwh olly
ĠH us
ĠL ooking
Ġsp ends
Ġafter math
ruct ose
ĠSp eed
Ġvari ance
ĠPh araoh
Ġperiod ically
ĠTe a
Ġprop osition
Ġâ Ī
Ġconv iction
Ġp ork
Ġpro ceeds
ĠD VD
ec d
Ġ19 26
Ġgen omic
Ġind ul
Ġdi aphrag
Ġco aching
ank ton
Ġvers a
ĠAssoci ated
ĠIns urance
ĠLim ited
ĠBern ard
chest ra
C oll
i aries
n an
Ġm ars
Ġto ss
ĠT ropical
ĠW es
ĠR O
ĠL ibr
ĠL ux
ject ion
Ġav en
ee k
Ġcirc adian
Ġorigin ate
Ġfinanc ially
ĠInter ior
Ġremark ably
Ġchair man
---- ----
neg ative
S H
S an
U SA
â Ĩ
od er
ĠM aur
ĠH app
Ġam ple
Ġbre w
Ġdev otion
ĠMe eting
Ġanaly sts
ĠBre ak
Ġanten na
Instit utions
Ġsemiconduct or
Ġgamb ling
? âĢĻ
M ich
N umber
h ored
Ġl amb
Ġg rip
ĠJ oshua
so ver
Ġ19 25
ĠK er
Ġshe er
Ġgood ness
Ġfin est
Ġemer ges
Ã© t
ĠMe aning
On line
Ġtit anium
Ġremember ing
Ġrepe ating
ĠOver view
ĠVol can
Ġminim izing
ĠAP I
ĠHawai ian
Ġastronom ical
ĠVe h
ĠHung arian
Ġgran ite
Ġbom bs
ĠRepresent atives
B ra
F re
i atic
o op
ar re
Ġn ets
ĠS AT
em ption
ĠG E
Ġad en
Ġover ly
Ġsub mission
Ġfin ite
Ġarr ives
Ġwa ist
sens itive
Wash ington
S am
s in
Â ²
am ph
ĠG ast
ĠN it
Ġsp ur
ĠV III
Ġmon opoly
Ġconf erences
ron ics
Ġshort ages
Ġprotect ions
ĠNo ah
Ġdeb ts
Ġ193 1
Ġbond ing
ĠContin ental
Def inition
Ġexplos ive
L ight
Ġt idal
en ers
Ġb ricks
ĠB ened
ect ar
um atic
Ġsp o
ĠIn sp
Ġcomp ares
Ġreg iment
Ġher ds
10 4
Ġfa una
Ġmig ratory
Ġov arian
ĠZh ang
Ġdeple tion
Ġunpredict able
H C
R ober
i ang
Ġe g
Ġst olen
ĠH alf
Ġr heumat
Ġnot ions
ell es
Ġall oy
Ġslow ing
ĠVir us
Ġsyn ag
ĠHarr ison
ĠGir ls
U I
a qu
n ih
Ġthe ological
ic he
Ġst ub
ĠB urg
Ġwor sh
ust omed
ĠV it
Ġdec isive
Ġshe ar
ĠSc out
com ed
ĠAssoci ate
Ġconsult ing
Ġimpl ied
Ġcatch ing
Ġband width
ĠEnd angered
imp se
Ġul cer
Ġpanc reat
Ġreservoir s
Ġregen eration
ĠByz antine
Ġcaut ious
H en
U lt
c urrent
r ase
re ation
en ium
Ġb ump
Ġn ost
ĠS ed
ad oes
Ġpl acent
Ġinc ap
Ġdis reg
Ġpat ents
Ġtop ical
ĠMay a
irm ingham
ĠAut o
Ġinvent or
ĠBas il
Ġpil grim
Ġaccommod ation
Ġembry onic
in is
at able
ul u
ĠH ousing
Ġsh ades
Ġsp heres
ĠV iking
Ġinter disciplinary
Ġmon archy
me aning
ĠSe qu
Ġcr an
ox in
Ġestab lishes
Ġevent ual
Ġpriv ately
ĠNe ither
Ġcontract ing
udd y
Ġhypothes es
ĠNon etheless
Ġfinger print
press ure
ĠRedu ce
Ġmas cul
ĠScand inav
R esp
Ġb aked
Ġe ats
ab a
ore rs
ud al
ĠR ica
ĠL ock
ĠJ oy
âĢĿ ),
cess ive
Ġelect oral
Ġdon ations
ĠAb u
het ical
ĠHar per
Ġallerg ens
Ġpossess ions
Ġspok es
Ġswit ched
Ġhat red
o qu
p hen
s pect
ĠS ie
ĠD ial
oc key
ĠG on
ĠSt uart
ne red
Ġco oper
Ġ4 50
ĠBut ter
Ġdirect ors
ĠGen er
Ġanaly tics
Ġconfirm ation
ĠHol lywood
col or
Se lect
Ġeld ers
Ġterror ist
ĠHT TP
ĠEnc ourage
ĠAra bs
ĠTanz ania
ĠManc hester
le e
ĠA id
ĠS ize
ke e
ĠE asy
pl anes
ĠCh at
Ġant idepress
Ġey el
Ġprofess ors
Ġwild fires
cont aining
ĠDef inition
Ġprem ise
ĠStat us
Brit ish
ĠFlore nce
ĠAtmosp heric
Ġconvinc ing
C ur
D M
L and
n ie
Ġs ailing
or p
Ġb oring
an ne
Ġn ov
ĠH end
ip al
Ġ19 28
Ġcommun al
Ġbre ach
Ġcountry side
ĠX ML
Ġbacter ium
Ġmal ignant
ĠElect rical
Ġflav ors
M ac
Y ear
d et
Ġw ines
ĠM ann
ĠR alph
Ġun limited
Ġob edience
Ġdisc rete
uss ions
Ġmight y
Ġant imicrobial
ĠAll ies
unt ing
ĠMan hattan
ĠNot ice
EC D
Ġwid ow
Ġcomment ed
osc ope
Ġfacilit ates
Ġtun a
Ġfurn ace
Ä ĩ
Ġf og
Ġg aming
ĠC rus
ĠP and
Ġse arches
ure rs
ib les
ĠY am
Ġass ure
Ġ18 95
par ing
Ġtext iles
Ġang ular
Ġsymbol ism
ĠRich ards
Ġfertil ization
Ø§ Ø
ĠNov a
Ġintention ally
regn ancy
Educ ation
l ib
x x
y ards
in ators
Ġc ath
Ġb ored
ĠT ang
ot rop
Ġr anged
act ing
ren ces
Ġsent iment
Ġsqu ash
Ġrain forest
Ġevalu ations
ĠMont gomery
Ġnoun s
T ur
l isted
in se
Ġc iting
Ġf ixt
Ġf ighter
ct al
Ġdi ary
Ġend ure
Ġindic ations
Ġprob iotics
ĠAm sterdam
Ġcra bs
Ġprompt ly
Ġanalys ed
bel ie
Ġtunn els
S O
r h
Ä į
ĠSc ale
ĠSh an
Ġaddition ally
Ġsw ing
ĠSy rian
Ġaltern ating
ĠReg ardless
ari at
Ġpen insula
Ġswe pt
Ġexcell ence
Ġphysic ist
Ġcart oon
Ġexhaust ed
Ġexch anges
Ġlegend ary
Ġleak age
Ġib n
Ġopio id
D an
l ay
ĠA A
ĠA chie
ort ions
ĠSt orm
ob a
Ġdec ent
Ġco hes
Ġback yard
oph obia
Ġlack ed
Ġexpress es
ĠAc id
Ġvisual ize
bl og
Ġpul ses
Ġbud s
Ġcere als
Ġpu ber
ĠSum mit
Rec ent
Ġobst acle
ĠDub lin
Ġtraject ory
C am
M O
M art
p resent
u ating
Ġf ond
Ġre lic
ĠG ERD
ĠIn vent
Ġsc rub
ric es
Ġdiff ering
ful l
Ġed s
Ġsom etime
ĠBe aut
pe ace
ĠRoman ia
Ġjournal ism
Ġcontrad ict
Ġanomal ies
Ġhered itary
f i
s qu
Ġp a
ent ary
ĠT ru
Ġg ri
ĠI Q
ab ad
Ġsur pass
Ġprof iciency
ĠPress ure
ĠKnow ing
Ġaer obic
ĠGard ens
ĠAltern atively
Ġsie ge
om ers
ĠT M
ur bs
Ġst airs
Ġal tering
ĠN ormal
Ġ19 24
ĠV i
Ġgl impse
Ġpredict ive
Ġmission ary
ĠClass ical
Ġaw aken
Ġcrow ds
c row
m ax
Ġs ailed
le en
ĠH earing
Ġsc ary
ĠY oga
Ġgl ut
sc he
Ġleg umes
ipp le
ĠSu ff
Ġste al
Ġcontribut or
Ġtruth s
Ġroof s
ĠKar l
Ġadolesc ence
ĠOper ations
Sm all
Ġg or
os itions
ĠN early
Ġun just
ĠK il
Ġcur s
Ġz oo
Ġmission aries
Ġnav ig
ĠPan ama
Ġeld er
Ġaccident ally
Ġcort isol
Ġlegit im
estab lished
D E
N P
c lic
it ism
ĠC ause
Ġtreat ies
Ġfil t
Ġstory telling
roll ing
oph ysical
Ġrespect s
AS S
199 1
Ġoccup ations
Ġ190 6
Ġinvent ions
Ġshar ply
Ġsanct uary
o j
Ġw itch
an im
an us
ĠP ositive
ĠR ig
Ġle x
ĠG em
Ġind ef
Ġconf irms
Ġve gan
Ġintern ally
Ġunique ly
ĠRich mond
ĠOper ation
ĠConfed er
Ġmyster ies
UC N
D I
e val
j ab
m ake
Â ¬
ð Ŀ
on str
ĠA PA
os ium
ĠN L
ĠN ixon
Ġany body
Ġprocess ors
Ġcal ves
Ġforest ry
AN S
bre ak
bre eding
Ġthr iving
Ġwel d
Ġregul ates
ĠMit chell
it ching
Ġb iting
Ġre jo
Ġl umber
Ġg ad
id en
ĠS ultan
ĠC her
Ġv oid
iv orous
Ġsc ored
Ġsim ulated
arm ed
Ġanim ated
Ġreal ization
reg ulation
Ġimag in
Ad v
Ġconv icted
ĠOrgan isation
ĠÎ ²
ĠMont real
ĠOrig in
Sah aran
on ies
Ġs arc
Ġin active
Ġl ime
Ġg i
im ates
ĠS old
Ġhe el
ĠF resh
Ġad herence
Ġinter mitt
19 80
Ġpost ers
Ġphot ovolta
ĠAb use
ze k
ĠCount ries
Ġanaly se
Ġagg ress
Ġsusp icious
organ ized
Ġcertific ates
Ġrecur rence
Ġviv o
Ġpuber ty
s aving
Ġt read
re ased
Ġb red
Ġin hal
Ġm int
Ġh ath
st ance
ĠA Q
Ġcan opy
un i
ĠG L
Ġall oys
Ġrec laim
ĠV II
Ġ18 30
sc ar
ĠEx cell
Ġspe eches
Ġcop ied
erg ic
ĠReg iment
OR T
Ġsubt ract
Ġmunicip alities
Ġrh in
Ġdeterior ation
Dig ital
B esides
D el
c ore
Ġp ins
Ġp aired
ĠC hest
ĠR ules
ok en
ric ting
ten ed
Ġsub set
orn s
com b
Ġrest s
ĠAss y
Ġintrodu ctory
Ġpath ology
Ġconc ise
Ġmal nutrition
cont ent
Ġinterview ed
hav ior
Ġrac ist
plo ys
ĠUlt imately
deg ree
Ġmelan oma
Ġbrut al
Ġredd ish
at ility
Ġg room
ĠF el
ĠL anguages
Ġmay or
Ġrec urrent
Ġher pes
Ġbo iler
-- -
Ġhor ror
Ġ190 4
ĠFre ud
Ġpropag ation
ĠProcess ing
ĠFil m
Ġtang ible
Ġdatas ets
p end
r il
r ational
w itz
st ick
ĠC I
Ġ1 12
op us
ĠB iodiversity
Ġun related
Ġbet ray
ject ives
uc ing
Ġcur b
Ġpar alysis
ling ton
Ġcharacter ize
Ġste ering
Ġprogress es
Ġagg rav
Ġfig ur
Ġfacilit ated
Ġlaun ching
Ġoptim ization
Ġunus ually
she et
Ġstain less
Ġdesper ate
Ġdors al
H um
U pd
b ase
n amed
Ġd roughts
im age
Ġhe ir
Ġsh ores
Ġres urrection
Ġsc ra
Ġbl amed
Ġmon key
Ġpred ator
ush ima
Ġtravel led
ĠPre c
Ġrecip ients
Ġske pt
ĠAL L
commun ications
ĠAdvis ory
B r
N L
op erate
du ino
ĠK ir
Ġless en
to xic
ĠArt ificial
Ġinterp ersonal
Ġpredict able
Ġapprox imate
Ġbed time
ĠSte el
Ġancest ral
Ġguarant ees
ĠSat an
Ġrobot ics
gr ims
ĠIde as
ĠFisher ies
Ġpiv otal
! ).
c over
Ð º
Ġd ough
Ġal coholic
ĠK os
ĠV el
uc l
Ġinter change
Ġback ing
Ġback wards
Ġequ ator
Ġphot ographic
Ġbur d
Ġmis leading
ĠAtl as
Ġstation ary
à¤ ¾
Gen erally
Ġpersist ence
ĠWall ace
ĠEns ure
G old
Ã ´
Ġd read
ow l
ĠP ole
ĠB rist
ĠE uro
Ġun ve
ĠY ug
iss ue
ven ous
Ġret ard
Ġdev ote
Ġquestion ing
Ġcapt ive
Ġclin icians
Ġjud gments
Ġstim ulated
Sp ace
EL L
Ġvalid ation
ĠExper ts
Le vel
Every one
Ġexclud e
Ġcategor ized
ĠGir l
Ġbibli ography
Ġhipp ocamp
F in
K E
k ill
l ate
Ġcon gregation
ĠB ru
ec al
rop ract
Ġco ated
Ġbr ass
ĠMon ument
Ġmaster y
Ġappoint ments
Ġmamm al
ĠMid west
fund ed
Ġpean ut
G I
m os
Ġf al
Ġl b
Ġan nex
our t
Ġpe at
ĠV A
Ġref ere
Ġeconom ical
Ġprint able
Ġforg iveness
ĠOlymp ics
Ġprophe cy
Ġnumb ered
V A
m illion
on ium
ed ar
op ath
ure r
ak y
Ġra v
Ġph ylogen
ex cept
ows hip
ĠApp roach
Ġcapt ures
Ġexpect ing
Ġroll s
Ġmes othelioma
Ġimpul se
Ġamend ments
D et
F rench
T L
x ia
Â ¢
Ġh ull
Ġe agle
ig raph
op ping
res olution
ĠD est
Ġed itions
Ġown s
Ġredu nd
ĠSc ots
Ġturn over
IC EF
Ġencourage ment
inn amon
Ġworry ing
Ġintent ional
Ġpuzz les
Ġperme ability
ĠCitiz ens
" ),
it ating
Ġl aund
ĠS ons
ĠM aterial
ĠB enn
ĠB irmingham
ph thalm
Ġpol io
Ġstr angers
Ġplay ground
ograph ics
Ġbur nt
Ġce ased
bl ock
Ġcontract ed
ĠSpec ific
Ġreb uilt
Ġblow ing
ĠRock y
Ġadvis able
Ġquiet ly
Av oid
Ġpod cast
S un
f ile
Ġf ibr
Ġf ictional
Ġg rie
Ġpro active
ong o
ĠV ul
Ġhand les
ries t
sc ribe
Ġprop oses
Ġdig its
Ġhyd rop
Ġspiritual ity
Ġdeple ted
comput er
M ain
at ar
Ġfor age
ĠW atson
Ġsy rup
Ġbr ighter
Ġ17 00
Ġbar rels
Ġslow ed
ĠRuss ians
Ġbreast s
Ġpul s
nam ents
Ġexceed ed
Ġcram ps
J ournal
L ead
e a
Ġd uck
Ġh iking
Ġe go
Ġl ing
ri et
Ġcol der
Ġacc ustomed
Ġform ulation
Ġinit iation
ĠApp ly
Ġsqu ad
Ġjoint ly
Ġvirt ues
ĠInst ruction
ilit ating
Ġbuy ers
Sh are
Ġpossess es
Ġchap el
Ġpersu asive
Ge orge
Ġpenal ties
ĠOm ega
Ġtodd ler
ĠPict ure
Ġjun ior
Î ²
er ion
Ġf ighters
ĠW ag
ĠE ither
ight y
Ġcl osure
Ġcol oured
Ġacc ent
Ġem ig
ars on
Ġdr unk
Ġspecial ty
Ġport raits
uff s
Ġrank ing
ĠCir cle
ĠBul gar
Ġdorm ant
T w
Ġp orous
Ġl ions
ĠB anks
Ġv ibration
ath a
Ġsub species
the se
cl iff
ĠRe ef
arent ly
Ġ0 1
Ġflu ency
che ck
Ġrecy cl
ĠTem per
ĠSte ven
En vironmental
ĠEss ential
Ġsmooth ly
Ġnegot iate
Ġid ol
ĠInvest ig
Ġarsen ic
D O
w atch
Ġrest ra
Ġmot ions
Ġbar g
Ġden omin
Ġaw esome
IL L
Ġbomb ing
Ġsurge ons
Ġrect angular
ĠDesc ription
Ġfemin ist
b eth
ig ers
ĠM T
Ġex ting
oc hemistry
ĠR y
Ġimp art
cent ered
Ġpolit ician
ĠMil k
Ġprompt s
Ġcrew s
link ed
ĠHug hes
ĠCompan ies
ĠSalmon ella
Ġcum ulative
C y
f em
k n
n umber
t aking
Ġw ins
id o
ĠC el
Ġwe aving
oc l
act us
Ġsc ent
ĠK or
Ġdef ending
Ġins ign
the m
Ġfin ishing
ĠTo xic
Ġavoid ance
Ġspect ral
ĠAir port
isp ens
Ġexcav ation
Ġscal p
Ġenjo ys
E th
re ason
id ate
Ġr ounds
Ġun in
Ġsc aling
Ġco ined
Ġdisc rep
Ġprogram med
Ġreal ise
ĠPl ato
Ġprevent ative
Ġtherap ists
Ġge othermal
Ġwel comed
Im agine
Ġlib ert
Ġbudget s
ĠCham ber
Ġunsu ccessful
ĠAstr onomy
ĠRw anda
B ig
e ating
o ft
Ġs outheastern
ic ism
il us
Ġl umin
ĠT as
ch anging
ĠC ome
ĠR uth
Ġbu zz
tle ment
ĠRe ich
ĠAll ergy
sw ers
Ġver ified
ĠMedic aid
Ġstabil ize
Ġdispar ities
ĠLie utenant
Ã£ o
r ators
s ometimes
Ġt ile
Ġm ock
ĠT ed
ĠB ou
Ġrec ount
Ġthere of
Ġhot els
Ġadapt ations
ĠSal v
ĠHol land
Ġrelax ing
Of ten
ĠBul letin
Ġaspir ations
Ġdur ability
T alk
f ields
Ġm ills
Ġpro ph
ĠD ragon
Ġr ansom
Ġsh ine
Ġcomp ute
Ġj azz
Ġsub mer
ĠBl acks
AS H
ĠCom mercial
Ġaim ing
Ġmanifest ation
ĠGuatemal a
A cc
C I
d rop
l ated
on el
Ġbe ating
ĠA aron
ĠS ikh
ore ctal
Ġsp herical
ib ia
ĠV est
ert on
anc ipation
Ġcommit tees
Ġmig rant
Ġsuppl ier
Ġhom eland
win ning
Ind ividual
Ġju ices
Ġaccident al
Ġcav al
Ġsatisf ying
Ġdress ing
ethyl ene
ĠNort heast
Ġlivelihood s
Ġculp rit
- ,
P ower
R ob
c ribed
or ative
Ġp engu
ĠG rowing
ost ing
Ġunc over
Ġcultiv ate
Ġparliament ary
Ġphotograp her
g ard
n ative
Ġth igh
ĠS aul
em porary
Ġab used
ak ia
Ġass urance
Ġsupp lying
Ġcar rots
Ġpred icts
enn ial
Ġexc use
Ġrout ing
Ġunivers ally
Ġreb uild
Ġamb ition
Ġtun ed
Ġnic he
ĠHon or
ĠWy oming
Ġimpul ses
l oss
w ear
Ġb ust
ĠT ests
ĠB orn
ĠR s
Ġsens ible
Ġinteg er
Ġcustom ized
Ġhar bor
Ġdisp osed
ĠJud ah
osph ate
Ġpin point
ĠDesc ribe
Ġsail ors
Ġprecurs or
n l
Ġd yst
ro cy
il ized
Ġn inth
ce mia
Ġfor aging
Ġab rupt
Ġun lock
Ġpre historic
Ġover r
Ġide ological
Ġ[ âĢ¦]
Ġfa ults
Ġshel ves
Stud y
ĠTop ics
Ġdepr ived
Ġinfest ation
Ġvegg ies
C reate
a ffected
Ġb achelor
Ġinf ancy
ob iles
Ġsign atures
Ġret rieved
pr im
Ġprevent able
Ġarg u
ĠCommun ities
Ġexperiment ation
Ġfig ured
Ġasc ertain
Ġencl osure
Ġdistract ed
ĠCe le
Ġobsc ure
Ret urn
Ġplacent a
H yd
Ġn ectar
ĠM ale
ĠN J
Ġ19 27
Ġacc us
Ġmed i
Ġchar coal
Ġsuff erers
IC AL
Ġder ives
Ġwin ters
Ġmanifest ations
Ġflour ish
Ġanticip ate
Ġswallow ing
Ġaspir in
Ġconstitu ents
Work ing
Ġsymmet ry
ĠNAT O
Ġdispos able
k ers
s ided
Ġb ending
Ġm aid
ic uous
Ġl uc
Ġst agn
ĠM aced
est ones
ĠY OU
Ġgen res
Ġexp ands
ert ation
Ġret in
reg ulated
IS E
Ġoptim ized
Ġoptim istic
ĠId aho
Ġdownload ed
Ġtick ets
Ġsubsc ribe
Ġtoothp aste
i ya
Ġ _
Ġ ÏĦ
Ġc asc
or f
Ġy arn
Ġ1 16
ĠL ad
Ġgen ocide
Ġob struction
Ġfl ames
Ġenhance ment
ĠProper ty
names e
Ġrecru ited
ĠNurs ing
ourge ois
B io
S elf
n ik
v ier
he id
Ġin oc
Ġto ps
ic iary
id uous
ra z
ĠM ang
Ġreg imen
Ġpur ification
ĠSh i
Ġfore front
Ġfoot age
Ġcentral ized
Read ing
ĠEqu atorial
lu ent
ĠOl iver
Ag ain
rell a
B er
Ġt ones
he w
ĠW at
ĠE agle
ell i
âĢĿ :
ue z
Ġup grade
Ġdec oration
ĠAr g
ah u
ĠCl ose
Ġnon etheless
Ġsens it
aur us
Ġtor que
Ġmira cul
ĠPartners hip
ĠPrad esh
< /
b ig
p g
Â ´
al ia
ĠC rom
Ġ1 11
ĠR is
ĠV as
Ġac upuncture
ĠHe in
Ġhigh ways
Ġopt ional
Ġnational ism
ĠPre vious
iar ism
Ġmouth s
Ġtou ches
lav ed
Ġfant asy
obacter ia
Ġpriorit ize
Ġmicrobi ome
M T
g reat
á ½
Ġw art
ur ia
Ġde lete
ĠR ate
Ġse ab
ĠTh y
Ġunder gone
Ġmark ings
Ġheav ens
Ġisol ates
Ġelimin ates
Ġgall on
ĠFac ulty
Ġrhet oric
Jes us
P ut
R ight
l iving
Ġa rous
Ġf res
ent ry
ĠH omer
ĠG R
Ġ18 12
Ġhand writing
Ġwar rior
Ġmut ually
ĠÃ ¢
Ġaw ake
Ġpra irie
Ġshad ows
Ġvibr ations
Ġcarcin oma
H ER
t ec
Ġt ribut
Ġa fore
Ġs oc
Ġf ins
Ġon ions
Ġpro se
Ġgo ats
Ġequ itable
par ation
Ġmar riages
Ġfil tering
ask et
Ġfat alities
Ġdiagn oses
ĠFl ash
Ġexpect s
Ġhon ored
Ġgarden ers
Ġmort gage
ĠTre nds
Ġverte bra
Ġbeet le
ĠLiver pool
in ars
an cer
ĠS r
ĠB ak
Ġcan ned
Ġr im
ĠN ut
Ġsy nd
Ġsc oring
Ġsupp ressed
Ġlong itudinal
ĠRes istance
12 5
Ġmass age
Ġsal aries
Ġconduct or
Ã© e
Ġaff air
Ġreflect ions
mat ical
ĠExpl orer
ĠWhere as
ĠPot ential
Ġnom inal
Hel p
Ġtransist or
Ġnanop articles
Ġsuperf icial
Ġfilt ration
ur ations
Ġon c
ĠR ou
ĠR ES
ast rous
own er
ash a
az y
Ġsens ations
fact ory
Ġattract ions
Ġhair s
Ġgrand mother
Ġshel ters
Ġretail ers
ĠJob s
Ġstrand s
Jew ish
P arents
W ild
Ġs age
ĠT rent
im et
ur ry
ĠC ant
ess ment
Ġpres idency
Ġcaus al
AR D
Ġcool ed
ĠInst ru
Ġhomes chool
ĠEv ans
ĠInf ection
ĠExper imental
ĠAltern ative
Ġcompuls ory
M ary
S er
l on
Ñ ĥ
Ġp ause
Ġl os
ĠI gn
Ġal beit
ĠM W
ĠW oman
ĠK az
Ġ18 48
ĠAl m
ty m
af ety
ĠLe o
ĠHealth care
aff e
Ġreprodu ced
sor iasis
Ġubiqu itous
Ġplaus ible
T ext
t z
u ador
Ġp df
Ġm osaic
Ġl iable
ĠM aps
Ġwe ighed
ĠN ak
Ġtra cing
Ġret aining
Ġlo vers
14 0
Ġpersonal ities
ĠComp uting
ino ids
Ġing en
Ġabsor bing
Ġexplore rs
Con f
Ġremote ly
ĠEsp ecially
m eter
Ġh iring
et e
Ġwe ird
Ġle tt
ĠG row
ĠG roups
ĠSt rait
ph ony
Ġmarket place
ĠBo e
ael ic
Ġinhib itor
Ġsevent y
ĠHem isphere
neg ie
Ġirre versible
Ġsafegu ard
Ġsau ce
I AL
c igare
e ight
Ġf ancy
Ġm oth
ĠM AT
Ġde ity
ĠL amb
ĠV oc
Ġro ds
Ġpo orest
10 5
line ar
Ġ17 0
work ers
Ġbegin nings
Ġreb els
Ġvalid ate
ĠSupp ly
Ġfacilit ating
Ġcoc oa
Ġexcav ations
ĠIsa iah
ĠCond itions
Ġimprison ed
ĠLaur a
w ild
Ġt am
ĠM ul
Ġhe mp
ĠN ames
ĠL ane
Ġtyp ing
Ġche er
Ġtest osterone
ION S
Ġ189 8
Ġanthrop ogenic
Ġpert aining
otyp ing
Ġphotosynt hesis
Ġindef in
P age
b ands
Ġh ips
Ġst en
ĠB our
Ġv iability
os it
Ġen riched
Ġsp acing
Ġj unk
Ġev id
Ġpe ppers
ert iary
ĠAl g
Ġlow ers
ĠAd obe
Ġexerc ised
AR E
Ġtoler ant
Ġproceed ed
Ġisot ope
Afric an
Ġail ments
egrad able
p aper
Ġb ic
am orph
ĠN athan
Ġk iss
Ġob l
Ġgener a
ps is
Ġread iness
stand ard
10 1
ĠWh ole
Ġmult id
ĠMed al
Ġir res
ĠApp roximately
Ġdeb ated
Ġquant ify
Ġcontext ual
Ġdesp air
with out
Ġvot er
ĠExper t
Ġgast ric
ĠTre asury
ĠGr iff
Ġweigh s
Ġcoat ings
ĠRap id
mid t
count ry
st ore
ur gy
Ġ1 13
Ġcl o
Ġhum or
Ġdef ended
br ids
Ġcomput ation
Ġcollect s
ĠPe ak
ĠArch ive
Pl ant
Ġyield ed
Ġbless ings
Ġinequ alities
Ġgest ures
Ġlandf ills
Ġargu ably
E W
j ug
in vasive
Ġw it
Ġb ree
ĠA ffect
ĠS hip
ĠC B
ĠC AD
ĠF ib
iz a
ĠK ur
Ġtra ded
Ġadd itions
Ġdep icting
Ġbr an
Ġ10 2
ĠPl aces
be fore
ĠUS D
__ _
ĠTechn iques
Ġmo ons
ĠStan ley
ighth ouse
Ġmart ial
ĠConstant in
aunt ing
Ġantiqu ity
ĠPitts burgh
T aking
Å Ł
Ġ 00
Ġc eliac
ĠS ites
Ġst air
Ġst yl
Ġ1 18
ĠB reat
Ġsh oe
Ġdis astrous
Ġ- >
Ġtrans itions
Ġmod eration
Ġcred ibility
Ġbattle field
Ġsed entary
Ġpreced ed
ĠQur an
Ã± o
ĠVo ice
Ġdischar ged
A rab
R oman
p rom
w ould
Ð »
Ġa esthet
is se
Ġbe ats
Ġan arch
Ġit er
ĠR ico
ĠG ay
Ġ10 3
Ġ. ||
Ġreal izing
Ġcrit ique
Ġpow d
Ġconstruct ive
Ġqual ifications
ĠWeb ster
Rec ently
Ġparas itic
Ġsummar ized
ĠRest oration
Ġchamp ion
ĠBened ict
I OS
Ġb ury
Ġb atch
ĠS olid
ĠM ix
us a
iv ist
ĠW ays
ĠN ad
ip el
Ġup grad
ody n
Th omas
Ġend ocrine
Ġrece ipt
Ġsuper natural
Ġrev olt
Ġslow s
IC S
ĠHor iz
Ġmush room
Ġlad ies
Ġunch anged
Ġfortun ate
Ġevap oration
C all
L ocal
N ame
S il
g rams
n ell
É Ļ
Ï ħ
Ġc ores
Ġp acks
ir l
ĠC arm
âĢĿ ;
âĢĿ ?
Ġgu inea
Ġhar bour
Ġpregn ancies
met ics
stitution al
Ġscript s
worth y
develop ment
ĠTurn er
ĠDomin ican
Ġthunder storm
Ġsuspic ion
Ġenerget ic
M ass
V ER
w ig
an ed
Ġse arched
ĠG ill
Ġwor ries
Ġj ealous
ĠCh anging
Ġrep aired
ract ice
Ġinfl amed
Ġpost ing
Ġasse mble
Ġsan it
ĠMorm on
L Y
M o
Ġ ____
in qu
ĠE ra
Ġch imp
Ġr ipe
ĠL inks
Ġsh aking
Ġcomp elled
Ġhel pless
Ġgra ding
Ġend ors
Ġcle arer
Ġcho oses
Ġabs urd
sh ould
ĠBr us
ĠAnt iqu
Ġconstit uted
Ġassist ing
ĠProgram ming
Ġfib res
Ġboost ing
Ġfulf illing
Ġvig or
Ġcompos itions
ĠPubl ishers
B uilding
F ar
S pe
Ġ Ä
Ġp ores
an mar
om i
et us
th ose
ĠG ross
Ġsh y
ĠSt ream
Ġdes erves
Ġcar ot
Ġca red
Ġmon ster
ĠPro c
ĠAn al
Ġbr ide
Ġdev il
Ġobserv ational
Ġmount ing
ĠUs er
Ġmill ig
ĠEc osystem
ĠCreat or
Ġpione ering
Ġjurisd ictions
Ġpupp y
Ġvend ors
Ġdub bed
Ġmaneu ver
ĠLeban on
M ENT
W ant
Ġm apped
ĠC V
if ted
ĠW iley
ĠN ine
Ġsub m
Ġprog nosis
Ġec zema
Ġmethod ologies
Ġsince re
ina i
Ġspecific ity
Ġacid ity
ĠTw enty
Ġbed room
ĠMil ky
Ġprison er
inf ected
Ġforecast ing
ĠColon ial
Mat thew
ĠVeter inary
ĠCoal ition
b uild
an ian
ar cer
Ġre charge
ĠC SS
ĠH at
iv ial
un ctions
ĠN HS
pl ication
Ġind ispens
Ġsur name
Ġinv ari
ĠDr inking
Ġdest iny
Ġmort ar
Bl ue
Ġtoile ts
Ġbind s
ĠArm strong
arb ons
Ġpedest rian
S ax
f eld
t ailed
Ġ ðŁ
he art
Ġth rew
Ġbe ast
Ġst ip
Ġst ark
um ar
ĠF inding
ĠL ives
iz ards
ap at
ber y
ĠUn less
Ġcar pet
Ġ10 9
Ġoper a
ĠZ o
ĠBrit ann
Ch inese
Ġmor b
Ġbar ley
Ġhyd rated
ĠEd wards
ĠFin ance
Ġdoub ts
Ġspl end
Ind ian
urd y
Ġhop eless
Ġsor ry
Ġenroll ment
A p
E qu
d al
Ġp aved
ab e
ĠW ere
rou t
ag in
Ġhad n
Ġadd itive
Ġinter sect
Ġday time
Ġdr astic
Ġlo ops
Ġmult imedia
Ch ild
asc ar
Ġpoll uted
ĠMon itor
Ġswe ep
Ġdiss olve
ĠIncre ase
Ġsew er
Ġevac uation
Ġbapt ism
Ġmitochond rial
ĠBrist ol
c it
Ġd yes
ra h
ĠM is
ĠW el
Ġch icks
ĠIn sect
ru its
are a
Ġtem plates
Ġlog istics
ĠInt rodu
ĠReg ulation
ĠDis p
Ġadvoc ated
ĠEss ays
Ġfost ering
W rite
en za
le tt
Ġh ose
Ġg inger
ĠA TP
ĠThe rap
ĠR yan
Ġ2 20
âĢĿ âĢĶ
Ġcomp ass
so lete
Ġsc av
ĠK aren
Ġem ploys
Ġdifferent iated
Ġbo iled
Ġclass mates
Ġele gans
Ġchem ically
Al ong
hel m
ĠLevel s
mans hip
atern ity
accept able
ophage al
ĠVenezuel a
ĠYug oslav
odyn amic
r ud
il iary
Ġl end
Ġl amin
if ts
Ġcan s
ĠF REE
ĠG othic
Ġcl an
Ġcl ocks
Ġag ar
Ġdec ree
Ġins ist
Ġhead er
Ġvir gin
fact s
umb ling
Ġinvestig ator
Ġclin ically
Ġcand les
ĠNor se
ĠCare er
ĠStat istical
ĠCy cle
ĠLat ino
bul lying
B est
M ad
Ġh ood
Ġn ar
ad al
op ot
iz za
Ġvis c
Ġcontin uation
me al
ĠBe hind
Ġrain y
ĠDis abilities
Ġbra ces
Ġ190 3
Ġthick er
cript ions
ĠHall ow
Ġeru ptions
Ġsug ary
ĠHom o
Ġbasket ball
Ġpeas ants
P resent
Q U
p arent
ĠI F
Ġas ylum
ĠW ear
ĠR ol
Ġres ume
Ġrec alls
Ġover see
ll or
Ġpo etic
ins p
ĠNew castle
ĠCan aan
Ġbi ased
Ġfil tered
AR C
Ġcompar atively
Ġlisten ers
En ergy
ĠAdd ress
Ġalter ations
di agn
ĠInteg rated
Ġnort heastern
ĠRequ ire
Ġimprison ment
ĠRon ald
Ġdolph ins
Ġ !
Ġp ent
Ġl ane
ĠP ine
ĠB us
ĠF itz
ĠG ary
Ġover he
ĠV atic
Ġ3 000
Ġsun set
Pro ject
Ġ190 2
ophy ll
ĠFre em
ĠTem perature
riz es
Ġampl itude
izz es
I SA
d ad
ro ved
Ġch airs
Ġpl un
Ġup hold
Ġsk i
oot ing
ĠMon te
Ġimag inary
bl ue
ĠUN C
Ġban anas
Ġpig e
ĠMil an
Ind eed
Ġtrad em
cel ain
top l
ĠDou ble
Ġcul inary
ĠFil ip
Ġirre levant
w rite
Ġa ux
Ġb ilingual
ĠT ul
Ġst y
ĠC ob
ĠL ung
Ġup stream
Ġpr uning
Ġtrans ient
Ġdep ict
Ġorder ing
Ġview point
Ġever green
ĠInc orpor
Ġconflic ting
ĠTrans fer
ĠSur ve
ĠAtt orney
Ġteen ager
Ġcab bage
Ġmemor able
ĠOrig inally
à¥ į
D iff
F ire
b ably
f olk
il ian
et z
ĠP O
Ġ1 17
oc on
ĠR T
Ġsp ouse
ivid ed
Ġret ro
ĠEx odus
Ġshort ness
Ġhold er
ĠDo ctors
ĠRoman ian
ĠMedic are
Ġmer ged
Ġflood ed
Ġ189 6
ĠNeed s
ĠWW II
hol m
ĠSic ily
ĠHV AC
A lex
B ro
n m
Î º
Ġa uction
ut ory
ĠS olution
ab sor
art a
Ġsh ingles
ĠK night
Ġra cing
Ġref res
Ġ10 4
up us
ĠDe an
Ġtre asures
Ġfin ances
Ġcancer ous
iment ary
ĠCo hen
Ġcred ible
Ġice berg
Ġheight ened
Ġinsert ion
ĠHum ans
Ġdistract ions
Ġrefriger ator
ĠOccup ational
Ġb ilateral
Ġb ourgeois
ar in
ĠC u
ul ators
Ġcom ic
ĠJ A
Ġar id
ack ing
ety l
ĠInd ies
ĠUS S
Ġsex es
Ġpsych o
ĠRead er
Ġcontract ors
Ph ysical
Sh ould
Ġcompl ain
Ġlifest yles
ĠMad rid
Ġadvis ory
ĠWars aw
ĠWebs ite
B orn
E r
I ll
M ax
T ips
U B
W ritten
Ġo ath
iv itis
Ġcan cell
oss ibly
Ġatt ent
Ġcoll ar
Ġrepl en
Ġste pped
Ġfa ulty
ĠAc cept
ĠHer bert
EN CE
Ġutil izes
ĠPower Point
ĠRad iation
Ġteen age
ĠLess ons
ĠGr ass
ĠRand om
ĠFem ale
ĠInfect ious
ĠVin cent
Ġunderw ent
es ian
Ġf are
ĠB erg
ĠB omb
em p
ĠW isdom
ĠN SA
ag les
Ġk er
Ġam ateur
Ġco aches
Ġmult if
ĠPres by
Ġprogress ively
Ġbeautiful ly
ĠViet namese
Ġfisher y
Ġmini ature
ĠON E
ĠPharm ac
ĠBrother s
ĠKrish na
Ġcaval ry
) /
. âĢĶ
> >
s ay
ĠS low
us k
Ġha em
um my
rom eter
ĠR ural
ĠG aelic
ag os
Ġun expl
ail ability
ĠCh ick
Ġref usal
Ġent ails
Ġtend ons
Ġ24 0
ĠKe vin
Ġcoast line
ĠKeep ing
Ġexception ally
Ġrecover ing
Ġcosm etic
Ġhack ers
Ġcondem n
ĠFuk ushima
G ra
Ġd ining
Ġl ays
st en
ith s
ard i
ĠJ ain
Ġad jective
ie u
als y
Ġpast oral
Ġcoll isions
ĠHel en
Ġpump kin
Ġsupplement al
Ġuns ure
ĠAny one
Ġtorn adoes
Ġgate way
Ġacou stic
Rober t
) âĢĶ
C ap
R F
d istance
k t
Ġp ant
Ġp its
ic illin
Ġre usable
Ġst amps
ĠC ad
ĠH ond
iv able
ĠR av
Ġus able
Ġreg ain
Ġexp ans
Ġafter ward
Ġdet ention
Ġunderstand able
ann on
ĠCo ch
Ġlog o
Ġstar vation
Ġdu cts
Ġdys lexia
greg ated
Ġdimin ish
author ized
Ġcyt ok
icul ous
Ġreferen ced
M edic
P rop
t alk
as uring
ĠB ath
Ġpl umbing
Ġdis ks
Ġcl og
ĠV PN
tern ally
Ġfl aws
Ġhum il
Ġsl ice
Ġhead lines
ĠDo ing
ĠInt el
Ġsn aps
ĠEc uador
Ġattract ing
Ġlic ensing
Ġpump ed
ĠTer ms
ĠReview s
ĠDiff icult
Ġpill ar
ĠLi u
Ġblank et
ĠNG Os
Ġisot opes
utri ent
ĠStew art
Ġc ob
Ġw ipe
Ġm u
th ouse
ĠE lements
Ġle ase
ib ular
ish n
sw ick
AN T
IT H
Su per
inf ection
ĠDrug s
Ġsatisfact ory
Ġlact ose
Ġretrie ve
ĠCamb odia
ĠConstantin ople
C a
P rodu
P sych
Ġp unch
ed ical
as so
Ġst ained
Ġsp or
ĠIn form
iss ors
Ġsk ies
Ġvol t
An n
ĠCo ff
Ġmis use
Ġfib ro
Ġgar ment
Ġneighb ouring
Ġaccomplish ments
Ġanat om
S olar
a vers
id ian
el ia
ĠB ert
Ġse psis
ĠJ ar
Ġelect roc
Ġland owners
ĠCon duct
Ġimpact ing
Ġ17 76
Ġ16 00
Ġmot ives
Ġsun shine
Ġsent enced
ĠMark eting
ĠTur ks
Pl ace
ĠUp dated
Ġveter an
Ġdisrupt ed
ĠStart ing
C ertain
D ou
N OT
U r
W riting
z ero
on ial
ĠS ul
ĠM ills
op athic
ĠF al
ĠTh ai
Ġgo at
Ġant ip
ograph ically
app er
min ster
ĠCar negie
Ġdoct r
ĠDec ision
Te ch
Ġsulf ate
ĠIb id
Ġnurt ure
Ġincons istent
G erm
H L
on ts
ĠT rad
ĠC rypt
âĢĻ )
iv ating
ĠL ion
ĠL ands
Ġcl ips
au coma
Ġar rays
Ġqu eries
ĠCh in
Ġrep ent
Ġsm ugg
Ġpresent ly
Ġdon ate
Ġopen ings
Ġcr ashes
Ġprob es
Ġcollect or
Al tern
uth ors
Ġconnect ive
ey e
ĠCommission er
ĠForm ation
Ġbiom edical
Ġceremon ial
Ġherb icides
Ġunderm ine
ĠPhoen ix
pend icular
ĠC ats
ĠR aw
ĠR AM
Ġpre natal
ob i
Ġ10 7
ĠAct ually
Ġsequ est
Ġking doms
ĠEv ents
Ġchief ly
Ġfold ed
ĠSing le
opot am
Ġm arched
ĠD aw
Ġch alk
ib ern
Ġcons on
Ġide ally
Ġcrit erion
Ġpath ogenic
Ġcra b
Ġadapt ing
Ġrestrict ive
ĠPM C
Ġexch anged
ĠLl oyd
j ournal
Ġst eroids
op al
os omes
Ġro ver
we h
19 88
|| $
ĠSe ason
amm ed
Ġcust ody
ĠGra ce
Ġdeleg ates
keep ers
Ġundes irable
B rown
Ġs erm
is ch
Ġb rit
ĠT ak
id ated
ĠN ancy
ĠL is
iss ible
Ġdisc retion
Ġgra phe
.. ."
ger ies
Ġwar ns
Ġmen opause
Ġens laved
yl ene
ĠRec ogn
Ġdisp ose
ĠConf lict
Ġign oring
Ġcircum ference
requ ently
Ġspray ing
Ġsummar ize
Ġconfront ed
Mus ic
Ġlig aments
Ġconsp iracy
iothe rapy
Ġinacc urate
d est
Ġ ________
or um
al one
Ġl ending
im an
id ine
ĠC up
Ġman ners
ĠCh ance
Ġend omet
Ġmeas urable
Ġcollect ors
ĠAb bey
Ġswe ating
Ġsolid arity
Ġlic enses
ĠFe el
ocy te
Ġassert ion
ĠBehavior al
Ġaston ishing
Ġdiaphrag m
d esc
p osition
re search
Ġin efficient
ro ots
ĠC od
ĠThe ore
ĠG arc
ost asis
ĠO ptions
ĠIn come
Ġtra des
gen eral
ner g
Ġinvest or
ĠOb viously
ĠOld er
Ġpun ished
inn itus
cons uming
ĠDen ver
Ġanthrop ology
Ġorn amental
whe el
Desc ription
M en
a q
Ġf ines
Ġf ights
Ġd ucks
im portant
ay as
em ade
ĠR ing
ĠIn n
ĠCh a
Ġno ises
Ġdisc s
Th ird
Ġstr anger
Ġgroup ing
Ġcop ying
bal anced
ĠRel ief
Ġunw illing
Ġbrows ers
thod ont
Ġbeat en
Cal ifornia
Ġrighteous ness
Ġreconcil iation
M el
Ġt ric
Ġo val
Ġg out
Ġse wing
ĠO g
ass y
ĠK l
rit es
iqu id
ĠComm ander
sw orth
iol ent
ĠLe one
ĠMat ter
Ġsort ing
Ġparam ount
ĠForm at
Ġshock ed
Ġsport ing
Ġorb iting
Ġpione ers
ĠHab itat
ĠInit ially
Similar ly
P rim
b us
h art
w oman
Ġa ided
Ġw aking
ic able
st ed
ĠT CP
ĠT odd
ĠS or
rom yal
ĠN IH
ph ase
Ġ10 8
ung al
Ġself ish
ĠEm ily
ĠPe oples
Ġtransport ing
ĠMy th
ĠLand scape
ĠMath s
Ġdegrad ed
ĠHim self
Ġindispens able
r ising
s kin
it ted
Ġin ward
ou x
Ġh inder
om at
Ġv ines
em er
Ġsc ream
ang led
ĠEx am
Ġfour teen
Ġsing er
Ġbegin ners
Ġsam pled
Ġpoll inators
ĠApp endix
ĠKe ys
osaur us
Ġunem ployed
ĠDom estic
Ben efits
Ġvow el
rosc opy
Ġcentr if
Ġscrut iny
or ate
Ġan ecd
ĠL ak
ok i
Ġsol vent
ĠCl are
app le
uck ily
ĠEm ma
Ġhar b
Ġautom obiles
Ġmid night
bl ind
ĠInter view
Ġtrig lycer
Ġconver ter
comm on
Ġexceed ing
Ġfisher men
ĠImport ance
ĠJen kins
Ġlaund ry
romyal gia
L ocation
l ance
à ª
in ant
al ms
Ġn ap
ĠThe atre
ĠF ruit
ast ical
ous ands
ract ed
Ġdisc ol
Ġdra ined
Ġconcent rating
Ġcapac itor
Ġing ested
Ġcook ie
Ġcand le
Ġmel ted
ĠSam ple
Ġcontem por
ĠPers ons
ĠExpl ore
ĠFA O
cler osis
C ES
b oy
s it
Ù Ĳ
re ase
Ġo ats
it ian
ĠD M
un al
ĠL it
Ġinc arcer
Ġout we
ll a
Ġany time
Ġins criptions
ĠRe ason
Ġhard est
Ġver t
yr us
AC K
Ġsett ling
Ġpoly mers
Americ a
Ġsymp athy
ĠValent ine
L eg
f ired
g roups
Ġs ores
âĢ ŀ
ĠS omething
ĠC oc
ĠM unicip
ĠP olar
Ġde gener
ag ascar
Ġall ied
ĠIn g
Ġar ithmetic
Ġrel ativity
Ġcent imeters
20 21
Ġgl orious
Ġmet aph
Ġben z
be ans
Ġred ness
Ġver tically
ĠMe an
Ġap olog
resp ond
part icularly
Ġstream ing
Ġarm or
ca using
ĠWell s
Ġfold ing
Ġjudge ment
Ġdisrupt ive
enh agen
ĠTob acco
w ald
w ashing
Ġt ails
in ia
Ġs ab
Ġc ott
il itary
ve ment
ĠS ustainability
ĠB ring
ĠH orm
em ail
ĠF ill
Ġsp arse
Ġab uses
ĠO v
Ġk not
Ġreg imes
ĠHe avy
Ġexpl or
ĠPl astic
Ġens ured
Ġdest inations
ĠMy anmar
Ġban ana
Te chnology
Ġconfig urations
Ġsimult aneous
Ġlapt ops
ĠDiagn osis
report ed
G C
b ies
Ã Ĥ
Ġf ried
Ġh ort
st ates
iz arre
Ġsc ared
Ġgen omes
Ġinter course
Ġfound ers
cent ral
19 70
ĠAr duino
az i
Ġcy sts
Ġscreen ed
Ġvalid ated
umber land
flow ers
Ġrab ies
enz ie
Ġinverte brates
E ast
c ross
Ġ \
in ational
ol ate
ĠS ter
Ġsu ite
ens en
Ġinf ertility
Ġover flow
Ġrep ay
Ġph yt
Ġest eem
ĠRe hab
ĠSh ar
Ġsw amp
Ġcomput ed
St at
Ġopt ic
Ġbar n
ĠInst ruct
Ġgrass lands
tes y
lar ge
Ġsimpl ify
Ġblow n
Ġtack ling
Ġsad ness
Ġbell s
Ġreven ge
Ġtutor ials
ĠLGBT Q
Ġphotovolta ic
F ull
R om
c ro
ct oral
ĠC otton
os ocial
ew orthy
Ġam p
Ġshow c
Ġconf use
icult ure
Ġwood land
Ġphysic ists
Ġrenew ables
Ġvast ly
Ġdistingu ishing
Ġmanip ulated
Ġtheore m
Med ical
Ġadvis or
Ġumb rella
Ġcroc od
Ġsoc cer
ĠVatic an
B s
G L
R NAs
T om
ĠT ong
et a
ĠH erald
pl astic
pl asia
ry lic
Ġhel m
Ġdisc ourage
19 89
Ġ7 50
ĠAd ding
Ġrad ically
Ġste pping
Ġattack er
Ġsouth western
Ġmig rated
Ab stract
Ġregul ator
ellect ual
Ġneur on
ĠMethod ist
Ġinn oc
Ġsuperior ity
Ġabol ished
Ġlig ament
Expl ore
l at
l ag
Ġa kin
or ian
Ġ( -
th ren
ĠP ink
ĠP overty
Ġv icious
Ġr ally
Ġinter cept
ody nam
Ġthreat ens
Ġharm onic
Ġhor r
ĠUs ers
Ġmiss iles
AM A
Ġneighb ours
ĠRh ode
ĠCru z
ĠFif th
ĠJama ica
Ġarter ial
ĠHallow een
H ead
V er
h aw
m ach
re viewed
Ġc ache
Ġb ishops
im ming
Ġ1 19
ĠH ugh
ĠD L
ĠF ab
ĠF ailure
Ġmon k
ĠRe in
Ġpast a
Ġgeneral ized
Ġknowledge able
unt ary
Ġhold ers
Ġpsych iat
Ġmagn ets
ĠSch olars
Ġworth while
Ġdivid es
Ġappe als
Ġboost er
Ġimpair ments
Ġprosper ous
ĠWin ston
Bas ic
ĠPhill ips
Ġexting u
Ġmillig rams
L ittle
s ch
re v
Ġs ar
Ġm alf
ĠS ew
ĠF ell
ĠO ste
ear th
ĠSt orage
ub es
int endent
urn ed
Ġsocial ism
Ġbas il
Ġprogram mers
Ġhapp ier
Ġmodel ed
Ġindic ative
Ġtar iff
ĠPer ry
ĠPsych iatry
Ġinhib ition
Ġoblig ed
Ġsup rem
Ġsculpt ures
prot ected
clin ical
F amily
om o
Ġst ern
ĠW elfare
ĠG W
Ġen cephal
ĠJ ess
Ġtra y
eed s
Ġter ra
Ġline age
Ġred irect
Ġcomplex es
Ġcat heter
ĠReg ulations
Ġpp m
atin um
ĠSub ject
Bl ood
Ġpra ised
Ġsubsc ription
Ġconve ction
ryst al
C ong
M RI
T est
Ġt art
re nd
Ġp end
le af
Ġl ac
ĠT C
ĠS weet
Ġv ap
ĠF ROM
Ġse ated
Ġev angel
Ġunder p
lect ive
Ġob solete
Ġmet rics
Ġeconom ist
Ġorigin ating
Ġcoun cils
OR Y
Ġfair y
Ġtransfer ring
ĠDem ocracy
Ġrational e
Ġpersu ade
Ġfemin ine
Ġric hest
ĠChap el
Ġgi ants
B P
F OR
V s
at ched
ch at
ĠB il
res a
ĠH undred
ke eper
ĠSt ars
lic ation
ark er
Ġpres erv
Ġsol itary
Ġclass ify
be k
Ġtend encies
ĠPres ervation
ĠEd mund
Ġi Phone
Ġsurround s
Ġbuy er
rolog ic
spec ial
Ġquot ation
Ġaug mented
Ġbon us
Vis it
ĠBrun swick
engine ering
E PA
G ive
Ġh ive
Ġh ats
st atic
id y
Ġst ing
od ic
Ġ1 14
Ġsp ans
Ġdist ortion
Ġdist orted
Ġcor pus
Ġactiv ism
Ġbel ts
10 38
Ġoccur rences
ĠGu y
eb ook
ON E
Ġgar ments
Ġgly c
Ġcer amics
Japan ese
h ov
m icro
Ġf ills
Ġin organic
Ġl am
Ġal k
ĠB A
ĠB elt
ĠF ellow
un ity
ĠG az
Ġup side
Ġpers ists
Ġ10 6
Ġcommit ting
Ġmut ant
Im p
Ġadvoc ating
Ġstick ing
ĠRog ers
F ive
c ur
l ich
t hens
Ġt ect
Ġo z
ĠY u
Ġmod ifying
Ġ18 20
Ġbr ig
Ġreal ised
Ġauthor itative
Ġwr ink
16 8
Ġglobal ization
Ġprogress ed
uk a
Ġcommunic ated
Ġhon ors
Ġvill agers
ĠMac beth
Pl an
Ġplate au
Ġhero ic
ĠMu gh
Ġuter ine
Ġorn ament
ĠPH P
Ġmitochond ria
Ġscler osis
Ġteasp oon
R o
Ġf ructose
ar ist
Ġfor k
ĠC CS
Ġse pt
so ever
Ġwork flow
lud ge
Ġtw isted
Ġexp elled
Ġfl are
Ġloc ks
Ġaut istic
Ġhy brids
ĠComp ared
Ġfarm land
Ġbal d
ĠReg ist
ĠCoun sel
ĠWhe el
Ġ189 3
Ġsole mn
pert ure
Ġcatast rophe
Ġrecur ring
Ġenthusi asts
Ġinterven e
Ġmoder ately
Ġslic es
embr ance
Ġlett uce
P ers
Ġb ail
Ġ( âĢĺ
ĠP F
un ar
ĠN F
Ġres ent
Ġreg ret
ĠEx c
ĠPl uto
Ġhard ness
aps es
Ġsix teen
Ġmusic ian
Ex ercise
Ġ186 8
Ġbear ings
Ġexcav ated
ĠBron ze
ĠiP ad
Ġhypot hetical
B ur
c ool
l antic
Ä ĥ
en cer
Ġp ens
Ġst alk
ort ex
Ġgo ose
Ġover dose
Ġrep rint
ĠUn its
Ġtop ography
Ġdel ta
ĠCont ract
Ġorigin ates
ĠPresident ial
Ġemphas izing
Ġgrass land
Ġrid ges
Rec omm
Ġirrig ated
Ġdisadvant aged
Ġassass ination
ĠPier re
Ġphil anthrop
Ġaddict ive
A round
M a
Ġt el
er able
Ġc ue
it he
Ġth romb
ĠT aj
Ġare na
Ġit chy
ĠM ons
ĠP ull
Ġcl ots
Ġph ishing
Ġins ult
Ġstate wide
ĠCon versely
Ġsw ine
Ġfil ament
ĠGo ing
ĠIm aging
Ġreact s
Ġviol in
ĠEd it
Ġvacc inations
Ġdiss ip
Ġdiss olution
Ġneut r
Ġneuro science
Ġpharm acy
Ġ185 1
ĠJul ius
Ġshore line
ĠBeg inning
Ġtermin als
Ġdedu ct
ĠPoll ution
pop ulation
ĠHun ter
Ġepithel ial
Ġcurric ula
f light
al is
Ġf lick
se ason
ĠS omal
ĠH amm
oc ese
ĠL ost
ĠL ords
Ġen for
Ġsc andal
ĠK ub
ĠY an
Ġexp orted
oun ces
osp heric
idd ing
isc her
11 11
Ġz ebra
ĠX V
Ġcra vings
Ġcru ise
Ġattract s
Ġforeign ers
Ġtal ented
ograp hers
Ġpubl ishers
Ġarom atic
Ġpropri etary
Ġremn ants
G F
e ach
in ians
Ġo st
Ġf eces
ro ot
ver bal
ĠB O
ĠW orth
ĠG rey
Ġsp awn
Ġsp ikes
so le
Ġpre requ
Ġover sight
Ġco operate
Ġref using
Ġviol ated
IN D
Ġdepend ency
Ġing estion
ĠRen ewable
Ġly rics
Ġadhes ive
C reating
Ġc rick
ĠH C
ĠF R
ĠL ay
Ġper vasive
Ġpre aching
rit ic
In s
Ġplan ners
Ġthought ful
Ġsepar ates
essor i
Ġment or
ĠWorks hop
Ġcort ic
ĠIdent ification
Ġaffil iated
Ġdisin teg
fu els
ĠPray er
K ids
L at
P o
b lo
c d
Ġa we
is ans
ĠW E
ag ar
ĠO racle
Ġres ign
av oid
ber ger
ĠCh ang
ons ored
ĠY ose
Ġinv itation
19 86
ron ts
Ġstand point
Ġyoung sters
Ġinflu x
ann ers
sec ure
Ġgrand parents
Ġdent istry
Ġfabric ation
Ġlands l
bour g
Ġoste oarthritis
rust ed
ĠKy oto
Ġrheumat oid
H IV
k ar
on gh
Ġc ess
Ġd ash
et ra
am o
ĠM I
Ġhe ater
ĠF oster
Ġper pendicular
ire n
Ġpres idents
Ġcar bs
Ġinform ational
Ġequ ip
Ġret ros
St ar
16 0
oph ila
Ġport al
Ġlisten er
Ġ189 7
ĠCy cl
Ġsmell s
ĠSac rament
Ġignor ant
Ġcommemor ate
Ġfool ish
prising ly
Ġhelic opter
M B
t ain
Ë Ī
Ġd ock
le ad
ĠC ere
ĠC IA
ĠB one
ĠW ire
pp e
Ġch in
Ġk ale
Ġad orn
Ġun m
Ġqu o
int ensive
Ġac hes
Ġsub urban
Ġbas ins
ae us
Ġdead line
Ġpret end
Ġrenew al
Ġmamm alian
hand ed
Ġoverl apping
Ġtables p
Ġkin etic
ĠMalt ese
Ġmillenn ia
ĠHell en
Ġsubmer ged
Ġc ush
ent e
ĠS hen
Ġst ove
ĠC riminal
Ġres olutions
ĠâĢľ âĢ¦
19 85
ĠRe act
ĠÂ ½
Ġpack ing
ĠGl ac
ĠPublic ation
Go vernment
ĠAtt ribution
ĠEqu ipment
medi ated
Ġmic ron
ĠIdent ity
access ible
ĠVacc ine
Ġmathematic ian
Ġsquir rels
L ou
b ian
Ġp amph
Ġd ad
ur ized
ĠS inai
Ġcon greg
ĠAl pha
Ġcur rencies
Ġpur ified
ĠPl ain
af er
ape ake
unt ed
Ġcontact ed
Ġrev is
Ġcra cking
Ġprep ares
Ġrain water
Ġassist ants
ĠMet al
ĠJul ian
Ġaccommod ations
Ġfrust rating
Ġana erobic
ĠSex ual
ĠPresby ter
V ery
b eck
w aters
Ġ å
at on
ĠM ead
ĠF ear
Ġj aws
Ġun le
Ġhel ium
ĠAn xiety
Ġbenef ited
Ġhard y
Ġrecogn izable
Ġflu orescence
ĠPr incess
Ġut ens
ĠCo operative
Ġsil ica
Ġtri angular
Ġtri angles
Ġfair ness
ĠPat ient
Ġprepared ness
Ġimmun ization
Ġflav our
ocy t
ĠCop per
Ġwithd rawn
Ġtrigger ing
EE E
ĠOtt o
Ġmultipl ied
Ġdistribut ions
ĠChron icles
ĠBud get
C entral
H ouse
L im
b ly
c ock
Ġt asty
Ġc akes
Ġp ri
ĠR ut
Ġse aw
Ġim plicated
Ġdis gu
ĠV ik
int rodu
Ġ18 79
Ġser pent
Ġcult ured
Ġlist ened
Ġsuper vised
Ġcred entials
ĠFin nish
ĠJo in
Ġpredomin ant
Ġhes itate
Ġneighbour hood
/ -
b low
Ġthe at
es ame
Ġw iped
st ice
ĠT opic
Ġon wards
ĠB le
ĠH od
Ġv ain
Ġj ungle
ĠK in
Ġrep ell
Ġpat ented
Ġair ways
less ed
Ġpar ade
Ġpost p
Ġstress ors
Ġmach ining
Ġconc urrent
ĠJes se
ĠBar on
Be yond
Ġreb uilding
ĠBur ke
Ġimper fect
Ġcos metics
ĠTim othy
Ġprox y
ĠPL oS
Dep ending
Hen ry
B eg
S at
l ion
ro y
Ġn omin
Ġj elly
ph ot
onom ics
ank ing
Ġdeep est
Ġcompet itions
Ġple asing
Ġwood y
Ġpack aged
Ġfix ing
Ġphen otype
Ph ys
Ġsell s
ĠExpl oration
ĠWhe never
ĠMad agascar
ĠSab bath
M ill
c ertain
d iff
i u
Ã ¯
ĠT P
se ed
ay ed
ĠB od
ĠO ECD
ull ah
Ġjo ins
ĠBi om
Ġtrou bled
Ġaccompl ishment
ĠInf o
Ġmac ular
Ġgram matical
Ġprohib ition
Ġtransmit ting
ĠMong olia
ĠChall enges
ĠMun ich
ĠBuff alo
D oc
S l
f ishing
Ġt ant
Ġp iles
Ġp uff
Ġd y
ĠT A
ĠC inc
ĠB uch
ĠB alk
Ġat op
art ments
ĠL ip
ĠL ayer
ĠJ P
Ġright ly
ĠDe af
ĠQ ual
Ġlive ly
Al most
Ġaccept s
Ġfront al
Ġexplore r
Ġtrou t
Ġconsult ed
ĠFe atures
En ter
Ġnob ility
ugg ed
Ġcrack ed
Ġderiv ative
Ġgraphe ne
Ġp he
Ġp ushes
ic c
ra ising
ad vert
ĠM ob
ĠE rie
ĠG ov
Ġdra ins
Ġapplic ants
ER C
Ġswe eping
Ġdestro ys
ĠSur face
Ġball ot
Ġprefer ably
Ġamb iguous
gu ard
Ġresc ued
Ġpel vis
ĠCharl eston
Ġvag ina
Ġpatri arch
Ġinterrupt ed
Ġmiscon ceptions
Ġrif le
D raw
Ġw rest
ct urnal
ĠT ag
ad ows
ĠP ant
Ġsp oon
Ġ20 25
ss on
Ġbuild ers
Ġnational ity
Ġmicro phone
Ġur gency
ĠMod ule
asion ally
ĠCongress ional
Pre vious
ĠTar get
Di agn
ĠLanc et
Ġamphib ians
Ġdilem ma
Ġpancreat ic
ĠTas man
e ff
h arm
Ġo h
ar ine
Ġd aunting
ĠS Y
ĠM ining
Ġde ed
Ġsu icidal
res pect
um i
ĠH ERE
ĠL ex
ib an
Ġdis g
Ġout right
Ġcol orectal
In vest
Ġdef enses
Ġshow ers
ĠEx ped
ĠLe af
Ġsal ine
ĠEm otional
ĠCom ments
rec ogn
yd ia
ĠPlan ck
Ġimpl ication
Ġnav y
Ġadverse ly
Ġembra cing
ĠOtt awa
Ġloose ly
Ġsoy bean
othy roidism
Ġric her
ĠPs alm
Contin ue
C lin
L ater
P rior
c ards
o que
ent ric
ĠG un
ĠN arr
ost ics
Ġpe asant
Ġpr ud
ah an
Ġprogram mer
Ġenc oded
Ġbegin ner
Ġmot ive
Ġnational ist
Ġdom ination
Ġhyd ration
ĠAnt ib
ĠWood s
ĠMah ar
ĠCho ice
Ġtransc end
L aw
Ġo sm
Ġp add
om aly
Ġan onym
ĠM M
ĠH ost
ĠR ick
un it
Ġsp at
ĠO P
Ġcomp ose
Ġbl ues
Ġsub urbs
Ġsk ins
Ġdep ort
Ġ0 8
chie f
Ġanaly st
ĠInst agram
Ġmel ody
Ġhero in
Ġprofound ly
Ġsyll abus
ogene ity
Ġlawsu it
ĠBrus sels
D B
t ens
in ety
ot ism
ĠP ars
ag ain
ec a
Ġper cept
Ġass ists
Ġ18 82
ĠSp ot
ĠSc ar
Ġappro ve
ĠZ ero
ĠSm oking
Ġtou g
ĠHol mes
Ġneut ron
indu strial
Ġtow el
ĠBol ivia
conf idence
Ġmillenn ium
ĠPun jab
Ġrupt ure
W W
k an
k ward
n ature
w hy
Ã ®
Ġc ords
Ġb izarre
se ctions
us ers
ĠG ain
ĠJ ason
Ġper imeter
Ġsm arter
Ġtechn ician
Ġsol o
ien ced
Ġdirect ing
Ġcal ibr
Ġprofess ions
Ġheat ers
ĠCom merce
Ġgraph ical
Ġfort ress
Ġbread th
gu ided
Ġheaven ly
ĠRoc hester
ĠFunction al
ĠGalile o
Ġintermitt ent
Ġrefere nd
' )
T V
Ġt rench
in ates
Ġs ocket
Ġb un
Ġm ell
st ad
ĠS aints
Ġst urdy
ate red
ĠD J
Ġcl iff
Ġapp end
Ġag r
Ġno on
Ġam en
Ġcar riage
Ġprog ester
Ġprot on
Ġmust ard
man uel
Ġ12 8
ĠBl u
let ons
ĠAss istance
ĠRep eat
Ġlat ent
ĠGovern ments
ĠPark er
Ġabsor bs
Ġmer ge
alle l
ĠAS D
imm ers
ĠBal ance
ĠBat tery
Ġspont aneously
ĠHind us
Ġdisse mination
Ġenrich ment
ĠLen in
ĠAppalach ian
C ell
M ajor
M aster
t is
ĠB PA
ĠW ool
Ġdis ob
Ġimp over
Ġout dated
Ġcur se
rodu ctive
ĠBl ake
chan ical
Ġinteract s
ĠMus cle
Ġcontract or
Ġcelebr ates
struct ured
Can ada
ĠScot ia
Ġastronom er
Ġcann on
Ġmonument al
Ġintu ition
ĠIb n
Ġenthusi astic
Ġendeav or
ĠDeg ree
B usiness
T im
W ood
k ens
Î ·
Ġc uring
ac illus
ĠH i
ĠW ol
Ġr ider
Ġne phe
Ġun acceptable
Ġsc issors
Ġgra ft
Ġdep ressive
Ġpract ise
Ġiss uing
Ġclear ance
ump ing
Ġconduct ivity
abet ics
umb led
Ġdecl ares
Ġmer its
Ġstorm water
Ġaer ospace
Ġfold s
Ġ189 1
Ġdefend ant
Rep ort
Ġelectroly te
Ġmant le
Ġdecentral ized
Ġc innamon
Ġf el
Ġin act
ch ant
Ġal arms
ĠM all
ĠF lex
ĠG og
ĠN W
Ġworld view
Ġdist inctions
Ġdr ills
ipp ers
ĠLe ave
Ġcut tings
ĠAss ignment
IS H
ĠCor p
uk i
ĠMod els
ĠPers ia
Ġfer mented
Ġherb icide
Ġauthentic ity
Ġincorrect ly
Ġdialect s
ĠBrig ade
Ġaccred ited
Mich ael
M ur
m onds
in form
Ġp sy
ed es
Ġre de
ĠT ony
ig ens
op ed
Ġimp osing
Ġfore nsic
Ġkey words
Ġdiagn osing
ĠComp rehensive
Ġbra kes
Ġrid ers
ĠCop enhagen
Ġhonest y
ĠPV C
ĠVeter ans
ĠFle et
ĠMoroc co
Ġpilgrim age
Ġendors ed
Ġprogester one
F E
d n
e o
u er
Ġt an
Ġh ives
st at
ĠT urb
Ġst adium
ĠM asters
ĠB ond
ac id
ĠW OR
ĠE ff
ĠL ingu
ib a
ace a
Ġbl ended
Ġdes erts
ov o
Ġcar c
imes ter
10 8
fact ion
Ġstri pped
Ġeight een
Ġcompl ication
ĠArab ian
Ġmountain ous
ĠMult i
Ġdrag ons
Ġgest ure
ococc al
Public ation
pub lished
mun ition
K D
c am
y cling
at ization
ic ans
Ġd ire
ĠP P
Ġhe ars
ĠH appy
ĠD H
Ġle v
Ġsp elled
ĠV inc
ĠAn swers
Ġdise ased
ĠIs ab
ĠSe vere
Ġ-- -
mark ets
Ġconscious ly
ĠExt ra
Ġov aries
ĠIndones ian
ĠClear ly
Ġneon atal
p roduction
Ġb rowse
ĠS ense
Ġcan ine
oc ou
oc ations
ĠJ a
Ġcl ue
ok o
ok u
Ġdec iduous
Ġext ensions
Ġhand ic
Ġair ports
not es
Ġpoll ination
Ġnucle ot
ĠHar vey
Ġcalcul us
Ġfear ful
Is rael
Ġsched uling
Ġacknowled ges
Ġmonaster ies
% |
V C
r ill
Ġh urd
Ġat ten
Ġwas ps
Ġ2 30
ĠTh an
Ġinf amous
ĠK B
Ġrel iably
Ġno isy
ath on
ble ms
19 87
Ġdem ise
Ġimm ers
ĠCon vers
Ġstat istic
ĠGe or
ĠCO PD
Ġexpress ive
Ġbroad band
uk ary
Ġten ure
100 7
des igned
Ġpref ix
Ġdent ists
Not es
Ġbath ing
ĠPhilipp ine
Scient ific
ĠYellow stone
ĠOd ys
Ġsof ten
ĠBritann ica
v ents
en berg
il ize
ĠA rom
ĠS om
Ġex cel
Ġr ites
av or
Ġun real
Ġtra ction
Ġam ended
ĠRe velation
Ġdel ve
18 0
Ġsuper st
ĠÂ «
Ġappl iance
ĠAustral ians
Ġpref ers
ba um
Ġmanifest ed
Ġresemb ling
tem perature
Ġadvertise ments
Ġflaw ed
Ġmening itis
W estern
f if
n ament
p oll
Ġp g
Ġon ion
os omal
Ġch unks
ec ca
Ġall er
Ġdep ended
Ġopp ressed
ĠGod dess
oint ed
Ġgr as
umb ar
fl at
Ġâ Ĥ¬
Ġsem antic
Ġthin ner
ĠEnter prise
Ġquestionna ires
idel ity
Ġcaterpill ars
T M
W elcome
b ugs
l ater
u itary
Ġs orrow
Ġp soriasis
im o
id ase
ĠS aw
ver ted
Ġr ud
Ġsh rine
Ġsp ines
ĠV ic
Ġra id
Ġnew est
ef it
Ġfam ously
Ġplan k
ĠRes olution
Ġsuper market
ĠSch w
Ġdecl aring
ĠInc ludes
Ġemp owered
CO S
ĠMill enn
ĠBack ground
ĠImpro ved
Ġmorph ological
Pat ients
ĠWorkshe et
Never theless
Ġwors ening
odynam ics
: :
F ore
O pt
V E
à ®
Ġon t
ĠM ail
Ġde let
os hi
qu est
ĠN ash
Ġsp y
ph ilis
Ġdet erg
Ġshow case
ĠSh iva
Ġaccess ories
Ġlo ver
Ġ12 00
NA T
ĠAb ove
Ġrev ival
amb ia
Ġwin ners
Ġpull s
Ġglac ial
access ed
educ ation
Fr ank
Ġbund le
g ow
Ġc ube
Ġd ances
ut ral
ra ines
ac ic
Ġman gan
Ġj oke
Ġar te
ack ed
ĠY emen
ote ch
Ġconsum es
Ġut most
ĠEm ployment
med ia
Ġbed ding
Ġexperiment ing
ĠKnow n
ĠBu y
ais er
Ġintra venous
ĠNeuro science
Ġcruel ty
Ġpave ment
c ible
Ã «
Ġp rag
as ian
ut an
ĠI X
ĠB ast
Ġr inse
ĠR ah
Ġhas h
Ġun rel
Ġdiff use
Ġco ats
ident ified
Ġav ian
Ġins cribed
Ġmin ed
10 6
Ġpercent ages
Ġdom est
Ġdeb ilitating
ĠJer ry
ĠConstitution al
Comp uter
Ġdism ant
Ġmuc ous
Ġdisput ed
ĠCirc uit
ĠAstr onom
ĠChes apeake
Ġwart ime
H and
S ix
c umin
× Ļ
Ġb ord
ig her
ĠC lement
ĠM eth
ist ine
us on
ĠL LC
Ġim itation
ec essor
Ġwhat soever
In it
Ġland l
de hy
thern et
Ġsymbol izes
Ġantib acterial
Ġ186 7
Ġacceler ating
Ġneur onal
Ġexhaust ion
oler ant
othel ial
Ġillum inated
Ġexagger ated
Ġtu ition
Ġunh appy
Ġunequ al
H ard
l ocal
ĠA K
ĠS I
ir ling
ĠC ret
Ġal ly
ĠH oney
Ġv ault
os ome
Ġsh ining
Ġqu izzes
Ġmon astic
Ġdep uty
Ġmem oir
Ġmil estone
Ġdest ined
ĠBr id
ĠHar old
ĠAR T
anth us
Dep artment
Ġic ons
Ġty ph
ĠGab riel
Sum mary
Ġcrystall ine
Ġprest igious
Ġafore mentioned
F ortunately
Ã ¥
Ġ il
re aching
ĠI van
ect ive
ĠR osa
ĠF ul
ĠG iant
Ġcomm enced
ren ches
Ġfound ational
ĠPro du
Ġback bone
Ġimm ersion
Ġir rational
Ġshare holders
Ġaff inity
Ġinstit uted
Ġpet als
Ġmis ery
Re view
Ġ189 4
Ġmand ated
Ġbiod egradable
Ġlip ids
Ġconvey ed
ropol is
Ġcosm os
ĠArchae ological
Ġdecomp osition
ĠStrateg ic
imb ab
Ġaver aged
ĠElse vier
C ost
X X
b anks
c hemical
t ree
á ¿
Ġf ern
ĠC airo
Ġby tes
ĠW ald
Ġwas ting
Ġr ug
Ġform ative
Ġbeh old
Ġindividual ized
Ġterm ites
vant ages
Ġcou pling
cast ing
Ġgrant ing
ĠDist ribution
Gen esis
Ġjump ed
ĠMathemat ical
ĠDemocr at
Ġwre ck
pret ation
ĠBatt alion
Ġexecut ives
S erv
Ø ¯
Ġst agger
ĠC ox
Ġle ach
ag ne
ĠK S
[...]
