{"<|endoftext|>":0,"!":1,"\"":2,"#":3,"$":4,"%":5,"&":6,"'":7,"(":8,")":9,"*":10,"+":11,",":12,"-":13,".":14,"/":15,"0":16,"1":17,"2":18,"3":19,"4":20,"5":21,"6":22,"7":23,"8":24,"9":25,":":26,";":27,"<":28,"=":29,">":30,"?":31,"@":32,"A":33,"B":34,"C":35,"D":36,"E":37,"F":38,"G":39,"H":40,"I":41,"J":42,"K":43,"L":44,"M":45,"N":46,"O":47,"P":48,"Q":49,"R":50,"S":51,"T":52,"U":53,"V":54,"W":55,"X":56,"Y":57,"Z":58,"[":59,"\\":60,"]":61,"^":62,"_":63,"`":64,"a":65,"b":66,"c":67,"d":68,"e":69,"f":70,"g":71,"h":72,"i":73,"j":74,"k":75,"l":76,"m":77,"n":78,"o":79,"p":80,"q":81,"r":82,"s":83,"t":84,"u":85,"v":86,"w":87,"x":88,"y":89,"z":90,"{":91,"|":92,"}":93,"~":94,"¡":95,"¢":96,"£":97,"¤":98,"¥":99,"¦":100,"§":101,"¨":102,"©":103,"ª":104,"«":105,"¬":106,"®":107,"¯":108,"°":109,"±":110,"²":111,"³":112,"´":113,"µ":114,"¶":115,"·":116,"¸":117,"¹":118,"º":119,"»":120,"¼":121,"½":122,"¾":123,"¿":124,"À":125,"Á":126,"Â":127,"Ã":128,"Ä":129,"Å":130,"Æ":131,"Ç":132,"È":133,"É":134,"Ê":135,"Ë":136,"Ì":137,"Í":138,"Î":139,"Ï":140,"Ð":141,"Ñ":142,"Ò":143,"Ó":144,"Ô":145,"Õ":146,"Ö":147,"×":148,"Ø":149,"Ù":150,"Ú":151,"Û":152,"Ü":153,"Ý":154,"Þ":155,"ß":156,"à":157,"á":158,"â":159,"ã":160,"ä":161,"å":162,"æ":163,"ç":164,"è":165,"é":166,"ê":167,"ë":168,"ì":169,"í":170,"î":171,"ï":172,"ð":173,"ñ":174,"ò":175,"ó":176,"ô":177,"õ":178,"ö":179,"÷":180,"ø":181,"ù":182,"ú":183,"û":184,"ü":185,"ý":186,"þ":187,"ÿ":188,"Ā":189,"ā":190,"Ă":191,"ă":192,"Ą":193,"ą":194,"Ć":195,"ć":196,"Ĉ":197,"ĉ":198,"Ċ":199,"ċ":200,"Č":201,"č":202,"Ď":203,"ď":204,"Đ":205,"đ":206,"Ē":207,"ē":208,"Ĕ":209,"ĕ":210,"Ė":211,"ė":212,"Ę":213,"ę":214,"Ě":215,"ě":216,"Ĝ":217,"ĝ":218,"Ğ":219,"ğ":220,"Ġ":221,"ġ":222,"Ģ":223,"ģ":224,"Ĥ":225,"ĥ":226,"Ħ":227,"ħ":228,"Ĩ":229,"ĩ":230,"Ī":231,"ī":232,"Ĭ":233,"ĭ":234,"Į":235,"į":236,"İ":237,"ı":238,"Ĳ":239,"ĳ":240,"Ĵ":241,"ĵ":242,"Ķ":243,"ķ":244,"ĸ":245,"Ĺ":246,"ĺ":247,"Ļ":248,"ļ":249,"Ľ":250,"ľ":251,"Ŀ":252,"ŀ":253,"Ł":254,"ł":255,"Ń":256,"Ġt":257,"Ġa":258,"he":259,"in":260,"re":261,"Ġthe":262,"on":263,"er":264,"Ġo":265,"at":266,"Ġs":267,"en":268,"Ġc":269,"es":270,"Ġw":271,"is":272,"nd":273,"it":274,"or":275,"Ġp":276,"al":277,"Ġb":278,"an":279,"ed":280,"Ġof":281,"Ġf":282,"ing":283,"Ġin":284,"ou":285,"ar":286,"Ġm":287,"Ġand":288,"Ġto":289,"ic":290,"Ġd":291,"ion":292,"le":293,"ro":294,"as":295,"Ġh":296,"ent":297,"Ġth":298,"ct":299,"Ġe":300,"il":301,"Ġre":302,"om":303,"ve":304,"Ġl":305,"st":306,"Ġn":307,"âĢ":308,"ly":309,"Ġbe":310,"Ġis":311,"ĠT":312,"se":313,"ol":314,"Ġg":315,"ation":316,"im":317,"id":318,"et":319,"ut":320,"ce":321,"ur":322,"ot":323,"ra":324,"ch":325,"ow":326,"Ġfor":327,"ig":328,"ĠA":329,"Ġu":330,"ĠS":331,"Ġthat":332,"Ġon":333,"Ġst":334,"ver":335,"Ġy":336,"ir":337,"ĠC":338,"ĠI":339,"ul":340,"ay":341,"am":342,"Ġas":343,"ith":344,"el":345,"Ġpro":346,"ad":347,"her":348,"Ġare":349,"Ġcon":350,"Ġan":351,"Ġwith":352,"Ġyou":353,"if":354,"Ġit":355,"Ġwh":356,"Ġor":357,"Ġal":358,"od":359,"ter":360,"ĠM":361,"ĠThe":362,"Ġ(":363,"ment":364,"ge":365,"th":366,"ĠP":367,"Ġ1":368,"op":369,"ate":370,"ers":371,"ist":372,"Ġde":373,"ies":374,"ess":375,"ab":376,"ill":377,"Ġhe":378,"Ġex":379,"ĠB":380,"âĢĻ":381,"us":382,"ect":383,"ore":384,"Ġwe":385,"Ġcom":386,"Ġsu":387,"ity":388,"est":389,"ac":390,"ive":391,"res":392,"Ġha":393,"um":394,"ĠH":395,"ke":396,"ld":397,"rom":398,"Ġv":399,"os":400,"em":401,"ant":402,"Ġby":403,"iv":404,"qu":405,"ain":406,"ĠW":407,"nt":408,"pp":409,"Ġat":410,"Ġcan":411,"igh":412,"ud":413,"ĠD":414,"Ġwas":415,"ĠE":416,"Ġch":417,"Ġfrom":418,"oc":419,"ort":420,"and":421,"Ġr":422,"Ġne":423,"ĠR":424,"ial":425,"ĠF":426,"Ġse":427,"ure":428,"Ġ2":429,"ĠâĢ":430,"un":431,"Ġnot":432,"Ġle":433,"ical":434,"ĠG":435,"art":436,"Ġhave":437,"ĠN":438,"ri":439,"og":440,"ĠL":441,"Ġsh":442,"Ġen":443,"Ġsp":444,"Ġthis":445,"pt":446,"ight":447,"Ġab":448,"Ġwor":449,"rou":450,"ich":451,"all":452,"red":453,"ions":454,"00":455,"ther":456,"ould":457,"The":458,"du":459,"ome":460,"ost":461,"our":462,"gh":463,"Ġim":464,"ated":465,"per":466,"ine":467,"Ġus":468,"ag":469,"Ġpl":470,"out":471,"act":472,"Ġtheir":473,"ard":474,"ff":475,"ell":476,"ide":477,"Ġint":478,"pl":479,"ast":480,"ĠO":481,"ear":482,"Ġyour":483,"ans":484,"age":485,"ak":486,"ust":487,"iz":488,"Ġwhich":489,"Ġk":490,"ous":491,"Ġwhe":492,"Ġthey":493,"ec":494,"ĠJ":495,"ood":496,"ĠU":497,"ult":498,"Ġad":499,"Ġinc":500,"Ġall":501,"ib":502,"Ġcont":503,"Ġwill":504,"end":505,"ĠIn":506,"cc":507,"ru":508,"Ġdis":509,"Ġmore":510,"âĢĿ":511,"Ġcomp":512,"Ġres":513,"vel":514,"ong":515,"ations":516,"ap":517,"ip":518,"ia":519,"Ġhas":520,"ere":521,"ew":522,"so":523,"orm":524,"ater":525,"Ġdo":526,"ary":527,"are":528,"able":529,"ĠTh":530,"ence":531,"ild":532,"Ġman":533,"Ġother":534,"Ġcl":535,"ual":536,"ks":537,"Ġbut":538,"ry":539,"Ġwere":540,"Ġimp":541,"ents":542,"ĠâĢľ":543,"ind":544,"Ġte":545,"Ġper":546,"ep":547,"ach":548,"ance":549,"Ġalso":550,"Ġme":551,"ign":552,"reat":553,"Ġone":554,"ake":555,"ose":556,"ase":557,"av":558,"ress":559,"au":560,"ass":561,"ction":562,"'s":563,"Ġso":564,"ition":565,"Ġ19":566,"Ġout":567,"Ġj":568,"ice":569,"one":570,"Ġun":571,"Ġapp":572,"ber":573,"ime":574,"very":575,"Ġar":576,"Ġabout":577,"Ġstud":578,"Ġev":579,"Ġpart":580,"ace":581,"ens":582,"ount":583,"ord":584,"ory":585,"Ġinf":586,"ire":587,"ack":588,"ok":589,").":590,"ĠSt":591,"Ġpe":592,"Ġwho":593,"ish":594,"Ġsy":595,"ame":596,"ue":597,"Ġthem":598,"ors":599,"ub":600,"ike":601,"Ġcomm":602,"Ġsc":603,"ces":604,"Ġhis":605,"ang":606,"ite":607,"olog":608,"ound":609,"now":610,"ĠK":611,"Ġpre":612,"Ġbec":613,"ĠIt":614,"ree":615,"Ġmay":616,"Ġup":617,"low":618,"ric":619,"ile":620,"ie":621,"iff":622,"Ġqu":623,"Ġthan":624,"ople":625,"Ġsome":626,"Ġrec":627,"ays":628,"Ġyear":629,"ail":630,"ates":631,"Ġbeen":632,"nder":633,"Ġwhen":634,"ings":635,"ĠCh":636,"Ġ\"":637,"Ġthere":638,"Ġits":639,"Ġtra":640,"Ġ20":641,"ian":642,"ren":643,"Ġwork":644,"Ġinto":645,"Ġgo":646,"Ġover":647,"Ġag":648,"ough":649,"mer":650,"Ġtime":651,"ĠThis":652,"ph":653,"erv":654,"Ġthese":655,"Ġpeople":656,"te":657,"Ġdiff":658,"ons":659,"vers":660,"Ġhow":661,"rit":662,"lud":663,"ally":664,"Ġcons":665,"ause":666,"rough":667,"ific":668,"ĠV":669,"Ġro":670,"Ġtr":671,"Ġ3":672,"Ġuse":673,"Ġour":674,"tern":675,"Ġcol":676,"ond":677,"ms":678,"ll":679,"Ġra":680,"Ġbet":681,"ove":682,"Ġact":683,"Ġlike":684,"alth":685,"ities":686,"ys":687,"we":688,"Ġhad":689,"int":690,"Ġmost":691,"Ġunder":692,"lect":693,"Ġknow":694,"lic":695,"Ġsa":696,"ments":697,"ĠY":698,"row":699,"ious":700,"Ġbl":701,"ning":702,"velop":703,"les":704,"irst":705,"Ġacc":706,"Ġdes":707,"ject":708,"Ġneed":709,"stem":710,"Ġsuch":711,"ffect":712,"Ġwould":713,"ook":714,"Ġnew":715,"Ġrel":716,"Ġhel":717,"Ġtw":718,"Ġif":719,"Ġrep":720,"Ġinclud":721,"ient":722,"cess":723,"Ġany":724,"ational":725,"Ġgen":726,"Ġhelp":727,"ob":728,"Ġchild":729,"ular":730,"Ġprodu":731,"ative":732,"yp":733,"ating":734,"ple":735,"hed":736,"ced":737,"Ġprov":738,"Ġwhat":739,"Ġused":740,"Ġph":741,"Ġpr":742,"Ġind":743,"Ġonly":744,"ov":745,"Ġdevelop":746,"ool":747,"Ġno":748,"Ġam":749,"Ġmany":750,"Ġoff":751,"Ġthrough":752,"Ġspec":753,"),":754,"Ġfe":755,"Ġfirst":756,"ise":757,"ath":758,"Ġdi":759,"oss":760,"round":761,"Ġreg":762,"ark":763,"Ġac":764,"ĠUn":765,"Ġexp":766,"fter":767,"eth":768,"ne":769,"ics":770,"Ġem":771,"uring":772,"ful":773,"Ġsystem":774,"erm":775,"iss":776,"Ġdiffere":777,"uc":778,"ts":779,"Ġpo":780,"rib":781,"hen":782,"oth":783,"rop":784,"als":785,"ility":786,"ink":787,"Ġtwo":788,"Ġdec":789,"old":790,"Ġob":791,"ased":792,"ible":793,"Ġass":794,"Ġadd":795,"ten":796,"ange":797,"ures":798,"Ġatt":799,"Ġshould":800,"Ġsur":801,"ife":802,"ĠâĢĵ":803,"Ġwell":804,"ower":805,"Ġwater":806,"ract":807,"fore":808,"In":809,"arch":810,"Ġfl":811,"ble":812,"ĠHe":813,"Ġsupp":814,"ween":815,"Ġ201":816,"ert":817,"ng":818,"Ġinv":819,"gan":820,"Ġrem":821,"ram":822,"Ġhealth":823,"own":824,"wn":825,"Ġco":826,"Ġyears":827,"Ġhigh":828,"Ġsm":829,"Ġsub":830,"Ġ-":831,"cy":832,"sel":833,"Ġbetween":834,"Ġ4":835,"Ġ200":836,"its":837,"ade":838,"ied":839,"Ġcould":840,"hes":841,"ick":842,"Ġpres":843,"Ġwhere":844,"ily":845,"ution":846,"ever":847,"Ġtrans":848,"Ġmake":849,"chn":850,"Ġimport":851,"Ġget":852,"Ġbu":853,"ology":854,"uch":855,"aw":856,"Ġher":857,"ants":858,"Ġ5":859,"form":860,"ss":861,"xt":862,"ience":863,"ural":864,"Ġrese":865,"ident":866,"Ġpers":867,"Ġmod":868,"Ġinter":869,"Ġear":870,"chool":871,"ting":872,"ins":873,"oci":874,"Ġinst":875,"ited":876,"Ġform":877,"ines":878,"Ġpol":879,"Ġnum":880,"Ġexam":881,"ef":882,"meric":883,"Ġdisc":884,"Ġdifferent":885,"Ġlear":886,"Ġeffect":887,"Ġcar":888,"Ġexper":889,"ata":890,"Ġbecause":891,"ont":892,"land":893,"Ġincre":894,"ness":895,"Ġfound":896,"ists":897,"Ġlong":898,"ict":899,"Ġworld":900,"Ġeven":901,"ually":902,"Ġtyp":903,"Ġsim":904,"hat":905,"Ġafter":906,"Ġthen":907,"Ġlar":908,"Ġdet":909,"Ġway":910,"Ġcount":911,"Ġsign":912,"oy":913,"Ġmed":914,"Ġjust":915,"ature":916,"cept":917,"Ġcent":918,"aking":919,"gy":920,"Ġvery":921,"Ġhum":922,"Ġinform":923,"Ġresp":924,"ft":925,"get":926,"vent":927,"Ġvar":928,"ism":929,"ically":930,"other":931,"Ġed":932,"urn":933,"Ġpat":934,"Ġgener":935,"Ġke":936,"Ġref":937,"ives":938,"ety":939,"Ġsee":940,"ivers":941,"ollow":942,"ĠAmeric":943,"Ġthose":944,"arm":945,"Ġresult":946,"Ġprocess":947,"ps":948,"ases":949,"Ġevery":950,"ues":951,"Ġext":952,"ck":953,"cer":954,"Ġprog":955,"Ġfact":956,"iew":957,"Ġpub":958,"Ġsaid":959,"Ġchildren":960,"Ġ18":961,"Ġtechn":962,"Ġsec":963,"Ġeach":964,"omm":965,"Ġimportant":966,"Ġloc":967,"ruct":968,"ork":969,"ody":970,"Ġcall":971,"iron":972,"Ġbeing":973,"Ġca":974,"ages":975,"Ġgra":976,"Ġmon":977,"led":978,"ds":979,"Ġrequ":980,".âĢĿ":981,"Ġlife":982,"Ġcre":983,"Ġfood":984,"ized":985,"Ġset":986,"Ġcommun":987,"tle":988,"Ġmuch":989,"Th":990,"Ġpartic":991,"ĠWe":992,"Ġent":993,"cent":994,"Ġdist":995,"ved":996,"Ġlevel":997,"Ġshe":998,"ices":999,"Ġart":1000,"Ġdef":1001,"ĠAl":1002,"Ġfam":1003,"Ġstudents":1004,"ather":1005,"vern":1006,"Ġsk":1007,"..":1008,"Ġdep":1009,"Ġown":1010,"imes":1011,"Ġduring":1012,"ĠThey":1013,"ĠPro":1014,"Ġlead":1015,"ward":1016,"ize":1017,"Ġread":1018,"Ġinformation":1019,"Ġfollow":1020,"ĠAs":1021,"any":1022,"ection":1023,"Ġaut":1024,"Ġ6":1025,"Ġmy":1026,"Ġgrow":1027,"Ġdata":1028,"eg":1029,".,":1030,"Ġstudy":1031,"Ġdoes":1032,"Ġmade":1033,"Ġav":1034,"Ġstr":1035,"Ġproble":1036,"Ġright":1037,"gg":1038,"Ġgood":1039,"Ġfind":1040,"Ġsame":1041,"Ġcur":1042,"Ġins":1043,"Ġmin":1044,"Ġend":1045,"Ġperson":1046,"the":1047,"onom":1048,"Ġboth":1049,"hip":1050,"stand":1051,"20":1052,"ĠIf":1053,"Ġche":1054,"Ġschool":1055,"Ġusing":1056,"ted":1057,"viron":1058,"Ġback":1059,"ality":1060,"ivid":1061,"read":1062,"Ġhist":1063,"ential":1064,"Ġgrou":1065,"ĠAn":1066,"Ġexpl":1067,"ale":1068,"19":1069,"ĠHow":1070,"und":1071,"Ġshow":1072,"Ġmain":1073,"Ġbefore":1074,"io":1075,"Ġtest":1076,"Ġcomple":1077,"ock":1078,"Ġpop":1079,"Ġsmall":1080,"Ġtreat":1081,"ĠFor":1082,"Ġsol":1083,"Ġcor":1084,"Ġoften":1085,"Ġgl":1086,"ince":1087,"ined":1088,"Ġprot":1089,"Ġval":1090,"Ġbo":1091,"ien":1092,"inal":1093,"rol":1094,"Ġwhile":1095,"ty":1096,"Ġdise":1097,"ex":1098,"Ġless":1099,"Ġposs":1100,"iel":1101,"imate":1102,"Ġtake":1103,"ĠAr":1104,"Ġorgan":1105,"Ġserv":1106,"ix":1107,"Ġbr":1108,"Ġday":1109,"nce":1110,"Ġagain":1111,"akes":1112,"ars":1113,"ax":1114,"Ġris":1115,"ute":1116,"ĠInd":1117,"ergy":1118,"000":1119,"Ġlit":1120,"Ġec":1121,"Ġprovid":1122,"||":1123,"Ġocc":1124,"Ġbody":1125,"dition":1126,"der":1127,"ished":1128,"Ġmem":1129,"Ġdesign":1130,"ral":1131,"Ġredu":1132,"omen":1133,"Ġstate":1134,"vironment":1135,"ĠSp":1136,"ier":1137,"oh":1138,"Ġpower":1139,"Ġnow":1140,"Ġresearch":1141,"Ġnumber":1142,"Ġvis":1143,"Ġactiv":1144,"Ġfun":1145,"iqu":1146,"Ġcell":1147,"ves":1148,"air":1149,"ulation":1150,"ĠNew":1151,"ocial":1152,"Ġhuman":1153,"Ġhand":1154,"Ġhim":1155,"Ġ10":1156,"Ġsupport":1157,"iving":1158,"Ġaround":1159,"ĠSc":1160,"ium":1161,"ury":1162,"Ġclass":1163,"irect":1164,"Ġchar":1165,"ital":1166,"Ġbel":1167,"Ġmust":1168,"Ġdown":1169,"iversity":1170,"ters":1171,"up":1172,"Ġcommon":1173,"Ġstart":1174,"Ġthree":1175,"ven":1176,"Ġcle":1177,"ered":1178,"Ġlook":1179,"ah":1180,"hers":1181,"Ġelect":1182,"Ġest":1183,"acter":1184,"Ġplan":1185,"Ġgreat":1186,"rent":1187,"day":1188,"ving":1189,"Ġgovern":1190,"Ġpoint":1191,"ross":1192,"Ġcare":1193,"Ġ7":1194,"cl":1195,"ave":1196,"Ġser":1197,"Ġconf":1198,"ĠRe":1199,"âĢĶ":1200,"ger":1201,"ĠBut":1202,"uss":1203,"ains":1204,"This":1205,"Ġcontin":1206,"Ġreport":1207,"ouse":1208,",âĢĿ":1209,"Ġunderstand":1210,"aj":1211,"self":1212,"Ġincluding":1213,"Ġexample":1214,"itions":1215,"Ġlarge":1216,"ional":1217,"ĠYou":1218,"orn":1219,"rain":1220,"Ġallow":1221,"Ġdid":1222,"ron":1223,"Ġadv":1224,"Ġ8":1225,"aterial":1226,"com":1227,"Ġbuild":1228,"ividual":1229,"anc":1230,"gen":1231,"Ġequ":1232,"Ġland":1233,"Ġmet":1234,"ared":1235,"ĠThere":1236,"ĠAnd":1237,"ull":1238,"âĢĵ":1239,"Ġop":1240,"ash":1241,"ner":1242,"way":1243,"Ġconst":1244,"Ġpract":1245,"ries":1246,"iven":1247,"els":1248,"esp":1249,"Ġbeh":1250,"Ġret":1251,"ee":1252,"ization":1253,"Ġthough":1254,"Ġknown":1255,"Ġsom":1256,"10":1257,"Ġeas":1258,"ĠâĢĺ":1259,"Ġpublic":1260,"Ġstill":1261,"Ġeduc":1262,"Ġ9":1263,"Ġdr":1264,"ids":1265,"Ġtem":1266,"Ġcour":1267,"ets":1268,"erest":1269,"ially":1270,"Ġwrit":1271,"Ġgu":1272,"ired":1273,"iver":1274,"Ġcalled":1275,"outh":1276,"de":1277,"ources":1278,"oms":1279,"iod":1280,"itive":1281,"Ġappro":1282,"Ġquest":1283,"ĠThese":1284,"Ġplace":1285,"Ġthink":1286,"reen":1287,"Ġproduct":1288,"Ġindividual":1289,"ected":1290,"Ġmight":1291,"ank":1292,"eng":1293,"osed":1294,"ering":1295,"Ġfew":1296,"ĠWh":1297,"âĢľ":1298,"Ġide":1299,"Ġchang":1300,"Ġstand":1301,"ffic":1302,"Ġenvironment":1303,"Ġimpro":1304,"ption":1305,"me":1306,"Ġcaus":1307,"Ġwant":1308,"Ġmat":1309,"Ġmaterial":1310,"Ġiss":1311,"Ġpur":1312,"lish":1313,"Ġproject":1314,"inc":1315,"Ġchange":1316,"Ġdem":1317,"Ġwithout":1318,"tt":1319,"raph":1320,"ination":1321,"Ġcap":1322,"Ġpot":1323,"Ġdevelopment":1324,"Ġ.":1325,"Ġlight":1326,"ration":1327,"Ġsym":1328,"Ġpresent":1329,"Ġimm":1330,"bers":1331,"agn":1332,"Ġphys":1333,"ior":1334,"angu":1335,"ertain":1336,"Ġben":1337,"ĠIs":1338,"Ġwithin":1339,"Ġve":1340,"ason":1341,"ense":1342,"Ġ199":1343,"iness":1344,"ethod":1345,"Ġdisease":1346,"oun":1347,"ording":1348,"Ġsocial":1349,"Ġenergy":1350,"Ġident":1351,"Ġprof":1352,"ĠEng":1353,".\"":1354,"Ġlearn":1355,"Ġplay":1356,"ability":1357,"Ġmus":1358,"Ġbre":1359,"Ġdon":1360,"Ġsl":1361,"line":1362,"ived":1363,"Ġsit":1364,"arent":1365,"Ġarea":1366,"ĠDe":1367,"man":1368,"Ġ&":1369,"Ġair":1370,"illion":1371,"Ġet":1372,"ĠAmerican":1373,"Ġpos":1374,"alk":1375,"sc":1376,"less":1377,"Ġdirect":1378,"Ġeng":1379,"ĠUniversity":1380,"Ġinclude":1381,"Ġblood":1382,"Ġvari":1383,"ological":1384,"Ġhome":1385,"ental":1386,"Ġpass":1387,"Ġanother":1388,"eral":1389,"Ġcult":1390,"orth":1391,"Ġinterest":1392,"Ġant":1393,"Ġrisk":1394,"atural":1395,"pr":1396,"Ġbelie":1397,"Ġbest":1398,"Ġanal":1399,"bs":1400,"ified":1401,"ug":1402,"Ġmeas":1403,"rodu":1404,"Ġmark":1405,"Ġpain":1406,"ify":1407,"Ġbas":1408,"erc":1409,"Ġrest":1410,"Ġbecome":1411,"ently":1412,"ccess":1413,"It":1414,"Ġanim":1415,"ton":1416,"ining":1417,"ield":1418,"Ġopp":1419,"ians":1420,"Ġlow":1421,"ained":1422,"Ġbetter":1423,"Ġproper":1424,"ource":1425,"ills":1426,"atic":1427,"Ġcontrol":1428,"ĠAd":1429,"ĠHowever":1430,"ajor":1431,"Ġsever":1432,"Ġeconom":1433,"Ġwomen":1434,"Ġdesc":1435,"ats":1436,"az":1437,"ients":1438,"Ġgovernment":1439,"Ġprovide":1440,"ĠCon":1441,"ways":1442,"Ġkeep":1443,"here":1444,"Ġindu":1445,"Ġold":1446,"ider":1447,"Ġprogram":1448,"arc":1449,"Ġmethod":1450,"ware":1451,"Ġearly":1452,"str":1453,"Ġcause":1454,"ision":1455,"'t":1456,"ĠSh":1457,"Ġpar":1458,"Ġhere":1459,"Ġleg":1460,"ik":1461,"lished":1462,"Ġoper":1463,"Ġfore":1464,"Ġreal":1465,"hor":1466,"Ġmove":1467,"Ġhistory":1468,"Ġinfl":1469,"Ġtoo":1470,"Ġlast":1471,"Ġwar":1472,"Ġavail":1473,"Ġbeg":1474,"Ġmil":1475,"Ġbus":1476,"ission":1477,"rap":1478,"ĠPh":1479,"Ġsecond":1480,"Ġfamily":1481,"ories":1482,"ention":1483,"Ġtre":1484,"Ġmeans":1485,"Ġoccur":1486,"Ġagainst":1487,"oid":1488,"eed":1489,"Ġele":1490,"Ġgroup":1491,"to":1492,"Ġinvol":1493,"Ġparticular":1494,"Ġbenef":1495,"Ġpossible":1496,"ern":1497,"Ġunt":1498,"ead":1499,"icle":1500,"Ġlaw":1501,"Ġperform":1502,"Ġsaf":1503,"Ġorder":1504,"Ġpercent":1505,"Ġsignific":1506,"Ġaddition":1507,"view":1508,"ards":1509,"Ġlearning":1510,"Ġter":1511,"Ġlangu":1512,"Ġhig":1513,"ĠRes":1514,"Ġcurrent":1515,"ĠEx":1516,"Ġseveral":1517,"ples":1518,"Ġperiod":1519,"Ġtop":1520,"Ġsay":1521,"ograph":1522,"amp":1523,"Ġfin":1524,"Ġaffect":1525,"cle":1526,"ĠCl":1527,"pect":1528,"Ġcost":1529,"Ġdev":1530,"Ġmajor":1531,"Ġ15":1532,"ĠWhen":1533,"ised":1534,"Ġ[":1535,"Ġspecies":1536,"Ġcal":1537,"Ġprom":1538,"ĠUnited":1539,"rist":1540,"use":1541,"Ġable":1542,"ote":1543,"Ġnear":1544,"Ġnon":1545,"Ġmean":1546,"ogn":1547,"Ġorig":1548,"Ġhapp":1549,"ĠâĢĶ":1550,"Ġlim":1551,"par":1552,"ator":1553,"ĠCol":1554,"Ġareas":1555,"Ġthings":1556,"Ġfeel":1557,"Ġtreatment":1558,"Ġothers":1559,"Ġsince":1560,"br":1561,"port":1562,"idence":1563,"Ġscient":1564,"Ġel":1565,"urop":1566,"ĠTo":1567,"ĠSe":1568,"ĠQ":1569,"ane":1570,"ina":1571,"Ġmen":1572,"Ġopen":1573,"Ġcountry":1574,"of":1575,"Ġamong":1576,"ĠGod":1577,"though":1578,"ĠPl":1579,"Ġplant":1580,"sy":1581,"Ġbased":1582,"Ġprevent":1583,"ret":1584,"osp":1585,"Ġaccess":1586,"Ġavailable":1587,"cing":1588,"Ġsays":1589,"ended":1590,"Ġdel":1591,"ĠZ":1592,"ĠCan":1593,"Ġhead":1594,"Ġfac":1595,"What":1596,"elf":1597,"ilar":1598,"ends":1599,"Ġfollowing":1600,"ww":1601,"Ġmonth":1602,"Ġcond":1603,"Ġcr":1604,"ots":1605,"Ġfre":1606,"ocus":1607,"urther":1608,"Ġtimes":1609,"Ġwee":1610,"Ġname":1611,"ling":1612,"Ġlo":1613,"Ġcase":1614,"be":1615,"Ġconn":1616,"Ġlevels":1617,"Ġlab":1618,"Ġcome":1619,"Ġmar":1620,"omp":1621,"ances":1622,"Ġcertain":1623,"ĠAt":1624,"Ġtype":1625,"ably":1626,"Ġnatural":1627,"ĠStates":1628,"Ġbi":1629,"Ġproblem":1630,"ĠComm":1631,"ole":1632,"oint":1633,"ploy":1634,"Ġcreat":1635,"Ġfour":1636,"Ġstruct":1637,"ox":1638,"Ġage":1639,"Ġrun":1640,"Ġimpact":1641,"une":1642,"Ġsignificant":1643,"urope":1644,"Ġfree":1645,"Ġlist":1646,"We":1647,"ope":1648,"ĠEn":1649,"Ġess":1650,"Ġpost":1651,"Ġintern":1652,"ones":1653,"Ġgr":1654,"Ġsuccess":1655,"Ġlocal":1656,"ames":1657,"Ġpress":1658,"icult":1659,"Ġyoung":1660,"Ġ17":1661,"Ġamount":1662,"ression":1663,"Ġobject":1664,"If":1665,"Ġbro":1666,"Ġdue":1667,"work":1668,"Ġhard":1669,"Ġlittle":1670,"Ġput":1671,"Ġproblems":1672,"por":1673,"Ġ12":1674,"aper":1675,"Ġbir":1676,"Ġcells":1677,"uture":1678,"Ġview":1679,"Ġmult":1680,"Ġmaking":1681,"Ġrece":1682,"ething":1683,"atory":1684,"Ġassoci":1685,"Ġinvest":1686,"olution":1687,"ggest":1688,"hy":1689,"Ġsystems":1690,"ately":1691,"12":1692,",\"":1693,"Ġuntil":1694,"ĠTe":1695,"Ġcho":1696,"Ġvol":1697,"Ġfar":1698,"Ġpotential":1699,"Ġvir":1700,"ortun":1701,"Ġhy":1702,"Ġlet":1703,"ides":1704,"ĠCent":1705,"Ġgiven":1706,"Ġsw":1707,"ĠEurope":1708,"18":1709,"ĠUS":1710,"Ġfocus":1711,"Ġdeterm":1712,"Ġlikely":1713,"Ġturn":1714,"ĠNational":1715,"Ġbehav":1716,"ĠBe":1717,"ledge":1718,"ĠAf":1719,"Ġshort":1720,"over":1721,"Ġcir":1722,"Ġbook":1723,"Ġfil":1724,"ither":1725,"not":1726,"resent":1727,"Ġsuggest":1728,"Ġlater":1729,"Ġincrease":1730,"Ġcomput":1731,"ured":1732,"Ġconsum":1733,"agement":1734,"Ġtemper":1735,"stit":1736,"Ġflow":1737,"Ġfunction":1738,"ged":1739,"Ġcreate":1740,"oks":1741,"hem":1742,"ication":1743,"Ġresults":1744,"Ġtechnology":1745,"aps":1746,"Ġdays":1747,"As":1748,"ending":1749,"ĠOr":1750,"ĠFr":1751,"Ġalong":1752,"Ġseem":1753,"Ġsomething":1754,"Ġcommunity":1755,"Ġlanguage":1756,"Ġrad":1757,"ĠWhat":1758,"aken":1759,"Ġobs":1760,"Ġappear":1761,"face":1762,"icro":1763,"Ġcomb":1764,"aster":1765,"Ġheart":1766,"Ġalways":1767,"ociety":1768,"Ġspecific":1769,"Ġdifficult":1770,"asing":1771,"ecially":1772,"Ġbusiness":1773,"Ġpolit":1774,"vious":1775,"ember":1776,"Ġeducation":1777,"af":1778,"Ġdra":1779,"Ġ0":1780,"Ġexperience":1781,"ĠOn":1782,"Ġvarious":1783,"Ġeffective":1784,"ĠWor":1785,"Ġspace":1786,"Ġdeath":1787,"Ġneeds":1788,"Ġconditions":1789,"aining":1790,"Ġrele":1791,"Ġcourse":1792,"Ġenc":1793,"Ġteac":1794,"Ġmillion":1795,"Ġtoday":1796,"Ġclear":1797,"Ġcancer":1798,"ĠAll":1799,"Ġpast":1800,"ilities":1801,"ĠChrist":1802,"ours":1803,"ape":1804,"Ġusually":1805,"Ġ$":1806,"Ġfuture":1807,"ptoms":1808,"Ġcharacter":1809,"50":1810,"Ġgive":1811,"ring":1812,"Ġhigher":1813,"How":1814,"Ġparent":1815,"Ġcountries":1816,"ĠBl":1817,"Ġdam":1818,"There":1819,"Ġapplic":1820,"ried":1821,"app":1822,"ohn":1823,"especially":1824,"Ġauthor":1825,"Ġsing":1826,"idd":1827,"Ġdiscuss":1828,"Ġwhy":1829,"ators":1830,"Ġstrong":1831,"Ġwords":1832,"Ġexist":1833,"Ġcy":1834,"Ġspecial":1835,"Ġill":1836,"Ġey":1837,"etic":1838,"ray":1839,"Ġacross":1840,"Ġimprove":1841,"Ġ16":1842,"obal":1843,"ĠSo":1844,"Ġsimilar":1845,"isc":1846,"ned":1847,"ruction":1848,"Ġnecess":1849,"Ġpopulation":1850,"ribut":1851,"Ġchanges":1852,"Ġprofess":1853,"ique":1854,"11":1855,"Ġcentury":1856,"ored":1857,"Ġtool":1858,"Ġbegin":1859,"orts":1860,"Ġbrain":1861,"ler":1862,"Ġtry":1863,"Ġline":1864,"Ġcrit":1865,"Ġrespons":1866,"Ġpatients":1867,"Ġmot":1868,"Ġabove":1869,"oney":1870,"ĠMed":1871,"rug":1872,"Ġtoget":1873,"Ġrecord":1874,"Ġtogether":1875,"min":1876,"ateg":1877,"St":1878,"Ġrequire":1879,"Ġnext":1880,"mit":1881,"Ġprop":1882,"Ġside":1883,"Ġer":1884,"Ġleast":1885,"Ġgre":1886,"Ġdescrib":1887,"amm":1888,"Ġhowever":1889,"Ġask":1890,"by":1891,"Ġestab":1892,"Ġworking":1893,"aves":1894,"ĠGerm":1895,"most":1896,"Ġworks":1897,"atch":1898,"Ġways":1899,"Ġsens":1900,"Ġenough":1901,"ison":1902,"selves":1903,"ysis":1904,"Ġnever":1905,"Ġtru":1906,"ĠEar":1907,"ĠAfric":1908,"omes":1909,"Ġconsider":1910,"Ġespecially":1911,"Ġcases":1912,"cul":1913,"Ġmov":1914,"Ġeffects":1915,"aces":1916,"Ġtypes":1917,"ode":1918,"Ġens":1919,"Ġkind":1920,"Ġcomplete":1921,"Ġnet":1922,"ires":1923,"Ġleft":1924,"acy":1925,"__":1926,"ĠBrit":1927,"Ġaway":1928,"Ġgeneral":1929,"Ġchem":1930,"iting":1931,"Ġrelations":1932,"Ġresearc":1933,"sp":1934,"Ġplants":1935,"ilt":1936,"nal":1937,"Ġteam":1938,"let":1939,"sw":1940,"Ġkey":1941,"oman":1942,"chie":1943,"for":1944,"Ġopt":1945,"Ġcolle":1946,"Ġstudies":1947,"ges":1948,"thing":1949,"Ġproduction":1950,"Ġphysical":1951,"//":1952,"Ġterm":1953,"ales":1954,"aching":1955,"Ġprotect":1956,"lement":1957,"ĠSy":1958,"Ġinflu":1959,"aring":1960,"oring":1961,"Ġprim":1962,"alf":1963,"Ġdig":1964,"oot":1965,"side":1966,"Ġgoing":1967,"Ġrole":1968,"Ġchall":1969,"duct":1970,"ables":1971,"Ġ'":1972,"Ġsymptoms":1973,"ung":1974,"Ġlower":1975,"Ġfull":1976,"ĠSome":1977,"ipp":1978,"Ġhouse":1979,"Ġhaving":1980,"aim":1981,"Ġself":1982,"hing":1983,"Ġstep":1984,"Ġ198":1985,"Ġconcer":1986,"ument":1987,"Ġnorm":1988,"atures":1989,"Ġmind":1990,"Ġnut":1991,"Ġfurther":1992,"Ġknowledge":1993,"Ġpolic":1994,"://":1995,"An":1996,"Ġlive":1997,"edi":1998,"Ġmakes":1999,"Ġpred":2000,"Ġsubject":2001,"ĠWar":2002,"ae":2003,"ley":2004,"acc":2005,"ification":2006,"200":2007,"ready":2008,"ising":2009,"Ġbecame":2010,"Ġscience":2011,"Ġz":2012,"istic":2013,"Ġwhether":2014,"Ġreason":2015,"Ġground":2016,"Ġsure":2017,"Ġrange":2018,"ĠWith":2019,"For":2020,"Ġeff":2021,"Ġquality":2022,"Ġ30":2023,"Ġlot":2024,"30":2025,"ann":2026,"Ġaccount":2027,"ued":2028,"Ġgrowth":2029,"ĠJohn":2030,"Ġsum":2031,"bon":2032,"Ġindust":2033,"verage":2034,"ĠEnglish":2035,"ency":2036,"Ġcity":2037,"Ġproducts":2038,"Ġtext":2039,"Ġmodel":2040,"Ġrepresent":2041,"Ġgroups":2042,"iol":2043,"Ġresources":2044,"ibility":2045,"Ġfund":2046,"urch":2047,"ĠWorld":2048,"Ġbig":2049,"Ġtoward":2050,"Ġstat":2051,"Ġactivity":2052,"15":2053,"eter":2054,"apt":2055,"ĠGo":2056,"Ġvalue":2057,"Ġindic":2058,"ites":2059,"rel":2060,"ĠLe":2061,"Ġquestion":2062,"Ġactivities":2063,"Ġstory":2064,"sych":2065,"uation":2066,"aut":2067,"NA":2068,"Ġreduce":2069,"ĠOne":2070,"Ġachie":2071,"osis":2072,"ĠThat":2073,"Ġalready":2074,"Ġreally":2075,"Ġemploy":2076,"Ġseen":2077,"Ġfall":2078,"...":2079,"erence":2080,"Ġdone":2081,"Ġskills":2082,"ĠGen":2083,"oura":2084,"Ġloss":2085,"Ġdeveloped":2086,"Ġclose":2087,"ivity":2088,"Ġbelow":2089,"Ġwr":2090,"iation":2091,"Ġissues":2092,"ĠHealth":2093,"lo":2094,"Ġcirc":2095,"urity":2096,"ird":2097,"Ġrecogn":2098,"fact":2099,"etimes":2100,"Ġclimate":2101,"Ġred":2102,"Ġoffic":2103,"Ġevent":2104,"16":2105,"Ġwind":2106,"esc":2107,"ott":2108,"Ġtradition":2109,"Ġarticle":2110,"ream":2111,"ĠGe":2112,"Ġparticip":2113,"mber":2114,"Ġbuilding":2115,"Ġnational":2116,"urb":2117,"augh":2118,"ĠIntern":2119,"overed":2120,"Ġflu":2121,"ĠBy":2122,"ils":2123,"ER":2124,"put":2125,"Ġdeg":2126,"Ġeither":2127,"ĠIm":2128,"Ġ14":2129,"ask":2130,"14":2131,"Ġrate":2132,"Ġsite":2133,"Ġprob":2134,"ĠCar":2135,"Ġinit":2136,"iple":2137,"Ġword":2138,"When":2139,"Ġsource":2140,"ands":2141,"ĠTr":2142,"Ġabs":2143,"leep":2144,"13":2145,"Ġfield":2146,"Ġaccording":2147,"Ġpaper":2148,"Ġbat":2149,"Ġphot":2150,"val":2151,"Ġsurface":2152,"Ġrecomm":2153,"fficient":2154,"Ġneg":2155,"Ġrather":2156,"idered":2157,"ival":2158,"ĠAm":2159,"Ġobserv":2160,"amin":2161,"Ġmarket":2162,"unt":2163,"Ġ=":2164,"Ġfive":2165,"Ġtot":2166,"Ġonce":2167,"aging":2168,"17":2169,"Ġsingle":2170,"Ġpay":2171,"Ġmeet":2172,"Ġcollect":2173,"Ġann":2174,"ĠCal":2175,"Ġdrug":2176,"Ġconcept":2177,"ĠMar":2178,"earch":2179,"ĠNorth":2180,"ery":2181,"ĠShe":2182,"Ġquestions":2183,"rict":2184,"roll":2185,"Ġincreased":2186,"rams":2187,"Ġsize":2188,"Ġmaterials":2189,"ights":2190,"fer":2191,"ips":2192,"plic":2193,"Ġaddress":2194,"Ġmedical":2195,"Ġunderstanding":2196,"Ġfail":2197,"iam":2198,"ublic":2199,"rect":2200,"Ġstress":2201,"Ġmembers":2202,"reme":2203,"Ġcut":2204,"Ġdom":2205,"Ġskin":2206,"Ġtaken":2207,"Ġprote":2208,"Ġassociated":2209,"Ġfri":2210,"Ġdetail":2211,"Ġwhole":2212,"Ġconsidered":2213,"ĠAb":2214,"Ġresearchers":2215,"oph":2216,"Ġcreated":2217,"Ġmaint":2218,"Ġsound":2219,"sequ":2220,"Ġpressure":2221,"Ġanimals":2222,"Ġliving":2223,"ĠMay":2224,"ule":2225,"ĠSouth":2226,"Ġfrequ":2227,"Ġmass":2228,"ivil":2229,"ĠDr":2230,"Ġevidence":2231,"Ġnature":2232,"Ġhtt":2233,"ĠAss":2234,"org":2235,"Ġupon":2236,"Ġfr":2237,"ĠPr":2238,"Ġwhite":2239,"Ġsun":2240,"Ġthemselves":2241,"Ġpractice":2242,"Ġwide":2243,"ening":2244,"Ġessential":2245,"Ġhealthy":2246,"Ġintrodu":2247,"sh":2248,"ym":2249,"epend":2250,"ensive":2251,"pro":2252,"ĠRep":2253,"illed":2254,"utions":2255,"Ġcannot":2256,"Ġopportun":2257,"Ġweek":2258,"Ġtell":2259,"Ġcomplex":2260,"Ġservices":2261,"Ġneeded":2262,"Ġrelationship":2263,"âĢ¦":2264,"Ġadult":2265,"ĠAmerica":2266,"reg":2267,"Ġability":2268,"Ġdest":2269,"Ġhistor":2270,"ĠStud":2271,"Ġstates":2272,"Ġquick":2273,"Ġcomes":2274,"Ġrequired":2275,"Ġdoct":2276,"like":2277,"Ġsal":2278,"Ġpurp":2279,"Ġdiet":2280,"Ġengine":2281,"Ġhold":2282,"Ġcame":2283,"Ġentire":2284,"oon":2285,"Ġavoid":2286,"Ġmoney":2287,"Ġeconomic":2288,"Ġfactors":2289,"Ġindividuals":2290,"ournal":2291,"Ġrelated":2292,"Ġlay":2293,"Ġreturn":2294,"Ġcoll":2295,"Ġport":2296,"Ġ197":2297,"Ġsent":2298,"Ġcondition":2299,"Ġactually":2300,"Ġsimple":2301,"Ġprovides":2302,"ises":2303,"ibr":2304,"Ġmicro":2305,"ober":2306,"Ġgas":2307,"Ġassess":2308,"Ġglobal":2309,"ĠAust":2310,"Ġver":2311,"acks":2312,"Ġmanagement":2313,"hib":2314,"itud":2315,"Ġpolitical":2316,"Ġidea":2317,"Ġrelig":2318,"Ġ13":2319,"Ch":2320,"yl":2321,"Ġfamil":2322,"Ġexperien":2323,"ging":2324,"ai":2325,"To":2326,"ĠGu":2327,"Ġpublished":2328,"Ġmodern":2329,"Ġmonths":2330,"ney":2331,"Ġparts":2332,"Ġcat":2333,"Ġfat":2334,"aced":2335,"Ġexerc":2336,"Ġdoc":2337,"ĠYork":2338,"Ġvers":2339,"ĠMan":2340,"Al":2341,"Ġoil":2342,"yn":2343,"Ġblack":2344,"vere":2345,"Ġstudent":2346,"Ġthought":2347,"Ġspe":2348,"izing":2349,"Ġdog":2350,"oll":2351,"Ġreact":2352,"urs":2353,"Ġansw":2354,"Ġapproach":2355,"bo":2356,"ush":2357,"eds":2358,"Ġfish":2359,"artment":2360,"oses":2361,"go":2362,"based":2363,"Ġsoft":2364,"Ġarch":2365,"Ġitself":2366,"gest":2367,"Ġalmost":2368,"enn":2369,"Ġnecessary":2370,".)":2371,"rad":2372,"ump":2373,"ĠAct":2374,"Ġmor":2375,"aged":2376,"chan":2377,"Ġla":2378,"ened":2379,"uel":2380,"abor":2381,"ĠX":2382,"igure":2383,"ply":2384,"Ġhalf":2385,"Ġpath":2386,"Ġproduce":2387,"Ġanalysis":2388,"Ġpattern":2389,"ores":2390,"erve":2391,"):":2392,"olic":2393,"ĠEarth":2394,"emic":2395,"Ġjob":2396,"Ġpriv":2397,"Ġfire":2398,"Ġparents":2399,"Ġarg":2400,"ences":2401,"Ġclean":2402,"rown":2403,"Ġsuff":2404,"Ġgreen":2405,"Ġindustry":2406,"icles":2407,"Ġsociety":2408,"Ġlink":2409,"Ġsam":2410,"Ġcop":2411,"Ġweight":2412,"ections":2413,"lying":2414,"Ġmeasure":2415,"ID":2416,"Ġsuper":2417,"Ġsoil":2418,"Ġregion":2419,"SA":2420,"usion":2421,"Ġcompany":2422,"eb":2423,"Ġtar":2424,"ĠDep":2425,"Ġincreasing":2426,"Wh":2427,"Ġrights":2428,"ĠCont":2429,"Ġtaking":2430,"You":2431,"ĠHis":2432,"iddle":2433,"hold":2434,"Ġemer":2435,"Ġ100":2436,"Ġthroughout":2437,"Ġbegan":2438,"nces":2439,"Ġreading":2440,"Ġpersonal":2441,"Ġchemical":2442,"mb":2443,"onse":2444,"pid":2445,"Ġliter":2446,"itation":2447,"Ġtook":2448,"Ġconduct":2449,"Ġmedic":2450,"Ġever":2451,"Ġregard":2452,"irm":2453,"anced":2454,"Ġcontent":2455,"inter":2456,"ze":2457,"ĠDo":2458,"Ġrepl":2459,"Ġdiagn":2460,"Ġtemperature":2461,"ma":2462,"Ġcomputer":2463,"Ġclaim":2464,"iction":2465,"ĠComp":2466,"Ġfarm":2467,"ĠState":2468,"ese":2469,"Ġfeed":2470,"utes":2471,"Ġpopular":2472,"itary":2473,"Ġhours":2474,"Ġbur":2475,"Ġhab":2476,"Ġtotal":2477,"cient":2478,"Ġyet":2479,"Ġsense":2480,"Ġbenefits":2481,"Ġrecent":2482,"Ġtravel":2483,"ĠHist":2484,"Ġinj":2485,"Ġarr":2486,"Ġtherap":2487,"Ġbar":2488,"Ġsleep":2489,"Ġservice":2490,"ĠFl":2491,"Ġut":2492,"Ġaction":2493,"Ġ50":2494,"Ġmach":2495,"Ġrul":2496,"empt":2497,"erous":2498,"Ġge":2499,"Ġstop":2500,"aily":2501,"Ġinteract":2502,"\".":2503,"Ġsepar":2504,"mon":2505,"ccording":2506,"Ġlonger":2507,"ume":2508,"Ġlives":2509,"yle":2510,"Ġtraining":2511,"ricult":2512,"reng":2513,"Ġtalk":2514,"Ġshows":2515,"Ġstructure":2516,"uck":2517,"het":2518,"iet":2519,"Ġmatter":2520,"Ġbehavior":2521,"estern":2522,"Ġbuilt":2523,"arr":2524,"Ġbreak":2525,"Ġheat":2526,"ively":2527,"Ġspread":2528,"fully":2529,"ĠJew":2530,"ĠCanad":2531,"iment":2532,"Ġprevious":2533,"astic":2534,"ĠWhile":2535,"Ġonline":2536,"ches":2537,"Ġheav":2538,"ĠCo":2539,"ript":2540,"ĠNe":2541,"Ġsafe":2542,"Ġenvironmental":2543,"Ġcontact":2544,"Ġsix":2545,"Ġposition":2546,"Ġ196":2547,"ES":2548,"Ġprovided":2549,"inary":2550,"aff":2551,"Ġprec":2552,"Ġprinc":2553,"istance":2554,"Ġwriting":2555,"lex":2556,"wh":2557,"Ġeasy":2558,"Ġcaused":2559,"Ġterms":2560,"Ġmeaning":2561,"Ġsurv":2562,"Ġce":2563,"Ġcauses":2564,"ropri":2565,"Ġcheck":2566,"Ġ25":2567,"AT":2568,"ulations":2569,"istics":2570,"Ġshown":2571,"Ġmusic":2572,"ĠBritish":2573,"ĠCO":2574,"Ġschools":2575,"ĠAfter":2576,"aving":2577,"Ġsat":2578,"Ġregular":2579,"Ġpositive":2580,"Ġwild":2581,"Ġbacter":2582,"Ġincludes":2583,"Ġdesigned":2584,"Ġcarbon":2585,"Ã©":2586,"Ġthing":2587,"Ġtrue":2588,"ene":2589,"apan":2590,"Ġbring":2591,"Ġmethods":2592,"ronic":2593,"ĠEm":2594,"minist":2595,"Ġensure":2596,"Ġcontain":2597,"lands":2598,"ĠPe":2599,"lt":2600,"Ġdeep":2601,"ows":2602,"Ġrev":2603,"Ġrelative":2604,"Ġaverage":2605,"Ġetc":2606,"rior":2607,"Ġlif":2608,"Ġculture":2609,"Ġsex":2610,"Ġcompan":2611,"asc":2612,"Ġconc":2613,"Ġhelps":2614,"hood":2615,"Ġvide":2616,"Ġ11":2617,"ederal":2618,"ĠPar":2619,"Ġlove":2620,"ufact":2621,"ns":2622,"ĠResearch":2623,"Ġvariety":2624,"ster":2625,"Ġexc":2626,"Ġcolor":2627,"Ġelectric":2628,"Ġeat":2629,"Ġsimply":2630,"vey":2631,"Ġdamage":2632,"Ġ|":2633,"dom":2634,"my":2635,"ĠII":2636,"Ġidentify":2637,"itor":2638,"Ġfem":2639,"Ġbelieve":2640,"Ġinteg":2641,"ĠSchool":2642,"Ġevents":2643,"Ġviol":2644,"Ġaccept":2645,"rast":2646,"ĠSu":2647,"Ġstandard":2648,"Ġgreater":2649,"Ġearth":2650,"imately":2651,"Ġslow":2652,"Ġbal":2653,"Ġscientists":2654,"verse":2655,"Ġorigin":2656,"Ġdisord":2657,"ched":2658,"ĠNo":2659,"Ġface":2660,"Ġsources":2661,"ners":2662,"rought":2663,"atives":2664,"Ġissue":2665,"Ġresponse":2666,"Ġinvolved":2667,"aries":2668,"arily":2669,"ĠInstit":2670,"Ġled":2671,"eration":2672,"Ġstreng":2673,"Ġchalleng":2674,"gar":2675,"Ġtarget":2676,"Ġfoods":2677,"aling":2678,"Ġsometimes":2679,"Ġmechan":2680,"know":2681,"Ġfru":2682,"ades":2683,"Ġuses":2684,"Ġencoura":2685,"ength":2686,"Ġpsych":2687,"AR":2688,"Ġreported":2689,"Ġrespect":2690,"Ġcompet":2691,"ĠIndia":2692,"ister":2693,"abet":2694,"22":2695,"Ġemot":2696,"elling":2697,"Ġthreat":2698,"Ġdoing":2699,"Ġreview":2700,"Ġsubst":2701,"hel":2702,"Ġcompon":2703,"aches":2704,"Ġremov":2705,"But":2706,"Ġste":2707,"Ġnormal":2708,"Ġpoll":2709,"osition":2710,"Ġoriginal":2711,"Ġcust":2712,"Ġtend":2713,"ĠMin":2714,"Ġprograms":2715,"Ġ--":2716,"ials":2717,"amed":2718,"Ġmovement":2719,"rand":2720,"ucle":2721,"ervation":2722,"new":2723,"Ġattention":2724,"Ġlack":2725,"Ġ194":2726,"Ġparticularly":2727,"Ġoutside":2728,"Ġnetwork":2729,"ĠKing":2730,"Ġharm":2731,"light":2732,"Ġanimal":2733,"ĠPer":2734,"Ġdemon":2735,"Ġemb":2736,"ctions":2737,"Ġextreme":2738,"Ġforms":2739,"Ġsust":2740,"IN":2741,"ĠJapan":2742,"ming":2743,"Ġdeveloping":2744,"Ġgrowing":2745,"ĠÂ":2746,"Ġrefer":2747,"Ġir":2748,"idge":2749,"Ġvirus":2750,"Ġforest":2751,"Ġtax":2752,"Ġshare":2753,"Ġimplement":2754,"Ġserious":2755,"Ġselect":2756,"issions":2757,"duc":2758,"ĠPres":2759,"rench":2760,"Ġpict":2761,"Ġproduced":2762,"Ġpoor":2763,"Ġwritten":2764,"osure":2765,"ems":2766,"Ġple":2767,"Ġpage":2768,"Ġwood":2769,"ĠApp":2770,"Ġcontinue":2771,"room":2772,"ached":2773,"Ġgenerally":2774,"Ġcamp":2775,"Ġox":2776,"imum":2777,"oles":2778,"uge":2779,"oor":2780,"Ġdeb":2781,"Ġmagn":2782,"ĠQu":2783,"ĠSec":2784,"Ġvisit":2785,"umb":2786,"ief":2787,"Ġconsist":2788,"Ġmanufact":2789,"Ġdoesn":2790,"Ġlate":2791,"irit":2792,"Ġ/":2793,"Ġlog":2794,"Ġpatient":2795,"Ġdaily":2796,"Ġwebs":2797,"Ġaff":2798,"Ġattempt":2799,"Ġteachers":2800,"25":2801,"rated":2802,"Ġlat":2803,"Ġappl":2804,"osing":2805,"Ġhyd":2806,"ĠWill":2807,"set":2808,"Ġbasic":2809,"Ġkids":2810,"ĠChina":2811,"Ġdefin":2812,"Ġfeet":2813,"Ġimage":2814,"ads":2815,"ĠScience":2816,"Ġsafety":2817,"Ġaware":2818,"Ġcolon":2819,"Ġgetting":2820,"fect":2821,"ops":2822,"Ġforce":2823,"imin":2824,"ĠMe":2825,"Ġveget":2826,"Ġinternational":2827,"Ġcorrect":2828,"Ġap":2829,"Ġtools":2830,"isions":2831,"Ġindepend":2832,"Ġmedia":2833,"Ġnumbers":2834,"Ġincluded":2835,"Ġfinanc":2836,"iency":2837,"ĠAg":2838,"Ġago":2839,"ĠInt":2840,"ography":2841,"Ġeth":2842,"ha":2843,"erg":2844,"ĠAustral":2845,"ĠEd":2846,"Ġdraw":2847,"Ġseries":2848,"ĠPre":2849,"Ġprobably":2850,"rs":2851,"Ġcra":2852,"Ġdispl":2853,"asons":2854,"Ġallows":2855,"Ġtherefore":2856,"Ġeasily":2857,"iot":2858,"Ġtiss":2859,"Ġconcent":2860,"ecause":2861,"ĠMany":2862,"Ġcompanies":2863,"ĠAug":2864,"where":2865,"cies":2866,"Ġpolicy":2867,"Ġ24":2868,"Ġsqu":2869,"oly":2870,"Ġthus":2871,"ground":2872,"Ġmother":2873,"ided":2874,"Ġtakes":2875,"Ġsomeone":2876,"Ġexpress":2877,"--":2878,"Ġdetermine":2879,"vention":2880,"ribution":2881,"Ġtraditional":2882,"Ġattack":2883,"Ġdou":2884,"Ġprep":2885,"Ġoffer":2886,"Ġearl":2887,"oes":2888,"ying":2889,"uth":2890,"Ġcover":2891,"Ġbab":2892,"Ġcoun":2893,"Ġunique":2894,"Ġmental":2895,"ĠCount":2896,"Ġappropri":2897,"ext":2898,"term":2899,"cell":2900,"Ġperformance":2901,"Ġnight":2902,"Ġmess":2903,"Ġinvestig":2904,"Ġcommit":2905,"ĠYour":2906,"Ġestim":2907,"anks":2908,"ancy":2909,"Ġhumans":2910,"Ġachieve":2911,"Ġvit":2912,"Ġspeed":2913,"ĠCons":2914,"ĠEuropean":2915,"www":2916,"Ġprint":2917,"Ġwall":2918,"Ġinfection":2919,"Ġstarted":2920,"Ġlooking":2921,"Ġideas":2922,"ension":2923,"Ġful":2924,"ellow":2925,"Ġeval":2926,"Ġwarm":2927,"Ġrout":2928,"ties":2929,"ĠJu":2930,"Ġinstead":2931,"ĠMore":2932,"Ġreflect":2933,"IS":2934,"ls":2935,"overy":2936,"Ġcross":2937,"erson":2938,"Ġdecre":2939,"Ġunc":2940,"haps":2941,"Ġdifference":2942,"Ġprimary":2943,"Ġmultiple":2944,"Ġcit":2945,"Ġscientific":2946,"Ġcapt":2947,"Ġprogress":2948,"Ġcommunities":2949,"Ġquite":2950,"Ġdiseases":2951,"ĠJan":2952,"itude":2953,"Ġquickly":2954,"Ġsil":2955,"Ġlarger":2956,"Ġnation":2957,"Ġcompared":2958,"On":2959,"iforn":2960,"Ġsolar":2961,"Ġ,":2962,"Ġtown":2963,"Ġleaders":2964,"ino":2965,"Ġadded":2966,"Ġsecurity":2967,"rew":2968,"joy":2969,"Ġheld":2970,"Ġ40":2971,"Ġdang":2972,"Ġtree":2973,"Ġfav":2974,"rie":2975,"Ġsea":2976,"Ġestablished":2977,"ĠGerman":2978,"Ġimmedi":2979,"na":2980,"uary":2981,"nov":2982,"Ġtransport":2983,"ims":2984,"Ġsevere":2985,"Ġsold":2986,"ĠCenter":2987,"iques":2988,"Ġaltern":2989,"Ġinstit":2990,"ana":2991,"rate":2992,"Ġthous":2993,"Ġpoints":2994,"Ġbirth":2995,"Ġpack":2996,"ĠPart":2997,"inks":2998,"ror":2999,"omet":3000,"Ġvacc":3001,"ĠIndian":3002,"cil":3003,"aly":3004,"Ġhighly":3005,"21":3006,"Ġbooks":3007,"elt":3008,"ĠBr":3009,"Ġadditional":3010,"23":3011,"Ġsou":3012,"cial":3013,"Ġaspect":3014,"ius":3015,"Ġprior":3016,"Ġprotein":3017,"Ġspeak":3018,"Ġthird":3019,"Ġactive":3020,"ille":3021,"ĠBo":3022,"Ġdiv":3023,"Ġdirectly":3024,"Ġfa":3025,"ifornia":3026,"ift":3027,"ĠGl":3028,"One":3029,"Ġhttp":3030,"Ġinside":3031,"Ġdocument":3032,"Ġgard":3033,"Ġanaly":3034,"Ġcivil":3035,"Ġtowards":3036,"Ġstay":3037,"Ġworkers":3038,"ĠAc":3039,"Ġaccur":3040,"ĠEl":3041,"Ġexercise":3042,"Ġreve":3043,"Ġextra":3044,"ender":3045,"ington":3046,"ceed":3047,"Ġeye":3048,"bor":3049,"Ġanswer":3050,"Ġalthough":3051,"ON":3052,"Ġi":3053,"ĠMost":3054,"Ġbehind":3055,"cean":3056,"ĠInstitute":3057,"ĠEduc":3058,"Ġsoon":3059,"Ġstra":3060,"isms":3061,"itis":3062,"Ġclin":3063,"ounds":3064,"son":3065,"iers":3066,"Ġleading":3067,"Ġpurpose":3068,"Ġfoot":3069,"Ġdry":3070,"pe":3071,"uries":3072,"Ġsupply":3073,"Ġur":3074,"Ġdemonstr":3075,"abetes":3076,"Ġtri":3077,"pril":3078,"Ġtheory":3079,"Ġacid":3080,"Ġcritical":3081,"Ġdemand":3082,"useum":3083,"Ġbeginning":3084,"izations":3085,"ĠFrench":3086,"Ġlimited":3087,"Ġvalues":3088,"Ġcentral":3089,"Ġstrateg":3090,"Ġfamilies":3091,"Ġbroad":3092,"Ġcontribut":3093,"Ġbit":3094,"undred":3095,"AN":3096,"Ġlabor":3097,"Ġhost":3098,"Ġfront":3099,"Ġdrink":3100,"Ġcustom":3101,"fl":3102,"ĠOf":3103,"ĠAfrica":3104,"ĠDepartment":3105,"Ġrates":3106,"yr":3107,"olar":3108,"oke":3109,"Ġhands":3110,"gency":3111,"Ġsoftware":3112,"oming":3113,"Ġproced":3114,"omb":3115,"Ġbad":3116,"Ġmilitary":3117,"Ġaud":3118,"So":3119,"Ġtrees":3120,"Ġang":3121,"ĠSm":3122,"yond":3123,"den":3124,"Ġnegative":3125,"Ġstri":3126,"Ġquant":3127,"odies":3128,"ulate":3129,"Ġfram":3130,"vant":3131,"hens":3132,"iber":3133,"Ġobt":3134,"ĠRec":3135,"Ġexpect":3136,"Ġprocesses":3137,"ĠCalifornia":3138,"Ġfeatures":3139,"Ġveh":3140,"Ġagricult":3141,"âĢ¢":3142,"Ġenjoy":3143,"ching":3144,"fort":3145,"ĠReg":3146,"Ġsus":3147,"Ġsituation":3148,"Ġuseful":3149,"Ġdoctor":3150,"IC":3151,"Ġseems":3152,"Ġ2012":3153,"ĠChild":3154,"Ġwent":3155,"Ġteaching":3156,"ĠMarch":3157,"OR":3158,"Ġmom":3159,"Ġrequires":3160,"uman":3161,"ĠNot":3162,"Ġ2011":3163,"Ġones":3164,"Ġcapac":3165,"ĠSch":3166,"Ġfinancial":3167,"Ġhar":3168,"ĠSept":3169,"ĠHer":3170,"He":3171,"Ġsustain":3172,"hest":3173,"formation":3174,"mar":3175,"coh":3176,"ĠOct":3177,"ĠArt":3178,"Ġcapital":3179,"imal":3180,"ĠWest":3181,"Ġsn":3182,"Ġwalk":3183,"ĠChar":3184,"ĠTra":3185,"Ġmount":3186,"Ġvideo":3187,"Ġprotection":3188,"Ġsolution":3189,"thern":3190,"ĠJes":3191,"rition":3192,"Ġdark":3193,"rogen":3194,"ĠJune":3195,"Ġdecl":3196,"ipment":3197,"hern":3198,"Ġbase":3199,"ĠMon":3200,"Ġcosts":3201,"Ġwaste":3202,"Ġnucle":3203,"Ġprivate":3204,"Ġinfluence":3205,"Ġhabit":3206,"Ġsearch":3207,"Ġ2010":3208,"ĠAlthough":3209,"Ġshall":3210,"Ġapplication":3211,"Ġcard":3212,"Ġdecision":3213,"ĠAnt":3214,"Ġhor":3215,"gn":3216,"att":3217,"Ġtesting":3218,"Ġfight":3219,"Ġblock":3220,"mission":3221,"ĠInternational":3222,"Ġsection":3223,"con":3224,"Ġtrade":3225,"ĠDav":3226,"Ġagree":3227,"Ġimportance":3228,"ĠOther":3229,"Ġep":3230,"Ġelements":3231,"ologies":3232,"Ġelse":3233,"Ġexact":3234,"ĠUs":3235,"60":3236,"Ġtypically":3237,"Ġcontains":3238,"alt":3239,"And":3240,"ĠKe":3241,"ĠServ":3242,"lection":3243,"estic":3244,"âĢĿ.":3245,"IV":3246,"ĠAugust":3247,"Ġweeks":3248,"Ġminutes":3249,"pper":3250,"Ġlines":3251,"rag":3252,"Ġdisp":3253,"Ġthinking":3254,"Ġbacteria":3255,"24":3256,"Ġprojects":3257,"ĠMus":3258,"Ġwhose":3259,"istry":3260,"Ġcred":3261,"Ġadults":3262,"Ġfast":3263,"Ġefforts":3264,"Ġlargest":3265,"year":3266,"ĠHere":3267,"see":3268,"ĠHistory":3269,"ĠHar":3270,"Ġwrite":3271,"Ġwa":3272,"Ġbecomes":3273,"Ġancient":3274,"Ġappropriate":3275,"equ":3276,"iter":3277,"inct":3278,"uous":3279,"Ġnews":3280,"bol":3281,"come":3282,"ding":3283,"Ġinterp":3284,"cks":3285,"vest":3286,"life":3287,"Ġtechniques":3288,"Ġcarry":3289,"Ġreach":3290,"Ġleaves":3291,"Ġlength":3292,"Ġdevices":3293,"ĠFrom":3294,"AS":3295,"Ġexcept":3296,"wise":3297,"Ġadminist":3298,"rote":3299,"ĠAfrican":3300,"Ġlocated":3301,"Ġapplications":3302,"Ġhundred":3303,"iles":3304,"Ġinstall":3305,"Ġproperty":3306,"Ġbrought":3307,"ĠJuly":3308,"Ġjud":3309,"Ġdigital":3310,"Ġcru":3311,"Ġhot":3312,"ĠCor":3313,"Ġadj":3314,"Ġeyes":3315,"rig":3316,"Ġstru":3317,"Ġult":3318,"ilos":3319,"izes":3320,"Ġtransl":3321,"idents":3322,"ĠApril":3323,"Ġmill":3324,"used":3325,"ription":3326,"orthern":3327,"Ġlost":3328,"Ġcreating":3329,"strial":3330,"80":3331,"Ġdescribed":3332,"Ġbreat":3333,"Ġteeth":3334,"ĠDay":3335,"Ġgoal":3336,"Ġsites":3337,"sect":3338,"ĠRuss":3339,"ields":3340,"Ġgot":3341,"Ġ21":3342,"Ġcrop":3343,"Ġstage":3344,"Ġmemory":3345,"ĠRiver":3346,"Ġimages":3347,"ĠBar":3348,"Ġestablish":3349,"Ġadop":3350,"Ġeating":3351,"Ġrespond":3352,"Ġnearly":3353,"su":3354,"king":3355,"EN":3356,"Ġspirit":3357,"Ġmention":3358,"itable":3359,"Ġplaces":3360,"ulated":3361,"Ġrapid":3362,"Ġreceived":3363,"Ġseason":3364,"Ġtable":3365,"Ġenh":3366,"Ġfit":3367,"aid":3368,"inese":3369,"ham":3370,"Ġremains":3371,"AC":3372,"Ġweb":3373,"Ġcam":3374,"ĠFirst":3375,"Ġremain":3376,"Ġwebsite":3377,"Ġnorth":3378,"Ġmole":3379,"40":3380,"Ġtests":3381,"Ġproviding":3382,"Ġconstruction":3383,"ĠGree":3384,"Ġautom":3385,"ype":3386,"'re":3387,"Ġbasis":3388,"Ġord":3389,"Ġmix":3390,"ĠSw":3391,"tery":3392,"ipl":3393,"Ġsurround":3394,"ellig":3395,"ĠTw":3396,"Ġadvant":3397,"ogen":3398,"Ġbehavi":3399,"cohol":3400,"Ġfather":3401,"ĠProg":3402,"Ġfriends":3403,"Ġgame":3404,"Ġice":3405,"ari":3406,"atur":3407,"uk":3408,"rael":3409,"Ġcommunication":3410,"Ġsummer":3411,"resh":3412,"itect":3413,"Ġjo":3414,"ondon":3415,"Ġoverall":3416,"Ġcultural":3417,"ĠAssoci":3418,"Ġrare":3419,"Ġequipment":3420,"Ġborn":3421,"Ġtherapy":3422,"ribute":3423,"Ġorganization":3424,"Ġconnect":3425,"Ġyourself":3426,"Ġpractices":3427,"Ġsaw":3428,"Ġbeaut":3429,"Ġconsequ":3430,"Ġfinal":3431,"head":3432,"Ġtold":3433,"cles":3434,"At":3435,"Ġ2013":3436,"ros":3437,"ibrary":3438,"bit":3439,"Ġvict":3440,"illing":3441,"ony":3442,"Ġaffected":3443,"Ġreligious":3444,"aul":3445,"Ġeverything":3446,"oud":3447,"Ġx":3448,"Ġegg":3449,"Ġreasons":3450,"urg":3451,"ira":3452,"Ġdied":3453,"Ġgives":3454,"ĠCanada":3455,"Ġmodels":3456,"Ġpan":3457,"Ġdead":3458,"These":3459,"Ġanything":3460,"raft":3461,"Ġexposure":3462,"ran":3463,"Ġsequ":3464,"Ġcoast":3465,"iece":3466,"ĠMy":3467,"ford":3468,"Ġsugar":3469,"Ġ2009":3470,"rim":3471,"Ġweather":3472,"Ġbenefit":3473,"Ġcele":3474,"ama":3475,"Ġadapt":3476,"Ġprofessional":3477,"ĠInc":3478,"Ġcitiz":3479,"ĠChurch":3480,"Ġcool":3481,"arian":3482,"Ġcommunic":3483,"uments":3484,"Ġrecently":3485,"sec":3486,"water":3487,"mosp":3488,"By":3489,"ED":3490,"Ġsouth":3491,"ament":3492,"back":3493,"uff":3494,"Ġ2008":3495,"Ġcou":3496,"Ġhimself":3497,"Ġcode":3498,"Ġexpected":3499,"Ġdepend":3500,"Ġteacher":3501,"iar":3502,"ĠSeptember":3503,"med":3504,"Ġolder":3505,"ĠJesus":3506,"Ġresponsible":3507,"ĠAmericans":3508,"ĠGovern":3509,"exic":3510,"ĠEngland":3511,"ĠTechn":3512,"Ġcenter":3513,"Ex":3514,"ĠPresident":3515,"Ġmiddle":3516,"Ġvisual":3517,"IT":3518,"ĠGreat":3519,"Ġson":3520,"cember":3521,"ĠMc":3522,"Ġhope":3523,"Ġfuel":3524,"199":3525,"Ġcalcul":3526,"Ġbeyond":3527,"Ġguid":3528,"Ġpen":3529,"Ġhous":3530,"Ġroom":3531,"Ġnothing":3532,"Ġgradu":3533,"ocr":3534,"Ġrecommend":3535,"Ġimag":3536,"Ġcold":3537,"aur":3538,"ĠEc":3539,"Ġmiles":3540,"can":3541,"ĠPark":3542,"Ġ:":3543,"eal":3544,"aught":3545,"ĠChristian":3546,"time":3547,"Ġreceive":3548,"Ġexamples":3549,"Ġstrength":3550,"Ġchoose":3551,"ev":3552,"Ġinsp":3553,"Ġeconomy":3554,"Ġdate":3555,"ĠWash":3556,"With":3557,"Ġcontroll":3558,"Ġwon":3559,"Ġlocation":3560,"Ġder":3561,"Ġasked":3562,"Ġobjects":3563,"ĠLear":3564,"ovember":3565,"Ġstandards":3566,"Ġking":3567,"Ġvia":3568,"airs":3569,"Ġscreen":3570,"ĠChinese":3571,"Ġhyp":3572,"Ġfederal":3573,"ĠPress":3574,"ests":3575,"Ġlegal":3576,"Ġsmaller":3577,"ĠRoman":3578,"ste":3579,"wor":3580,"Ġfollowed":3581,"ĠCom":3582,"Ġcommand":3583,"Ġpet":3584,"anish":3585,"Ġmaintain":3586,"ĠEven":3587,"apter":3588,"Ġeffort":3589,"Ġopportunity":3590,"ĠOur":3591,"Ġpregn":3592,"Ġanti":3593,"men":3594,"Ġjoint":3595,"Ġten":3596,"Ġtrying":3597,"Ġpurch":3598,"While":3599,"Ġrise":3600,"Ġtox":3601,"ĠIsrael":3602,"Ġcurrently":3603,"Ġisn":3604,"____":3605,"Ġoccurs":3606,"Ġfear":3607,"ought":3608,"Ġcry":3609,"ĠBi":3610,"ĠRet":3611,"Ġeveryone":3612,"Ġund":3613,"Ġdevice":3614,"Ġsuccessful":3615,"ĠWilliam":3616,"enge":3617,"Ġearlier":3618,"Ġdiabetes":3619,"Ġsett":3620,"Ġmeasures":3621,"Ġenter":3622,"Ġrain":3623,"rees":3624,"Ġ60":3625,"ĠJanuary":3626,"Ġhon":3627,"Ġtit":3628,"27":3629,"ica":3630,"lin":3631,"Ġalone":3632,"Ġcommonly":3633,"wide":3634,"ĠCong":3635,"ĠDis":3636,"Ġhosp":3637,"Ġdifferences":3638,"Ġconflic":3639,"ĠDevelop":3640,"ĠCity":3641,"Ġbott":3642,"ensity":3643,"Ġtrack":3644,"Ġcompletely":3645,"Ġrob":3646,"Ġprice":3647,"ĠEast":3648,"ĠEducation":3649,"ĠHigh":3650,"ĠOctober":3651,"Ġswe":3652,"Ġreduced":3653,"Ġwoman":3654,"cious":3655,"ĠJournal":3656,"ula":3657,"Ġnote":3658,"Ġsigns":3659,"Ġrock":3660,"Ġlaws":3661,"ĠPol":3662,"Ġshape":3663,"Ġinteresting":3664,"co":3665,"Ġbul":3666,"Ġusers":3667,"Ġmid":3668,"Ġinstru":3669,"Ġdegree":3670,"ĠCounty":3671,"PA":3672,"Ġnutri":3673,"ĠMexic":3674,"Ġpredict":3675,"Ġhistorical":3676,"Ġwinter":3677,"Ġdeal":3678,"Ġcommerc":3679,"ĠThen":3680,"Ġconstant":3681,"Ġidentified":3682,"Ġmember":3683,"26":3684,"Ġbirds":3685,"bre":3686,"urban":3687,"book":3688,"ĠLondon":3689,"Some":3690,"aint":3691,"Ġapprox":3692,"Ġcapacity":3693,"Ġpatterns":3694,"ocks":3695,"ĠCommun":3696,"vert":3697,"oday":3698,"isl":3699,"Ġvirt":3700,"Ġmax":3701,"more":3702,"ĠFeb":3703,"Ġelectr":3704,"ĠVal":3705,"load":3706,"Ġwrote":3707,"Ġgoes":3708,"Ġrules":3709,"oration":3710,"Ġsteps":3711,"Ġroad":3712,"Ġ23":3713,"orge":3714,"Ġplaced":3715,"ibly":3716,"ĠTrans":3717,"ingu":3718,"Ġpowerful":3719,"iples":3720,"Ġforces":3721,"Ġgenetic":3722,"osy":3723,"Ġpoly":3724,"edom":3725,"mitted":3726,"ĠAccording":3727,"Ġrich":3728,"gin":3729,"Ġdiscovered":3730,"Ġacqu":3731,"Ġfile":3732,"Ġchurch":3733,"Ġbillion":3734,"amic":3735,"eech":3736,"Ġuser":3737,"Ġsect":3738,"Ġcontext":3739,"Ġmig":3740,"Ġscale":3741,"Ġ2007":3742,"Ġoccup":3743,"ĠRed":3744,"ĠSystem":3745,"Ġcollection":3746,"Ġbra":3747,"Ġmachine":3748,"ĠRo":3749,"iable":3750,"Ġeight":3751,"Ġtur":3752,"edia":3753,"Ġnamed":3754,"off":3755,"ogle":3756,"Ġformer":3757,"Ġsitu":3758,"enty":3759,"ĠBlack":3760,"Ġneigh":3761,"ĠVir":3762,"Ġcateg":3763,"Ġmiss":3764,"Ġtissue":3765,"rab":3766,"aters":3767,"itch":3768,"Ġcoming":3769,"Ġeffic":3770,"Ġemissions":3771,"Ġincreases":3772,"Ġgold":3773,"Ġacad":3774,"Ġchallenges":3775,"29":3776,"Ġlimit":3777,"Ġpresence":3778,"related":3779,"ĠWashington":3780,"abilities":3781,"Ġmob":3782,"aste":3783,"reet":3784,"Ġcompar":3785,"Ġefficient":3786,"Ġexec":3787,"Ġallowed":3788,"Ġstories":3789,"Ġshowed":3790,"Ġdrugs":3791,"Ġplanet":3792,"bl":3793,"Ġfully":3794,"ords":3795,"ĠDecember":3796,"que":3797,"Ġremember":3798,"Ġperfect":3799,"irection":3800,"Ġstatus":3801,"Ġdestro":3802,"Ġmis":3803,"Ġfair":3804,"Ġrelatively":3805,"rec":3806,"iences":3807,"Ġinnov":3808,"Ġast":3809,"Ġapplied":3810,"Ġimmune":3811,"Ġcontinued":3812,"Ġleave":3813,"Ġformed":3814,"Ġbaby":3815,"iest":3816,"AL":3817,"Ġmut":3818,"ĠRead":3819,"Ġatmosp":3820,"ees":3821,"hemat":3822,"Ġconstit":3823,"gery":3824,"Ġmajority":3825,"Ġillness":3826,"70":3827,"ĠInst":3828,"Ġsymbol":3829,"Ġasse":3830,"Ġcomponents":3831,"Ġchanged":3832,"Ġrat":3833,"ĠSan":3834,"known":3835,"Ġdisplay":3836,"Ġwond":3837,"ocol":3838,"Ġrule":3839,"Ġincor":3840,"28":3841,"ĠDuring":3842,"Ġassign":3843,"ĠSim":3844,"orage":3845,"Ġactions":3846,"Ġworth":3847,"Ġpromot":3848,"Ġbalance":3849,"Ġden":3850,"ĠWater":3851,"Ġmouth":3852,"Ġtou":3853,"Ġalcohol":3854,"Ġgave":3855,"ĠIS":3856,"Ġ193":3857,"Ġfactor":3858,"Ġmilk":3859,"Ġing":3860,"ĠGermany":3861,"uro":3862,"Ġdat":3863,"Ġoffers":3864,"ĠCoun":3865,"Ġpp":3866,"aled":3867,"oe":3868,"Ġstim":3869,"ĠSince":3870,"ternal":3871,"Ġbox":3872,"phas":3873,"Ġteach":3874,"hab":3875,"Ġproperties":3876,"Ġmuscle":3877,"ĠArch":3878,"Pro":3879,"Ġantib":3880,"HE":3881,"lor":3882,"ruary":3883,"Ad":3884,"rick":3885,"amb":3886,"ĠPat":3887,"iring":3888,"ĠHouse":3889,"Ġappears":3890,"Ġchoice":3891,"ĠBecause":3892,"Ġbreast":3893,"II":3894,"Ġexisting":3895,"Ġcities":3896,"ero":3897,"ĠMod":3898,"Ġoptions":3899,"Ġcourt":3900,"Ġconsumption":3901,"ĠUnion":3902,"Ġmoment":3903,"Ġversion":3904,"Ġriver":3905,"craft":3906,"era":3907,"ĠSur":3908,"Ġfruit":3909,"Ġgoals":3910,"Ġcook":3911,"Ġillust":3912,"iate":3913,"Ġ2014":3914,"rupt":3915,"Ġperhaps":3916,"Ġfemale":3917,"Ġball":3918,"Ġorganizations":3919,"Ġstaff":3920,"ĠFin":3921,"ara":3922,"rehens":3923,"care":3924,"Ġbelief":3925,".;":3926,"ĠNovember":3927,"Ġvill":3928,"ĠNow":3929,"Ġstrugg":3930,"encies":3931,"Ġmoving":3932,"Ġpeace":3933,"unch":3934,"Ġtask":3935,"Ġobserved":3936,"ĠDNA":3937,"Ġdidn":3938,"Ġopportunities":3939,"Ġabsor":3940,"Ġstrategies":3941,"Ġmonit":3942,"Ġsignificantly":3943,"atin":3944,"ĠLaw":3945,"Ġroot":3946,"Ġassist":3947,"Ġfunctions":3948,"Ġpow":3949,"Ġfresh":3950,"Ġexplore":3951,"EC":3952,"ĠAre":3953,");":3954,"Ġ+":3955,"Ġfriend":3956,"Ġcollabor":3957,"resp":3958,"Ġrunning":3959,"Ġemp":3960,"Ġreports":3961,"Ġsch":3962,"Ġexpand":3963,"ĠCour":3964,"ĠUK":3965,"ĠProt":3966,"Ġtransfer":3967,"ygen":3968,"iful":3969,"Ġgir":3970,"Ġbone":3971,"Ġgiving":3972,"Ġwid":3973,"Ġguide":3974,"Ġmap":3975,"Ġregions":3976,"iny":3977,"Â°":3978,"emy":3979,"rief":3980,"house":3981,"Ġinstance":3982,"Ġconstruct":3983,"ĠJewish":3984,"ST":3985,"ĠSociety":3986,"Ġattract":3987,"Ġblue":3988,"Ġforward":3989,"che":3990,"Ġevalu":3991,"Ġitems":3992,"Ġunit":3993,"Ġarchitect":3994,"ĠUse":3995,"ĠJust":3996,"Ġevolution":3997,"icip":3998,"Ġtele":3999,"Ġeducational":4000,"force":4001,"Ġgarden":4002,"Ġdistance":4003,"ĠPeople":4004,"Ġplanning":4005,"Ġincome":4006,"gypt":4007,"Ġpiece":4008,"Ġmission":4009,"igen":4010,"ux":4011,"Ġtub":4012,"Ġ195":4013,"odes":4014,"nes":4015,"ulf":4016,"Ġdetect":4017,"Ġrepe":4018,"ographic":4019,"Ġelectricity":4020,"uild":4021,"Ġexperim":4022,"Ġforeign":4023,"Un":4024,"Ġdetails":4025,"Ġbound":4026,"ession":4027,"Ġindustrial":4028,"ĠConf":4029,"Ġaim":4030,"ĠLord":4031,"aign":4032,"do":4033,"ĠAlso":4034,"Be":4035,"Ġ2000":4036,"Ġequal":4037,"Ġ26":4038,"\",":4039,"asion":4040,"ĠPhil":4041,"ĠAssociation":4042,"Ġdefined":4043,"Ġelement":4044,"âĢĿ,":4045,"Ġexperiences":4046,"yd":4047,"Ġconvers":4048,"ĠGeneral":4049,"ĠTheir":4050,"xi":4051,"ĠMedic":4052,"Ġwrong":4053,"Ġnames":4054,"Ġexplain":4055,"Ġworked":4056,"Ġinstruct":4057,"Ġutil":4058,"Ġbodies":4059,"Ġfindings":4060,"Ġ28":4061,"Ġthousands":4062,"Ġresistance":4063,"Ġvo":4064,"ĠProf":4065,"Ġstyle":4066,"ifically":4067,"Ġcommercial":4068,"Ġqual":4069,"Ġdirection":4070,"Ġweak":4071,"ET":4072,"ĠAustralia":4073,"Ġpicture":4074,"Ġphilos":4075,"Ġsac":4076,"cast":4077,"Ġintellig":4078,"part":4079,"Ġhappen":4080,"Ġ2015":4081,"Ġsuppl":4082,"Ġcontract":4083,"Ġbank":4084,"Ġclinical":4085,"ĠFrance":4086,"Ġhair":4087,"ĠEnvironment":4088,"asks":4089,"Ġsoci":4090,"rieved":4091,"rome":4092,"Ġhuge":4093,"eding":4094,"Ġexcess":4095,"Ġextremely":4096,"Ġpul":4097,"Ġchance":4098,"Ġ22":4099,"Ġ27":4100,"ares":4101,"Ġfix":4102,"Ġinsect":4103,"udd":4104,"Ġstar":4105,"Ġtrust":4106,"inated":4107,"90":4108,"Ġurban":4109,"Ġresource":4110,"Ġheavy":4111,"wards":4112,"cular":4113,"Ġrot":4114,"Ġpassed":4115,"Ġmal":4116,"isation":4117,"Ġbelieved":4118,"Ġfilm":4119,"Ġeasier":4120,"Ġeventually":4121,"char":4122,"pective":4123,"After":4124,"Ġseven":4125,"Ġmale":4126,"iance":4127,"Ġgain":4128,"ructure":4129,"Ġplans":4130,"Ġassum":4131,"Ġgeneration":4132,"ken":4133,"Ġfigure":4134,"ĠUN":4135,"ĠColle":4136,"Ġrequirements":4137,"Ġsuggests":4138,"Ġexhib":4139,"hors":4140,"Ġbed":4141,"ously":4142,"DA":4143,"Ġvary":4144,"Ġdecades":4145,"Ġwatch":4146,"ĠAut":4147,"Ġglass":4148,"Ġtechnologies":4149,"eces":4150,"iding":4151,"Ġimmediately":4152,"Ġcarried":4153,"ĠDavid":4154,"lim":4155,"Ġsave":4156,"Ġcelebr":4157,"Ġstructures":4158,"Ġmo":4159,"cont":4160,"Ġplastic":4161,"Ġapply":4162,"Ġmetal":4163,"Ġspect":4164,"Ġnative":4165,"Ġ2006":4166,"ĠGreen":4167,"Ġtreated":4168,"Ġclassroom":4169,"Ġsurpr":4170,"Ġtemperatures":4171,"ĠWestern":4172,"Ġreducing":4173,"Ġvision":4174,"pped":4175,"All":4176,"ĠEach":4177,"ĠLet":4178,"Ġhighest":4179,"Ġdivid":4180,"Ġseparate":4181,"plications":4182,"ĠNA":4183,"Ġinflamm":4184,"Ġlearned":4185,"Ġfert":4186,"Ġcitizens":4187,"Ġhousehold":4188,"They":4189,"ĠDon":4190,"Ġfavor":4191,"antic":4192,"Ġsurvey":4193,"Is":4194,"Ġtopic":4195,"Ġoffice":4196,"ĠInternet":4197,"ĠProgram":4198,"Ġiron":4199,"Ġemphas":4200,"ĠFebruary":4201,"Ġcycle":4202,"ĠEgypt":4203,"oma":4204,"ĠDes":4205,"roph":4206,"ĠPublic":4207,"Ġchallenge":4208,"Ġfrequently":4209,"change":4210,"Ġassessment":4211,"Ġconducted":4212,"Ġrecommended":4213,"Ġdyn":4214,"ky":4215,"Ġslight":4216,"Ġpresented":4217,"Ġaspects":4218,"35":4219,"Ġnovel":4220,"Ġdecisions":4221,"Ġves":4222,"Ġ2016":4223,"ald":4224,"ĠAng":4225,"Ġfeature":4226,"ĠMat":4227,"Ġagg":4228,"ĠBra":4229,"omas":4230,"Ġperformed":4231,"Ġstorage":4232,"ĠChe":4233,"ĠCur":4234,"Ġjournal":4235,"enth":4236,"Ġdisorder":4237,"Ġoxygen":4238,"Ġserve":4239,"Ġrelease":4240,"Ġphen":4241,"Ġsample":4242,"ĠMary":4243,"Ġinvolves":4244,"ĠPlan":4245,"ologist":4246,"Ġspeech":4247,"Ġsolutions":4248,"Ġremove":4249,"unction":4250,"Ġapproximately":4251,"Ġintroduced":4252,"Ġpick":4253,"ĠThus":4254,"Ġbecoming":4255,"ris":4256,"Ġrisks":4257,"Ġiniti":4258,"ĠCongress":4259,"ĠOver":4260,"iant":4261,"ĠGeorge":4262,"Ġexperiment":4263,"Ġmer":4264,"Ġconnected":4265,"Ġdesp":4266,"Ġnuclear":4267,"Ġdrop":4268,"PS":4269,"Ġfig":4270,"Ġgene":4271,"Ġcombination":4272,"Ġinfections":4273,"ĠVol":4274,"ĠInter":4275,"Ġalternative":4276,"Ġcausing":4277,"Ġnutrition":4278,"Ġorganic":4279,"Ġ2005":4280,"Ġreality":4281,"Ġkid":4282,"Ġestimated":4283,"Ġspring":4284,"ilit":4285,"AM":4286,"Ph":4287,"olid":4288,"ĠSpanish":4289,"hetic":4290,"Ġreference":4291,"Ġliterature":4292,"Ġbuildings":4293,"ulum":4294,"Ġchronic":4295,"osystem":4296,"Ġbuy":4297,"uses":4298,"Ġtruth":4299,"ĠWeb":4300,"porary":4301,"atform":4302,"ĠRev":4303,"Ġtrend":4304,"roup":4305,"iveness":4306,"Ġpolicies":4307,"Ġactual":4308,"ĠCouncil":4309,"imens":4310,"ĠJames":4311,"Ġdepression":4312,"78":4313,"Ġoperations":4314,"Ġfamous":4315,"Ġhomes":4316,"Ġoutput":4317,"Ġsetting":4318,"Ġunivers":4319,"Ġvitamin":4320,"met":4321,"Ġpi":4322,"erate":4323,"Ġhorm":4324,"CO":4325,"ses":4326,"ologists":4327,"Ġpresident":4328,"urance":4329,"ĠTherefore":4330,"Ġliqu":4331,"Ġâ":4332,"ĠMich":4333,"ĠWork":4334,"Ġdistribution":4335,"Ġstream":4336,"RE":4337,"Ġnumerous":4338,"key":4339,"Ġign":4340,"ĠChildren":4341,"icial":4342,"erences":4343,"tee":4344,"ĠSpec":4345,"45":4346,"Ġthr":4347,"Ġgets":4348,"ager":4349,"Sh":4350,"bal":4351,"Ġanyone":4352,"Ġviolence":4353,"Ġhom":4354,"Ġboard":4355,"olved":4356,"Ġmag":4357,"Ġ80":4358,"ĠMor":4359,"ognitive":4360,"Ġstore":4361,"Ġreleased":4362,"Ġinjury":4363,"Ġdestroy":4364,"Ġisol":4365,"Ġalg":4366,"Ġinitial":4367,"Ġadjust":4368,"ĠCollege":4369,"Ġindependent":4370,"Ġdivers":4371,"Ġdiscussion":4372,"zz":4373,"ĠUnder":4374,"ĠPal":4375,"Ġcand":4376,"Ġclearly":4377,"ping":4378,"xiety":4379,"Ġpartners":4380,"ĠFood":4381,"Ġfailure":4382,"Ġoption":4383,"Ġlegisl":4384,"Ġwidely":4385,"Ġreplace":4386,"Ġresulting":4387,"Ġdri":4388,"Ġstarting":4389,"ault":4390,"ĠRel":4391,"ĠSee":4392,"ĠDevelopment":4393,"Ġmoved":4394,"Ġmedicine":4395,"Ġnotes":4396,"Ġdoub":4397,"Ġradiation":4398,"Ġcovered":4399,"clus":4400,"Ġchanging":4401,"Ġcharacteristics":4402,"ij":4403,"Ġconnection":4404,"rest":4405,"Ġfine":4406,"Ġesc":4407,"Ġcontrast":4408,"Ġfreedom":4409,"Ġrelationships":4410,"Ġlung":4411,"anging":4412,"Ġtrig":4413,"ĠJapanese":4414,"Ġopin":4415,"Ġhear":4416,"Ġprefer":4417,"Ġletter":4418,"Ġ190":4419,"ĠTex":4420,"Ġcompl":4421,"elines":4422,"edic":4423,"Ġpric":4424,"ĠMuseum":4425,"Ġload":4426,"Ġtrib":4427,"ĠNet":4428,"order":4429,"lick":4430,"Ġreprodu":4431,"rep":4432,"Ġ2017":4433,"Ġwanted":4434,"ĠHuman":4435,"However":4436,"Ġlived":4437,"Ġthick":4438,"othes":4439,"apers":4440,"ĠTest":4441,"Ġtechnique":4442,"Ġadvanced":4443,"Ġvessel":4444,"Ġ90":4445,"Ġpopulations":4446,"Ġrecords":4447,"Ġtooth":4448,"ĠDec":4449,"works":4450,"ĠRetrieved":4451,"Ġupd":4452,"ressive":4453,"Ġsav":4454,"Ġmeat":4455,"Ġtour":4456,"Ġsurgery":4457,"ĠOb":4458,"Ġparticipants":4459,"Ġinternal":4460,"Ġencourage":4461,"ocal":4462,"Ġseeds":4463,"Ġprepar":4464,"Ġclasses":4465,"Ġreferred":4466,"Ġproperly":4467,"ĠGovernment":4468,"Ġshap":4469,"Ġcrucial":4470,"Ġexpression":4471,"Ġ29":4472,"rant":4473,"ĠAv":4474,"Ġgraph":4475,"Ġincorpor":4476,"33":4477,"Ġdogs":4478,"Ġcomprehens":4479,"Ġscen":4480,"Ġsexual":4481,"Ġdisorders":4482,"tered":4483,"Ġannual":4484,"Ġpip":4485,"Ġmotor":4486,"Ġdrive":4487,"Ġsand":4488,"Ġmostly":4489,"Ġcalc":4490,"tical":4491,"Ġ#":4492,"Ġfields":4493,"Ġexpert":4494,"Ġdistinct":4495,"According":4496,"Ġdepending":4497,"Ġbottom":4498,"Ġturned":4499,"Ġlayer":4500,"Ġprocessing":4501,"Ġupper":4502,"ception":4503,"Ġefficiency":4504,"Ġhappens":4505,"ida":4506,"Ġwin":4507,"Ġvul":4508,"Ġminor":4509,"Ġpromote":4510,"Ġappe":4511,"Ġexcell":4512,"ĠGra":4513,"Ġregarding":4514,"urt":4515,"Ġready":4516,"Ar":4517,"Ġburn":4518,"Ġflood":4519,"ii":4520,"Ġtim":4521,"erved":4522,"Ġexactly":4523,"ias":4524,"Ġarm":4525,"anch":4526,"ortunately":4527,"onds":4528,"Ġfaith":4529,"Ġcreation":4530,"Ġconfirm":4531,"raction":4532,"Ġnoted":4533,"Ġexperts":4534,"ĠRepublic":4535,"Ġconv":4536,"ĠWhy":4537,"Ġdetermined":4538,"Ġauthors":4539,"Ġbackground":4540,"Ġterrit":4541,"Ġhelped":4542,"ĠAir":4543,"rows":4544,"Ġdegrees":4545,"atically":4546,"Ġpages":4547,"raw":4548,"Ġleads":4549,"ĠFore":4550,"EM":4551,"Ġdie":4552,"ĠProject":4553,"Ġmentioned":4554,"ped":4555,"Ġeffectively":4556,"ĠOrgan":4557,"ĠFound":4558,"Ġtrou":4559,"Ġmessage":4560,"Ġocean":4561,"Ġmanage":4562,"Ġmel":4563,"ĠSam":4564,"Ġclick":4565,"oking":4566,"Ġcampaign":4567,"ĠHIV":4568,"eties":4569,"Ġprofession":4570,"Ġbud":4571,"Ġheard":4572,"Ġelimin":4573,"Ġinvolve":4574,"ĠMexico":4575,"Ġemail":4576,"Ġmeeting":4577,"ophy":4578,"Ġacademic":4579,"standing":4580,"Ġfeeling":4581,"Ġcircum":4582,"Ġjour":4583,"Ġvolume":4584,"Ġdangerous":4585,"mark":4586,"onic":4587,"ĠSocial":4588,"ishing":4589,"Ġsustainable":4590,"Ġamounts":4591,"Ġ2020":4592,"ĠAD":4593,"Ġdiagnosis":4594,"Ġremoved":4595,"Ġkilled":4596,"Ġemotional":4597,"Ġnor":4598,"Ġbattle":4599,"Ġgenes":4600,"bed":4601,"Ġsynt":4602,"ĠOnce":4603,"Ġhttps":4604,"Ġsaying":4605,"Ġhelping":4606,"oyal":4607,"ĠHen":4608,"Ġparty":4609,"Ġmanufacture":4610,"Ġbelong":4611,"Ġlinked":4612,"ĠGreek":4613,"75":4614,"Ġcollege":4615,"Ġinterested":4616,"bi":4617,"Ġwhom":4618,"Ġ...":4619,"Ġgrass":4620,"Ġdefic":4621,"Ġdram":4622,"Ġfinding":4623,"Ġexperienced":4624,"ria":4625,"rence":4626,"Ġcontribute":4627,"ander":4628,"ĠJer":4629,"Ġunf":4630,"Ġpreviously":4631,"cers":4632,"ategy":4633,"Ġplatform":4634,"Ġcounter":4635,"uit":4636,"Ġunits":4637,"Res":4638,"Ġtum":4639,"ios":4640,"Ġround":4641,"ĠService":4642,"Ġsolid":4643,"ĠRich":4644,"Ġlandsc":4645,"Many":4646,"Ġconcerns":4647,"Ġreaction":4648,"Ġship":4649,"Ġconsult":4650,"Ġaid":4651,"Here":4652,"Ġchemicals":4653,"Ġimproved":4654,"Ġ70":4655,"36":4656,"Ġtransform":4657,"Ġstrategy":4658,"RO":4659,"Ġcore":4660,"ĠDem":4661,"Ġvegetables":4662,"Ġyouth":4663,"Sp":4664,"Ġplease":4665,"Ġadvantage":4666,"ndrome":4667,"uable":4668,"mal":4669,"Ġspot":4670,"Ġexposed":4671,"Ġgender":4672,"Ġbeautiful":4673,"Ġmotiv":4674,"Ġcomfort":4675,"Ġwealth":4676,"Ġimpl":4677,"ded":4678,"well":4679,"ĠMark":4680,"Ġradio":4681,"Con":4682,"road":4683,"Ġdecided":4684,"alle":4685,"Ġgrant":4686,"zing":4687,"uing":4688,"tes":4689,"Ġphysic":4690,"Ġgames":4691,"Ġsem":4692,"Ġfib":4693,"Ġrace":4694,"ĠTur":4695,"Ġrelevant":4696,"Ġessay":4697,"Ġfarmers":4698,"Ġconservation":4699,"ya":4700,"Ġhour":4701,"Ġdigest":4702,"Ġserved":4703,"Ġinfluen":4704,"ĠPaul":4705,"ressed":4706,"Ġarticles":4707,"riculum":4708,"with":4709,"Ġconflict":4710,"ĠTexas":4711,"ĠMac":4712,"ĠIsland":4713,"Ġobvious":4714,"rans":4715,"Ġmort":4716,"essor":4717,"Ġlanguages":4718,"Ġdefinition":4719,"CC":4720,"Ġdescribe":4721,"rum":4722,"Ġoperation":4723,"Ġkept":4724,"ĠLa":4725,"ĠStudents":4726,"Ġmeant":4727,"Ġdatab":4728,"ĠIts":4729,"Ġprepared":4730,"orial":4731,"ĠRober":4732,"Ġ2004":4733,"wood":4734,"Ġdiss":4735,"nic":4736,"Ġcontinues":4737,"ributed":4738,"ĠWhite":4739,"Ġengineering":4740,"Ġofficial":4741,"Ġinterpret":4742,"ta":4743,"leg":4744,"Ġstatement":4745,"Ġseed":4746,"ĠST":4747,"board":4748,"ĠSun":4749,"Ġpret":4750,"Ġtoxic":4751,"Ġwel":4752,"Ġhearing":4753,"Ġconcepts":4754,"Ġecosystem":4755,"38":4756,"Ġprinciples":4757,"lease":4758,"rog":4759,"Ġseek":4760,"ĠPhys":4761,"Ġblog":4762,"Ġmist":4763,"Ġisland":4764,"Our":4765,"Ġpractical":4766,"Ġcere":4767,"opes":4768,"acing":4769,"berg":4770,"Ġmathemat":4771,"Ġeggs":4772,"That":4773,"Why":4774,"mat":4775,"which":4776,"och":4777,"Ġsong":4778,"Ġreached":4779,"ĠMiss":4780,"Im":4781,"Ġatmosphere":4782,"Ġsituations":4783,"uration":4784,"Ġdiscover":4785,"Ġsamples":4786,"Ġoral":4787,"Ġconcern":4788,"Ġinput":4789,"Ġsecret":4790,"Ġwet":4791,"ĠCath":4792,"itz":4793,"ĠMount":4794,"Ġvot":4795,"Ġspent":4796,"ĠBel":4797,"uted":4798,"aughter":4799,"Ġgoods":4800,"Ġnorthern":4801,"Ġbegins":4802,"ĠAcad":4803,"ĠSer":4804,"Ġallowing":4805,"vision":4806,"ĠDi":4807,"Ġowners":4808,"ĠCam":4809,"Ġreb":4810,"Ġkill":4811,"Ġphase":4812,"Ġawareness":4813,"Ġjobs":4814,"ĠEvery":4815,"Ġsort":4816,"Ġfol":4817,"ĠOld":4818,"alled":4819,"Now":4820,"umn":4821,"ĠMars":4822,"Ġcast":4823,"Ġanxiety":4824,"Ġmanner":4825,"Ġformation":4826,"Ġpieces":4827,"ormal":4828,"Ġinvent":4829,"Ġconsequences":4830,"isher":4831,"Ġtechnical":4832,"Ġcredit":4833,"amental":4834,"Ġ186":4835,"Ġpollution":4836,"comes":4837,"Ġclos":4838,"ĠPort":4839,"Cl":4840,"ishes":4841,"New":4842,"ifying":4843,"Although":4844,"Ġmath":4845,"Ġnotice":4846,"Ġ2003":4847,"Ġpresc":4848,"Ġpray":4849,"rastructure":4850,"akers":4851,"Ġshared":4852,"ĠJews":4853,"ĠMet":4854,"ĠRem":4855,"ĠAtl":4856,"Ġreduction":4857,"ĠAsia":4858,"Ġhyper":4859,"Ġstraight":4860,"ĠSub":4861,"ĠOff":4862,"Ġconclud":4863,"za":4864,"Ġelectrical":4865,"100":4866,"ĠAI":4867,"Ġconver":4868,"Ġhospital":4869,"clusion":4870,"Ġmaster":4871,"Ġyellow":4872,"Ġsouthern":4873,"Ġlesson":4874,"Ġgod":4875,"Ġ35":4876,"place":4877,"Ġpurposes":4878,"Ġinstitutions":4879,"34":4880,"EL":4881,"Ġappoint":4882,"Ġsquare":4883,"iverse":4884,"otic":4885,"Ġvulner":4886,"astern":4887,"lig":4888,"Ġflex":4889,"Ġprimarily":4890,"ago":4891,"Ġmainly":4892,"Ġnit":4893,"Ġauthority":4894,"Ġreligion":4895,"Ġnav":4896,"inger":4897,"Ġrecy":4898,"Ġcoal":4899,"Ġvital":4900,"Ġadvance":4901,"Ġgrade":4902,"Ġextensive":4903,"roke":4904,"ificial":4905,"Ġproteins":4906,"vis":4907,"Ġperman":4908,"Ġnutrients":4909,"Ġther":4910,"Ġrecorded":4911,"ado":4912,"ĠCourt":4913,"Ġstone":4914,"Ġsignal":4915,"Ġproposed":4916,"ĠBas":4917,"onomic":4918,"Ġmonitoring":4919,"Ġcharge":4920,"Ġintended":4921,"Ġimpacts":4922,"ounced":4923,"Ġideal":4924,"Ġwest":4925,"des":4926,"Ġprocedure":4927,"istan":4928,"Ġ2001":4929,"Ġcorresp":4930,"Ġsupported":4931,"Ġrevolution":4932,"Ġcareer":4933,"ael":4934,"Ġpark":4935,"espite":4936,"Ġindicate":4937,"Ġbrief":4938,"Ġvolunt":4939,"Ġdoll":4940,"Ġfacts":4941,"eline":4942,"Ġlooks":4943,"ancing":4944,"Ġdro":4945,"Ġtreatments":4946,"ball":4947,"Ġcompleted":4948,"Ġvaccine":4949,"Ġfort":4950,"ĠArab":4951,"Ġsector":4952,"Ġtasks":4953,"Ġspend":4954,"Ġcenturies":4955,"ĠCentral":4956,"osite":4957,"ĠâĢ¢":4958,"ĠLou":4959,"acters":4960,"Ġlov":4961,"ĠCle":4962,"OS":4963,"Ġpun":4964,"Ġmorning":4965,"isp":4966,"AD":4967,"eters":4968,"ules":4969,"ĠDise":4970,"Ġoperating":4971,"Ġ*":4972,"going":4973,"rations":4974,"Ġspecifically":4975,"iling":4976,"Ġsufficient":4977,"omin":4978,"OT":4979,"Ġbrother":4980,"Ġagricultural":4981,"Ġsettle":4982,"ĠBritain":4983,"Ġoffered":4984,"atric":4985,"ĠBer":4986,"kin":4987,"Ġshar":4988,"rete":4989,"Ġprofessor":4990,"Ġrenew":4991,"ears":4992,"Ġpal":4993,"Ġfinally":4994,"stitution":4995,"Ġfocused":4996,"Ġsounds":4997,"Ġsin":4998,"ĠEv":4999,"Ġsusp":5000,"Ġlic":5001,"Ġstation":5002,"Ġstorm":5003,"Ġwaters":5004,"Ġheight":5005,"Ġkeeping":5006,"ras":5007,"Ġbright":5008,"Ġaffects":5009,"ĠCivil":5010,"Ġcollected":5011,"Ġexcellent":5012,"ek":5013,"ht":5014,"nel":5015,"ĠEnergy":5016,"ensus":5017,"Ġvehicle":5018,"Ġcoord":5019,"ĠHel":5020,"'ll":5021,"Ã¡":5022,"riage":5023,"ossible":5024,"ĠMart":5025,"Ġraised":5026,"Ġdrinking":5027,"Ġextent":5028,"gl":5029,"ams":5030,"Ġcombined":5031,"Ġdomestic":5032,"Ġtaught":5033,"Ġresponsibility":5034,"Ġfrequency":5035,"à¤":5036,"aturally":5037,"ĠJe":5038,"rapy":5039,"osen":5040,"Ġsalt":5041,"Ġpros":5042,"acific":5043,"Ġdiam":5044,"Ġdespite":5045,"ipped":5046,"Ġexternal":5047,"aker":5048,"point":5049,"Ġhaz":5050,"Ġadvice":5051,"roid":5052,"ĠFurther":5053,"Ġban":5054,"umin":5055,"Ġfluid":5056,"ĠSen":5057,"Ġkinds":5058,"Ġvent":5059,"Ġshowing":5060,"Ġmuscles":5061,"Ġforced":5062,"ework":5063,"oxide":5064,"arrow":5065,"Ab":5066,"Ġfacilities":5067,"ĠMedicine":5068,"rier":5069,"Ġoccurred":5070,"Most":5071,"Ġimmig":5072,"osa":5073,"ĠMr":5074,"Ġaren":5075,"tion":5076,"Ġrefers":5077,"ĠSal":5078,"No":5079,"ague":5080,"ĠIsl":5081,"ĠÎ":5082,"gal":5083,"inent":5084,"igenous":5085,"Ġremained":5086,"Ġmoist":5087,"ey":5088,"eria":5089,"Ġsed":5090,"Ġlargely":5091,"BC":5092,"ĠFre":5093,"omy":5094,"Ġresist":5095,"Ġmetab":5096,"Ġnerv":5097,"pen":5098,"ĠNews":5099,"Ġaccurate":5100,"uke":5101,"Ġvast":5102,"Ġfaster":5103,"Ġmaximum":5104,"down":5105,"oper":5106,"Ġemergency":5107,"Ġwonder":5108,"Ġcertainly":5109,"From":5110,"Ġcomment":5111,"Ġhit":5112,"Ġexistence":5113,"95":5114,"Ġsurrounding":5115,"Ġbusinesses":5116,"ample":5117,"gra":5118,"rates":5119,"Ġlib":5120,"Ġprices":5121,"Ġkn":5122,"inding":5123,"anges":5124,"].":5125,"Pl":5126,"gment":5127,"ĠVirgin":5128,"Ġnations":5129,"Ġimmun":5130,"Ġidentity":5131,"Ġbiological":5132,"Ġ2002":5133,"roc":5134,"Ġincreasingly":5135,"Ġfoss":5136,"Ġkil":5137,"AP":5138,"Ġtips":5139,"Ġinvestment":5140,"Ġcharacters":5141,"name":5142,"Ġcognitive":5143,"ND":5144,"Ġfamiliar":5145,"unk":5146,"othing":5147,"ĠBible":5148,"west":5149,"ixt":5150,"ĠElect":5151,"Ġfelt":5152,"iated":5153,"ĠDirect":5154,"Ġflag":5155,"Ġeast":5156,"Ġquar":5157,"rian":5158,"ĠMal":5159,"Ġtrial":5160,"what":5161,"Ġperiods":5162,"Ġbow":5163,"ĠLike":5164,"rich":5165,"Ġ2018":5166,"ĠLearning":5167,"48":5168,"Ġletters":5169,"yright":5170,"ĠÃ":5171,"Ġdouble":5172,"Ġslightly":5173,"olute":5174,"enses":5175,"Ġnarr":5176,"Ġinflammation":5177,"Ġchann":5178,"Ġpotentially":5179,"Ġhelpful":5180,"tenance":5181,"Ġclim":5182,"Ġvoice":5183,"ĠBC":5184,"active":5185,"li":5186,"ĠLife":5187,"Ġinfrastructure":5188,"athy":5189,"Ġcert":5190,"Ġconscious":5191,"Ġspiritual":5192,"ĠâĢ¦":5193,"Americ":5194,"Ġsnow":5195,"ĠQue":5196,"Ġsubjects":5197,"ĠLand":5198,"ĠData":5199,"Ġbird":5200,"Ġdetailed":5201,"Ġphenomen":5202,"ĠBen":5203,"Ġotherwise":5204,"Ġcontrolled":5205,"Ġliquid":5206,"Ġpig":5207,"ditionally":5208,"Ġsubsequ":5209,"Ġsche":5210,"Ġvalid":5211,"Ġenhance":5212,"Ġonto":5213,"ĠCommission":5214,"oo":5215,"ĠMedical":5216,"Ġvaluable":5217,"ĠTechnology":5218,"Go":5219,"ĠBay":5220,"ĠMiddle":5221,"Ġsyn":5222,"Ġflowers":5223,"Ġpolice":5224,"Ġcomponent":5225,"ĠThomas":5226,"ometimes":5227,"Ġcontinuous":5228,"oughly":5229,"Ġplayed":5230,"ĠFranc":5231,"lar":5232,"ĠBook":5233,"Ġminimum":5234,"Ġdepends":5235,"Ġexplained":5236,"Ġcrops":5237,"Ġthin":5238,"Ġsatis":5239,"Ġgrown":5240,"Ġexplains":5241,"ĠNASA":5242,"Ġapparent":5243,"Ġtypical":5244,"Ġpover":5245,"Ġlooked":5246,"ĠGoogle":5247,"ĠSecond":5248,"ĠJud":5249,"ĠDef":5250,"Ġattacks":5251,"itage":5252,"Ġsubstant":5253,"Ġpoverty":5254,"Ġinterests":5255,"Ġemployees":5256,"MS":5257,"Ġmedium":5258,"Ġmotion":5259,"ĠPost":5260,"ION":5261,"ĠTreat":5262,"ania":5263,"Ġinstruction":5264,"Ġroots":5265,"Ġleader":5266,"mp":5267,"Ġsmart":5268,"Ġlinks":5269,"Ġconcerned":5270,"isis":5271,"37":5272,"Ġthoughts":5273,"Ġ1990":5274,"Ġsend":5275,"ĠDist":5276,"Ġofficials":5277,"ĠMass":5278,"Ġgreatest":5279,"zy":5280,"Ġmere":5281,"Ġroll":5282,"Ġdomin":5283,"Ġrail":5284,"ingly":5285,"Ġliver":5286,"Ġcontaining":5287,"39":5288,"Ġflat":5289,"Ġexplan":5290,"Ġhappened":5291,"Ġproport":5292,"Ġarmy":5293,"Ġplaying":5294,"ĠSpace":5295,"'ve":5296,"Ġvehicles":5297,"Ġinterview":5298,"Ġtopics":5299,"Ġwife":5300,"teries":5301,"Ġsuffering":5302,"utive":5303,"Ġoutcomes":5304,"iced":5305,"ĠMil":5306,"umber":5307,"ĠClass":5308,"Ġmedications":5309,"ĠFlor":5310,"Ġbill":5311,"ĠHol":5312,"Ġinternet":5313,"ascular":5314,"Ġfirm":5315,"Ġlik":5316,"Ġperspective":5317,"Ġdeliver":5318,"Ġdivided":5319,"resents":5320,"ails":5321,"Ġpil":5322,"Ġelev":5323,"Ġdisapp":5324,"ĠBoth":5325,"state":5326,"olars":5327,"right":5328,"Ġwalls":5329,"RI":5330,"Ġfollows":5331,"Ġdecrease":5332,"Ġpregnancy":5333,"Ġwestern":5334,"Ġfif":5335,"Ġabuse":5336,"onomy":5337,"Ġfruits":5338,"Ġdepth":5339,"hi":5340,"Ġselected":5341,"Ġdu":5342,"ĠToday":5343,"Ġcardi":5344,"asure":5345,"Ġspl":5346,"Ġclaims":5347,"Ġstock":5348,"Ġstars":5349,"Ġregul":5350,"Ġfeelings":5351,"ĠUsing":5352,"itors":5353,"Ġrand":5354,"Ġsuggested":5355,"Ġgovernments":5356,"Ġkm":5357,"Ġtested":5358,"Ġconcentration":5359,"Ġagriculture":5360,"Ġwear":5361,"Ġmeasured":5362,"Ġparam":5363,"ompl":5364,"Ġsecure":5365,"osc":5366,"Ġpu":5367,"65":5368,"stood":5369,"More":5370,"Ġrapidly":5371,"ĠHenry":5372,"ki":5373,"Ġrural":5374,"being":5375,"cript":5376,"Ġgirls":5377,"fall":5378,"ĠTem":5379,"Ġcrisis":5380,"free":5381,"aks":5382,"Ġpaid":5383,"icks":5384,"Ġingred":5385,"itness":5386,"ĠLake":5387,"ĠCarol":5388,"Ġinstrument":5389,"ĠMake":5390,"Ġlose":5391,"Ġrandom":5392,"ville":5393,"Ġclosely":5394,"Ġneut":5395,"?âĢĿ":5396,"Ġsen":5397,"Ġfrag":5398,"ĠMicro":5399,"Another":5400,"Ġpersons":5401,"rolog":5402,"Ġbudget":5403,"99":5404,"US":5405,"Ġregularly":5406,"Ġparticles":5407,"chers":5408,"Ġstem":5409,"Ġportion":5410,"Ġgrand":5411,"field":5412,"win":5413,"Ġapproaches":5414,"Ġinfected":5415,"Ġappearance":5416,"Ġstudied":5417,"Ġsick":5418,"Ġrecovery":5419,"Ġharvest":5420,"Ġhundreds":5421,"uls":5422,"ulin":5423,"ĠSea":5424,"abric":5425,"ĠStand":5426,"Ġrecognized":5427,"Ġrein":5428,"ĠAnother":5429,"Ġdiscussed":5430,"Ġdial":5431,"Ġ2019":5432,"Ġdental":5433,"Ġfiles":5434,"Ġintelligence":5435,"ING":5436,"Ġconsists":5437,"Ġamb":5438,"ota":5439,"Ġrepresents":5440,"bert":5441,"ĠInformation":5442,"ventional":5443,"ĠNor":5444,"ÃŃ":5445,"Ġrequest":5446,"Ġrecognize":5447,"Ġresidents":5448,"ĠSmith":5449,"ĠJose":5450,"Ġprotected":5451,"Ġdirector":5452,"atever":5453,"Ġobtained":5454,"band":5455,"ĠSupp":5456,"Ġalt":5457,"Ġinches":5458,"Ġpaint":5459,"Ġod":5460,"that":5461,"Ġfunding":5462,"anes":5463,"ĠOut":5464,"Ġdiversity":5465,"Ġtrain":5466,"Ġjustice":5467,"Do":5468,"ship":5469,"ĠPacific":5470,"Ġfacilit":5471,"ĠLatin":5472,"Ġdriving":5473,"cest":5474,"Ġleaving":5475,"ĠRights":5476,"Ġages":5477,"Ġlatest":5478,"oral":5479,"Ġaccompl":5480,"iled":5481,"Ġallerg":5482,"Ġexpensive":5483,"ĠTwo":5484,"Ġraise":5485,"Ġboost":5486,"Ġ45":5487,"Ġsets":5488,"ĠSaf":5489,"Ind":5490,"Ġju":5491,"Ġphone":5492,"la":5493,"âĢĻ.":5494,"Ġprocedures":5495,"Ġknew":5496,"Ġcurriculum":5497,"Ġsensitive":5498,"Ġadvoc":5499,"Ġtried":5500,"ĠWind":5501,"Ġimproving":5502,"ĠIr":5503,"Ġreform":5504,"ĠSou":5505,"VID":5506,"col":5507,"32":5508,"Ġgar":5509,"ĠFoundation":5510,"ario":5511,"Ġadding":5512,"Ġprevention":5513,"inn":5514,"Ġnaturally":5515,"Ġextract":5516,"Ġminim":5517,"Ġhabitat":5518,"ibilities":5519,"anguage":5520,"ĠEngine":5521,"Ġcircumst":5522,"Ġreturned":5523,"Ġfloor":5524,"Ġsides":5525,"long":5526,"Ġlifest":5527,"Ġdut":5528,"Ġadequ":5529,"Ġtun":5530,"Ġlaun":5531,"osph":5532,"Ġvisible":5533,"ĠTHE":5534,"Ġcars":5535,"Ġtitle":5536,"Ġstret":5537,"ĠWomen":5538,"pat":5539,"lers":5540,"Ġfundamental":5541,"ĠRobert":5542,"Ġcorrespond":5543,"cling":5544,"indu":5545,"omach":5546,"Ġdeaths":5547,"Ġlabel":5548,"Ġmillions":5549,"Ġhealthcare":5550,"inder":5551,"Ġsuitable":5552,"ĠWild":5553,"Ġmit":5554,"pping":5555,"uilding":5556,"olve":5557,"Ġfle":5558,"ĠControl":5559,"ĠMont":5560,"Ġclosed":5561,"erals":5562,"44":5563,"flow":5564,"Ġexchange":5565,"Ġtro":5566,"TS":5567,"Ġcouple":5568,"alian":5569,"Ġstated":5570,"Ġcontem":5571,"Ġappeared":5572,"Ġsuffer":5573,"mas":5574,"ĠLouis":5575,"Ġtraffic":5576,"Ġmobile":5577,"DC":5578,"ellect":5579,"ĠNature":5580,"Ġrecip":5581,"ĠPsych":5582,"agers":5583,"ka":5584,"HO":5585,"ĠBudd":5586,"ĠInstead":5587,"Ġsatell":5588,"Ġconsid":5589,"stream":5590,"Ġsecondary":5591,"ĠUp":5592,"Ġsan":5593,"ĠCharles":5594,"Ġlessons":5595,"Ġcreative":5596,"orith":5597,"Ġpure":5598,"Ġsyndrome":5599,"Ġmovements":5600,"Ġwildlife":5601,"rem":5602,"Ġweap":5603,"During":5604,"Ġinject":5605,"Ġstages":5606,"plicated":5607,"Ġchief":5608,"Ġplays":5609,"Ġroutine":5610,"irus":5611,"Ġprem":5612,"Ġdiverse":5613,"Ġrecon":5614,"Te":5615,"Ġdistingu":5616,"alse":5617,"ĠCatholic":5618,"organ":5619,"rants":5620,"ait":5621,"ocratic":5622,"Ġinterf":5623,"Ġcomprehensive":5624,"Ġshel":5625,"osal":5626,"Ġleadership":5627,"celer":5628,"Ġprison":5629,"Ġleaf":5630,"Ġdocuments":5631,"ĠBro":5632,"vironments":5633,"Ġdiscovery":5634,"Ġsurvival":5635,"ropical":5636,"Ġcapable":5637,"spec":5638,"Ġrestrict":5639,"struct":5640,"ĠInf":5641,"ĠCompany":5642,"ypes":5643,"Ġproducing":5644,"ĠManagement":5645,"ĠGroup":5646,"Ġmoral":5647,"Ġtouch":5648,"ĠEnvironmental":5649,"46":5650,"DF":5651,"Ġworldwide":5652,"Ġmoon":5653,"Ġtrad":5654,"Ġtalking":5655,"Ġimpossible":5656,"Ġfill":5657,"Ġprecise":5658,"ĠFe":5659,"ĠBet":5660,"Ġcalls":5661,"ĠFrank":5662,"De":5663,"liam":5664,"war":5665,"Ġbeneficial":5666,"Ġunlike":5667,"Ġmaintenance":5668,"amily":5669,"Ġmanufacturing":5670,"Ġoriginally":5671,"ĠRussian":5672,"eck":5673,"Ġformat":5674,"Ġviews":5675,"Ġnetworks":5676,"ĠSte":5677,"31":5678,"ĠRef":5679,"ye":5680,"ĠStudies":5681,"Ġguidelines":5682,"Sc":5683,"ĠEmp":5684,"85":5685,"esity":5686,"Ġtransmission":5687,"attle":5688,"ston":5689,"Ġargument":5690,"ĠSuch":5691,"Ġcomputers":5692,"asive":5693,"Ġsell":5694,"Ġpossess":5695,"Ġapart":5696,"ona":5697,"Ġaqu":5698,"Ġpref":5699,"Ġrub":5700,"ĠOF":5701,"Ġentirely":5702,"Ġbattery":5703,"Ġchapter":5704,"Ġchoices":5705,"500":5706,"rors":5707,"Ġindex":5708,"Ġexperiments":5709,"hemical":5710,"oto":5711,"ada":5712,"Ġagreement":5713,"ooth":5714,"ĠDel":5715,"Ġsubstance":5716,"anda":5717,"Ġabund":5718,"ĠUSA":5719,"iotics":5720,"Ġassemb":5721,"ĠMo":5722,"Ġinjuries":5723,"Ġharmful":5724,"Ġcolors":5725,"ĠLibrary":5726,"Ġtail":5727,"ca":5728,"ĠScient":5729,"Ġpump":5730,"Ġjourney":5731,"77":5732,"BN":5733,"Ġintroduction":5734,"CT":5735,"exp":5736,"Ġchain":5737,"Ġstick":5738,"Ġgenerate":5739,"Ġpictures":5740,"Ġprepare":5741,"usal":5742,"ĠWell":5743,"Ġsurf":5744,"Ġreaders":5745,"Ġsoldiers":5746,"obe":5747,"dden":5748,"Ġneighb":5749,"Us":5750,"Ġbehaviour":5751,"burg":5752,"Ġpossibly":5753,"ĠArmy":5754,"comp":5755,"Gen":5756,"Ġnarrow":5757,"Ġemotions":5758,"Ġbrown":5759,"Ġkit":5760,"Ġachieved":5761,"Ġoptim":5762,"Ġconsumers":5763,"Ġera":5764,"Ġtal":5765,"Ġmamm":5766,"Ġagencies":5767,"Ġancest":5768,"ĠNav":5769,"Ġstimul":5770,"Ġfertil":5771,"ĠBur":5772,"ĠSl":5773,"Ġaccomp":5774,"Ġrevealed":5775,"ĠRussia":5776,"Ġapprec":5777,"Ġ31":5778,"Figure":5779,"amil":5780,"agues":5781,"lements":5782,"rid":5783,"othe":5784,"Ġnormally":5785,"Ġpretty":5786,"Ġconsistent":5787,"Ġabsolute":5788,"Ġassistance":5789,"Ġafford":5790,"Ġregional":5791,"88":5792,"Ġprinciple":5793,"Ġfigures":5794,"ĠFlorida":5795,"olester":5796,"ĠKnow":5797,"Ġmassive":5798,"Ġdatabase":5799,"ĠCanadian":5800,"asp":5801,"ĠKore":5802,"acts":5803,"Ġengage":5804,"ĠTer":5805,"Ġwarming":5806,"idden":5807,"Ġintake":5808,"ĠAlex":5809,"Ġstarts":5810,"My":5811,"normal":5812,"liament":5813,"ĠLabor":5814,"Ġimper":5815,"ĠPers":5816,"ansion":5817,"Ġsolve":5818,"Ġcalcium":5819,"alysis":5820,"Ġbones":5821,"reed":5822,"Ġ1980":5823,"ĠHistor":5824,"Ġtoler":5825,"CS":5826,"Ġacts":5827,"Ġdecline":5828,"Ġlisted":5829,"ĠCare":5830,"Se":5831,"Ġplate":5832,"ĠSum":5833,"han":5834,"Cont":5835,"âĢĻ,":5836,"Ġnurs":5837,"Ġphr":5838,"Ġparties":5839,"Ġsod":5840,"Ġdent":5841,"no":5842,"Ġincl":5843,"Ġmyth":5844,"Ġvillage":5845,"Ġadopted":5846,"Ġsudden":5847,"ĠPower":5848,"racy":5849,"Ġunderstood":5850,"inet":5851,"Ġgather":5852,"Ġtransition":5853,"Ġaccepted":5854,"Ġhouses":5855,"Ġinhib":5856,"Ġaw":5857,"Ġble":5858,"Ġpossibility":5859,"Ġcloud":5860,"Ġcultures":5861,"Ġrepeated":5862,"Ġtiny":5863,"Ġwire":5864,"ĠSov":5865,"ĠFederal":5866,"ĠKen":5867,"Ġwindow":5868,"Ġopened":5869,"ella":5870,"Ġopinion":5871,"erent":5872,"ĠOx":5873,"Ġcatch":5874,"Ġskill":5875,"Other":5876,"Ġremaining":5877,"Ġprofessionals":5878,"ĠVirginia":5879,"throp":5880,"Ġintervention":5881,"Äģ":5882,"Ġenvironments":5883,"Ġdescribes":5884,"ifies":5885,"Ġlandscape":5886,"Ġworse":5887,"orter":5888,"Ġlibrary":5889,"oted":5890,"vity":5891,"Ġpermanent":5892,"anged":5893,"Ġstomach":5894,"Ġremote":5895,"olf":5896,"Ġsuc":5897,"Ġsupplement":5898,"Re":5899,"aud":5900,"76":5901,"ua":5902,"ĠDiv":5903,"imer":5904,"Ġresponses":5905,"Ġenable":5906,"Ġ1999":5907,"Ġmountain":5908,"apping":5909,"Ġwants":5910,"ĠAtt":5911,"ĠMem":5912,"Ġfabric":5913,"Ġequival":5914,"Ġlatter":5915,"Ġtwice":5916,"under":5917,"Ġartificial":5918,"Ġanswers":5919,"Dr":5920,"Ġwave":5921,"Ġextended":5922,"ĠExpl":5923,"last":5924,"Ġfoundation":5925,"ĠDisc":5926,"Ġforests":5927,"Ġedge":5928,"Ġuns":5929,"hips":5930,"ĠAp":5931,"Ġunless":5932,"Ġelectronic":5933,"IL":5934,"Ġdust":5935,"Ġgenerated":5936,"Ġhunt":5937,"ĠProv":5938,"Ġalgorith":5939,"add":5940,"ashion":5941,"Ġsuccessfully":5942,"ester":5943,"Ġnoise":5944,"Ġdecade":5945,"olesterol":5946,"55":5947,"Ġpull":5948,"igation":5949,"Ġdistrict":5950,"Ġmarine":5951,"Ġframework":5952,"Ġmac":5953,"ĠIP":5954,"Ġcreates":5955,"oster":5956,"Ġmedication":5957,"ĠTor":5958,"gans":5959,"Ġcoff":5960,"Ġhabits":5961,"Ġspeaking":5962,"Ġtransportation":5963,"Ġdedic":5964,"orrow":5965,"Ġsports":5966,"ĠStreet":5967,"ĠGlobal":5968,"Ġbrand":5969,"edu":5970,"Ġsweet":5971,"Ġwaves":5972,"Ġlocations":5973,"Ġthor":5974,"ĠAbout":5975,"Ġobtain":5976,"ato":5977,"Ġauthorities":5978,"Ġcircumstances":5979,"Ġhighlight":5980,"Ġexpressed":5981,"Ġtruly":5982,"cules":5983,"wing":5984,"Ġfilled":5985,"ett":5986,"ums":5987,"Ġuniverse":5988,"Ġderived":5989,"Ġprotocol":5990,"Ġsurvive":5991,"Ġhorse":5992,"Ġband":5993,"zen":5994,"inations":5995,"Ġlands":5996,"Ġsequence":5997,"ĠDisease":5998,"Ġcorpor":5999,"ceived":6000,"Ġadministration":6001,"ctive":6002,"iform":6003,"ĠCommit":6004,"Ġtells":6005,"Ġslowly":6006,"Ġbio":6007,"Ġbag":6008,"Ġdoctors":6009,"Ġgall":6010,"ini":6011,"Ġdin":6012,"cel":6013,"ivery":6014,"Ġgal":6015,"Ġseeing":6016,"agon":6017,"Ġethnic":6018,"Ġvessels":6019,"Ġregulations":6020,"itative":6021,"Ġfasc":6022,"Ġselection":6023,"Ġcarefully":6024,"mary":6025,"ĠLab":6026,"luding":6027,"Ġflav":6028,"icians":6029,"Ġlifestyle":6030,"Ġpool":6031,"Ġdifficulty":6032,"Ġuniversity":6033,"Ġfixed":6034,"hma":6035,"ĠThrough":6036,"ifications":6037,"ĠReview":6038,"atal":6039,"Ġraw":6040,"ĠCommon":6041,"opy":6042,"ogue":6043,"ĠLeg":6044,"Ġaudience":6045,"born":6046,"Ġnan":6047,"eper":6048,"Ġdream":6049,"Ġbroken":6050,"icide":6051,"Ġcritic":6052,"Ġstruggle":6053,"....":6054,"Ġends":6055,"Ġaer":6056,"Ġoutl":6057,"Ġformal":6058,"Ġmulti":6059,"arant":6060,"Ġunknown":6061,"Ġflight":6062,"Ġ500":6063,"47":6064,"Ġorganized":6065,"itan":6066,"Ġ1970":6067,"using":6068,"89":6069,"Ġgun":6070,"Ġindeed":6071,"ĠBank":6072,"ĠOcean":6073,"Ġrespir":6074,"Ġfailed":6075,"Ġdecide":6076,"Ġinner":6077,"ushing":6078,"Ġsignals":6079,"ctic":6080,"Ġstored":6081,"Ġchildhood":6082,"86":6083,"iology":6084,"Ġerror":6085,"Ġnecessarily":6086,"Read":6087,"urd":6088,"Ġmonitor":6089,"Bl":6090,"ĠGood":6091,"Ġcourses":6092,"Ġhappy":6093,"Ġlots":6094,"Ġ1998":6095,"ĠReport":6096,"ĠId":6097,"Ġmachines":6098,"Ġratio":6099,"Ġcandid":6100,"ĠColumb":6101,"anta":6102,"ĠExper":6103,"ĠParis":6104,"ĠJoseph":6105,"Ġgreatly":6106,"riting":6107,"Ġpersist":6108,"Ġopposite":6109,"Ġevaluation":6110,"Ġbehaviors":6111,"Ġmanaged":6112,"Ġtow":6113,"ĠDesign":6114,"ĠLong":6115,"Ġstudying":6116,"stein":6117,"Ġmarked":6118,"49":6119,"hand":6120,"ĠCa":6121,"Ġimmediate":6122,"ĠVict":6123,"tic":6124,"Ġcomposition":6125,"Ġfell":6126,"abul":6127,"inking":6128,"Ġdensity":6129,"Ġneuro":6130,"aria":6131,"Stud":6132,"Ġdepos":6133,"Ġopening":6134,"UR":6135,"Ġdoor":6136,"Pe":6137,"Ġacknow":6138,"Ġinsects":6139,"ĠIN":6140,"Ġ>":6141,"Ġbreathing":6142,"gent":6143,"orous":6144,"Ġintellect":6145,"ĠPM":6146,"Ġsmoking":6147,"bing":6148,"Ġpoet":6149,"Ġarms":6150,"phone":6151,"Ġyounger":6152,"but":6153,"Ġcultiv":6154,"ĠStat":6155,"from":6156,"Ġsimpl":6157,"tra":6158,"Ġchart":6159,"Ġthy":6160,"Ġstands":6161,"print":6162,"kes":6163,"body":6164,"Ġaccounts":6165,"Ġfossil":6166,"ĠMag":6167,"Ġcommunicate":6168,"zed":6169,"Ġcart":6170,"Ġproduces":6171,"zil":6172,"Ġunp":6173,"ipping":6174,"Ġlisten":6175,"Ġcustomers":6176,"ĠSol":6177,"ava":6178,"ĠYet":6179,"Ġmuseum":6180,"Ġpreval":6181,"ĠCOVID":6182,"Ġprincip":6183,"Since":6184,"ĠAnn":6185,"Not":6186,"fortunately":6187,"Ġindicates":6188,"Ġscholars":6189,"Ġfiber":6190,"Ġlaboratory":6191,"mic":6192,"tage":6193,"En":6194,"Ġvoc":6195,"ĠOnly":6196,"Ġcutting":6197,"Ġshop":6198,".|":6199,"stract":6200,"ĠThose":6201,"inity":6202,"ĠSk":6203,"ribed":6204,"ĠAny":6205,"Ġsteel":6206,"ĠTimes":6207,"Ġmaintaining":6208,"rating":6209,"ĠItaly":6210,"ventions":6211,"Ġalle":6212,"Ġsharing":6213,"inction":6214,"ĠIll":6215,"ĠBre":6216,"Ġaircraft":6217,"Ġdoubt":6218,"ĠClin":6219,"Ġmembr":6220,"hist":6221,"Ġdescription":6222,"Ġmechanism":6223,"antly":6224,"Ġ1997":6225,"Ġultimately":6226,"Ġ300":6227,"nam":6228,"ĠHaw":6229,"Ġinsurance":6230,"Ġmechanisms":6231,"ĠAustralian":6232,"Ġnine":6233,"aser":6234,"Ġunderlying":6235,"ĠProfessor":6236,"Ġcolour":6237,"ĠRome":6238,"htm":6239,"Ġfly":6240,"Ġcloser":6241,"ĠPC":6242,"Ġinteraction":6243,"Can":6244,"Ġstable":6245,"Ġrid":6246,"Ġrelax":6247,"Ġmixed":6248,"Ġreplaced":6249,"Ġaf":6250,"level":6251,"ĠChic":6252,"Ġepid":6253,"ĠHall":6254,"Ġsupporting":6255,"Ġagency":6256,"Ġimprovement":6257,"umes":6258,"Ġath":6259,"ĠWhe":6260,"ĠCamp":6261,"Ġcomparison":6262,"Ġdaughter":6263,"ĠOffice":6264,"ny":6265,"Ġwish":6266,"Ġfract":6267,"lets":6268,"hop":6269,"ĠISBN":6270,"Ġaccum":6271,"Ġdownload":6272,"wo":6273,"Ġpurchase":6274,"Ġtank":6275,"ĠGold":6276,"Ġimplementation":6277,"ĠForest":6278,"aped":6279,"Ġlimits":6280,"Ġax":6281,"Ġcompr":6282,"ĠExp":6283,"Ġ36":6284,"Ġsky":6285,"Ġelectron":6286,"acco":6287,"Ġdebate":6288,"Ġconventional":6289,"ĠNations":6290,"Ġsight":6291,"ĠNatural":6292,"Ġoverl":6293,"Ġdiscipl":6294,"Ġcopy":6295,"Ġmolecules":6296,"itudes":6297,"ĠMa":6298,"Ġsupplies":6299,"irty":6300,"Ġconfidence":6301,"Ġveter":6302,"bridge":6303,"ĠMad":6304,"Ġacceler":6305,"See":6306,"Ġsmoke":6307,"Ġthousand":6308,"Ġcolleagues":6309,"ĠRichard":6310,"Ġacids":6311,"Ġoccasion":6312,"Ġreject":6313,"ĠEth":6314,"earchers":6315,"roduction":6316,"then":6317,"Ġsupports":6318,"Ġwww":6319,"Ġshift":6320,"Ġmeth":6321,"ctor":6322,"ĠPeter":6323,"occ":6324,"Ġroof":6325,"Ġbread":6326,"ĠPub":6327,"ĠSoviet":6328,"Ġcorn":6329,"tering":6330,"Ġ<":6331,"Ġhus":6332,"Ġshut":6333,"Ġfeeding":6334,"Ġinstitution":6335,"Ġorganisms":6336,"Ġourselves":6337,"Let":6338,"Ġmild":6339,"EP":6340,"ocy":6341,"Ġgluc":6342,".âĢĻ":6343,"inson":6344,"comm":6345,"Ġlegs":6346,"Ġrepresented":6347,"Ġvolunte":6348,"stone":6349,"Ġwalking":6350,"Ġtaste":6351,"Ġpron":6352,"ĠConstitution":6353,"42":6354,"Ġtwenty":6355,"Ġattend":6356,"riers":6357,"Ġdestroyed":6358,"Ġtraum":6359,"Ġflo":6360,"Ġrecognition":6361,"Ġgone":6362,"Ġhero":6363,"Ġhandle":6364,"Ġtrained":6365,"Ġnewsp":6366,"Ġremark":6367,"Ġwilling":6368,"Ġfunds":6369,"word":6370,"Ġinhab":6371,"Ġdedicated":6372,"cycl":6373,"Ġchosen":6374,"izer":6375,"Ġhousing":6376,"Ġcholesterol":6377,"Ġdelay":6378,"ĠRob":6379,"Ġdesire":6380,"itt":6381,"azing":6382,"cher":6383,"Ġbiggest":6384,"Ġwitness":6385,"Ġnerve":6386,"ĠForm":6387,"Ġunus":6388,"Ġconnections":6389,"sey":6390,"Ġdoi":6391,"Ġzone":6392,"ront":6393,"Ġreserv":6394,"Ġahead":6395,"Ġunable":6396,"Ġfighting":6397,"âĢĺ":6398,"ĠSpain":6399,"Ġwhereas":6400,"Ġeastern":6401,"ita":6402,"Ġneighbor":6403,"Ġgap":6404,"ribe":6405,"Ġsubs":6406,"Ġshell":6407,"American":6408,"Ġfold":6409,"Ġfewer":6410,"Ġindustries":6411,"Ġpsychological":6412,"Ġgenerations":6413,"Ġ189":6414,"Ġconsumer":6415,"ĠValley":6416,"ĠMu":6417,"ĠNative":6418,"ĠCommittee":6419,"ĠAdd":6420,"ĠCarolina":6421,"arn":6422,"Ġrising":6423,"ĠRad":6424,"Ġfeedback":6425,"ĠCap":6426,"Ġcontamin":6427,"ups":6428,"isters":6429,"struction":6430,"ĠGet":6431,"Ġsentence":6432,"ritis":6433,"Ġwriter":6434,"ĠCancer":6435,"ĠSouthern":6436,"Ġtissues":6437,"ĠAS":6438,"Ġexists":6439,"Ġchallenging":6440,"gu":6441,"inate":6442,"Ġterritory":6443,"Ġbear":6444,"ocracy":6445,"Ġreactions":6446,"Ġcapture":6447,"Ġcrow":6448,"Ġarchitecture":6449,"ĠDan":6450,"ĠRoyal":6451,"Ġattached":6452,"Ġtea":6453,"called":6454,"icon":6455,"hav":6456,"Ġfalse":6457,"Ġpartner":6458,"ĠSciences":6459,"Ġpercentage":6460,"Ġcos":6461,"Ã¼":6462,"Int":6463,"Ġpoison":6464,"Ġobesity":6465,"erior":6466,"Ġpharm":6467,"Ġdiagnosed":6468,"cons":6469,"Ġvariable":6470,"Ġdioxide":6471,"IP":6472,"Ġarrived":6473,"ĠAtlantic":6474,"Ġlayers":6475,"ĠTime":6476,"ifest":6477,"ĠPan":6478,"Ġdelivery":6479,"Ġdemonstrated":6480,"rency":6481,"imm":6482,"ĠEss":6483,"ĠVis":6484,"ults":6485,"Ġcontained":6486,"ache":6487,"Ġvirtual":6488,"Ġrhy":6489,"Ġmarriage":6490,"Ġconclusion":6491,"Ġprogramming":6492,"ditional":6493,"Ġcompetition":6494,"Ġsucceed":6495,"Ġclust":6496,"Ġreader":6497,"Ġdebt":6498,"ĠCult":6499,"Ġexamine":6500,"ĠPract":6501,"ĠDet":6502,"Ġcamera":6503,"Ġrecept":6504,"elled":6505,"Ġcats":6506,"Ġprompt":6507,"79":6508,"Ġtall":6509,"ube":6510,"ictionary":6511,"Ġturns":6512,"Ġjoin":6513,"Ġneck":6514,"ĠKeep":6515,"66":6516,"Ġminerals":6517,"Ġzero":6518,"Ġgreenhouse":6519,"icious":6520,"Ġfunctional":6521,"onia":6522,"heast":6523,"itivity":6524,"teen":6525,"Ġknows":6526,"Ġresulted":6527,"ĠOh":6528,"yles":6529,"Ġtroops":6530,"uts":6531,"Ġru":6532,"rene":6533,"aph":6534,"43":6535,"Ġparticipate":6536,"ĠMichael":6537,"05":6538,"Ġlies":6539,"Ġfounded":6540,"Ġarchae":6541,"Ġships":6542,"Ġequivalent":6543,"alls":6544,"Ġvulnerable":6545,"Ġeld":6546,"usiness":6547,"Ġparalle":6548,"ĠHome":6549,"Ġille":6550,"Ġstanding":6551,"opic":6552,"ĠStudy":6553,"Ġserver":6554,"Ġphilosophy":6555,"Ġcoffee":6556,"Ġmice":6557,"nee":6558,"fit":6559,"DP":6560,"Ġcomments":6561,"Ġrefuge":6562,"ĠAdminist":6563,"Ġbond":6564,"Ġsettings":6565,"ban":6566,"ĠExt":6567,"Ġpresentation":6568,"oding":6569,"Ġhoriz":6570,"Ġfu":6571,"Ġastr":6572,"roat":6573,"Ġcompounds":6574,"ora":6575,"rovers":6576,"Ġobservations":6577,"LE":6578,"Ġspaces":6579,"Ġcm":6580,"ether":6581,"Ġfever":6582,"Ġexpansion":6583,"Ġguarant":6584,"ĠRevolution":6585,"ĠClimate":6586,"car":6587,"ĠEqu":6588,"ĠAgricult":6589,"raining":6590,"Ġissued":6591,"Ġnearby":6592,"Ġyield":6593,"Ġbreath":6594,"Ġturb":6595,"Ġholid":6596,"weight":6597,"ĠColor":6598,"irds":6599,"ĠMer":6600,"Ġteen":6601,"Ġbeliefs":6602,"Ġfrequent":6603,"ediatric":6604,"such":6605,"Ġ1996":6606,"ĠAcademy":6607,"Ġment":6608,"Ġhem":6609,"Ġgrew":6610,"Ġdesigns":6611,"Ġcircuit":6612,"Ġdefine":6613,"Ġelectro":6614,"Ġpolitics":6615,"Ġundert":6616,"Ġ1960":6617,"Ġdrawing":6618,"Ġalign":6619,"Ġestimates":6620,"Ġchick":6621,"Over":6622,"Ġspending":6623,"Ġsignificance":6624,"Ġmarried":6625,"Ġpup":6626,"ĠPenn":6627,"espread":6628,"Ġmaps":6629,"abled":6630,"dule":6631,"Ġtrials":6632,"Ġinsulin":6633,"Ġinstructions":6634,"Ġobjective":6635,"ĠNorthern":6636,"Ġadministr":6637,"Ġvote":6638,"ĠFort":6639,"how":6640,"Ġdefe":6641,"87":6642,"ocation":6643,"rine":6644,"Ġrow":6645,"isk":6646,"aine":6647,"Ġaccessible":6648,"Ġlaunched":6649,"rooms":6650,"Ġindependence":6651,"Ġjoined":6652,"ĠStep":6653,"while":6654,"Ġhop":6655,"asters":6656,"Ġrelation":6657,"ĠEmpire":6658,"Ġdisturb":6659,"ĠGal":6660,"Ġpair":6661,"ĠBrazil":6662,"Ġadequate":6663,"earing":6664,"Ġwhatever":6665,"ĠIII":6666,"ena":6667,"Ġprev":6668,"Ġinstruments":6669,"iah":6670,"Ġexplo":6671,"irt":6672,"Ġsurve":6673,"Ġmand":6674,"Ġsigned":6675,"Ġrepair":6676,"etime":6677,"Ġaccident":6678,"rus":6679,"Ã³":6680,"Ġborder":6681,"Ġdepartment":6682,"ĠAdditionally":6683,"Ġtube":6684,"gov":6685,"ĠWhere":6686,"Ġconcrete":6687,"andon":6688,"pet":6689,"Ġinteractions":6690,"Ġdemonstrate":6691,"Ġhydrogen":6692,"rd":6693,"Ġongoing":6694,"Ġregist":6695,"hered":6696,"ĠTake":6697,"IG":6698,"ĠDiff":6699,"esis":6700,"Ġreliable":6701,"ĠWood":6702,"ĠBoard":6703,"Ġfashion":6704,"elesc":6705,"Ġentry":6706,"Ġtons":6707,"Rec":6708,"Ġneur":6709,"Ġagreed":6710,"Ġnest":6711,"scale":6712,"IM":6713,"Ġphotograph":6714,"Ġoperate":6715,"Qu":6716,"Ġexercises":6717,"ĠMill":6718,"Ġarrange":6719,"xts":6720,"Ġmatters":6721,"Lear":6722,"ĠCop":6723,"Ġcarb":6724,"Ġoffering":6725,"Ġoblig":6726,"Ġmagnetic":6727,"Ġhypothes":6728,"Ġapproved":6729,"eless":6730,"Ġvac":6731,"Ġmanip":6732,"Ġresolution":6733,"Ġ1995":6734,"ĠEnd":6735,"ĠItalian":6736,"Ġdys":6737,"hesis":6738,"Ġchrom":6739,"Ġsupposed":6740,"Ġmode":6741,"Ġeveryday":6742,"Ġmicrosc":6743,"ureau":6744,"Ġrelief":6745,"ĠSing":6746,"Ġprove":6747,"Ġbridge":6748,"Ġplayers":6749,"Your":6750,"rimination":6751,"Of":6752,"Ġbutter":6753,"Ġ185":6754,"Ġcryst":6755,"Ġmeasurement":6756,"ione":6757,"itter":6758,"orph":6759,"Ġ32":6760,"Ġmeters":6761,"inating":6762,"aked":6763,"Ġcategories":6764,"gers":6765,"Ġtight":6766,"heric":6767,"Ġoutbre":6768,"41":6769,"Ġseeking":6770,"Ġroute":6771,"inally":6772,"top":6773,"Ġpra":6774,"itely":6775,"everal":6776,"ih":6777,"nect":6778,"amics":6779,"Ġholds":6780,"Ġmortality":6781,"uter":6782,"ĠNaz":6783,"Ġ75":6784,"OL":6785,"she":6786,"Ġlegislation":6787,"ĠGuide":6788,"Ġscene":6789,"ĠHoly":6790,"ourage":6791,"Ġuncertain":6792,"ĠGard":6793,"%.":6794,"reland":6795,"sts":6796,"Ġinvolving":6797,"ĠWik":6798,"Ġexamination":6799,"rite":6800,"Ġaward":6801,"01":6802,"Ġsole":6803,"Ġdrawn":6804,"omic":6805,"Ġsmooth":6806,"Ġnervous":6807,"bur":6808,"plant":6809,"Ġtrouble":6810,"anches":6811,"Ġsubstances":6812,"Ġwidespread":6813,"Ġbanks":6814,"azine":6815,"rat":6816,"eenth":6817,"idity":6818,"Ġvs":6819,"iotic":6820,"ĠHave":6821,"Ġconstitution":6822,"Ġrespiratory":6823,"Ġlect":6824,"Ġmood":6825,"Ġdanger":6826,"ĠCy":6827,"ushed":6828,"ighter":6829,"Ġemployed":6830,"Ġemployment":6831,"Ġloved":6832,"ĠBab":6833,"Ġhonor":6834,"ĠVictor":6835,"hent":6836,"ĠScot":6837,"Ġinstalled":6838,"Ġrecommendations":6839,"Ġexplanation":6840,"SS":6841,"Ġshif":6842,"Ġreduces":6843,"Ġintegrated":6844,"Ġshad":6845,"Ġrespectively":6846,"isdom":6847,"Ġhistoric":6848,"Ġcollaboration":6849,"Ġpapers":6850,"Ġblow":6851,"Ġstre":6852,"Ġring":6853,"Ġpowers":6854,"Ġspok":6855,"Ġinfect":6856,"oples":6857,"Ġputting":6858,"abulary":6859,"Ġvariables":6860,"Ġtrip":6861,"ĠChicago":6862,"ĠBrown":6863,"Ġstrongly":6864,"Ġfer":6865,"amine":6866,"Ġwasn":6867,"Ġ150":6868,"Ġusage":6869,"ĠGeorg":6870,"First":6871,"Even":6872,"ĠAccess":6873,"Ġviruses":6874,"Ġbot":6875,"Ġdamaged":6876,"airy":6877,"Ġpassage":6878,"Ġrice":6879,"herent":6880,"Ġroles":6881,"Ġparticipation":6882,"een":6883,"Ġmos":6884,"Ġrely":6885,"iox":6886,"Ġrivers":6887,"venue":6888,"ĠAge":6889,"Ġannounced":6890,"Ġcleaning":6891,"mes":6892,"umps":6893,"Ġscan":6894,"Ġaccuracy":6895,"Ġconsidering":6896,"Ã¶":6897,"idential":6898,"Ġentered":6899,"Ġcommitted":6900,"ĠEU":6901,"Ġvolcan":6902,"Ġnegot":6903,"Ġid":6904,"ĠProp":6905,"Ġpreventing":6906,"Ġdetection":6907,"Ġtransp":6908,"Ġintense":6909,"Ġassociation":6910,"Ġadvantages":6911,"Ġske":6912,"Ġindicated":6913,"making":6914,"Ġconven":6915,"Ġorgans":6916,"lv":6917,"yal":6918,"Ġbrings":6919,"ano":6920,"Ġintest":6921,"Ġ65":6922,"Ġcrime":6923,"Ġguidance":6924,"Ġfro":6925,"Ġsacr":6926,"Ġstroke":6927,"Ġasking":6928,"urrent":6929,"Ġended":6930,"Ġremoval":6931,"Ġdose":6932,"Ġpainting":6933,"ployment":6934,"Le":6935,"Ġped":6936,"iral":6937,"ĠScott":6938,"Ġmarkets":6939,"pes":6940,"ented":6941,"ĠDar":6942,"Ġmeal":6943,"ĠDig":6944,"Ġcircle":6945,"osion":6946,"Ġearn":6947,"icit":6948,"Ġreceiving":6949,"Ġingredients":6950,"net":6951,"Ġconstructed":6952,"Ġcovers":6953,"Ġmetabol":6954,"fish":6955,"Ġgram":6956,"CA":6957,"ola":6958,"istical":6959,"ĠLanguage":6960,"Ġswim":6961,"olving":6962,"ittle":6963,"Ġeffectiveness":6964,"Ġbabies":6965,"iability":6966,"Ġmg":6967,"Ġincred":6968,"Once":6969,"Ġmoisture":6970,"ĠBig":6971,"Ġkidney":6972,"orders":6973,"Ġbiod":6974,"Ġhole":6975,"Ġouter":6976,"Ġlights":6977,"Ġcup":6978,"Ġrig":6979,"Ġcoastal":6980,"ĠCommunity":6981,"Ġsections":6982,"operation":6983,"iration":6984,"estion":6985,"Ġcav":6986,"thritis":6987,"Ġpositions":6988,"Ġforth":6989,"Ġmolecular":6990,"ĠFree":6991,"Don":6992,"orses":6993,"ĠResources":6994,"Ġblocks":6995,"cyclop":6996,"Ġcolumn":6997,"Ġrealize":6998,"Ġforget":6999,"Ġruns":7000,"Am":7001,"amins":7002,"Ġphosph":7003,"ĠCoast":7004,"Ġartists":7005,"Ġfacility":7006,"Ġwait":7007,"hyd":7008,"RA":7009,"Ġdepart":7010,"Ġframe":7011,"Ġconstantly":7012,"ĠEastern":7013,"BS":7014,"uality":7015,"ĠServices":7016,"Ġinfluenced":7017,"Me":7018,"Ġfurn":7019,"Ġparas":7020,"kins":7021,"Ġpreparation":7022,"utch":7023,"utrition":7024,"ĠAsian":7025,"Ġscript":7026,"ĠBefore":7027,"Ġneither":7028,"ĠEarly":7029,"agram":7030,"Ġsomewhat":7031,"Ġfulf":7032,"ymph":7033,"Ġnone":7034,"eli":7035,"ishment":7036,"ĠIreland":7037,"Ġmissing":7038,"Ġshot":7039,"ĠMoreover":7040,"ala":7041,"Ġmaintained":7042,"Ġevaluate":7043,"rial":7044,"Ġstrict":7045,"Ġpublication":7046,"Ġworry":7047,"Ġcontrovers":7048,"Ġtexts":7049,"Ġcompare":7050,"ovascular":7051,"Ġsheet":7052,"ĠKingdom":7053,"Ġinformed":7054,"bra":7055,"ibl":7056,"Ġfalls":7057,"Ġmeasurements":7058,"aming":7059,"Ġcareful":7060,"Ġmm":7061,"Ġbath":7062,"Ġproportion":7063,"%)":7064,"ani":7065,"Ġplenty":7066,"Ġdestruction":7067,"sis":7068,"Ġchlor":7069,"ĠBill":7070,"Ġglucose":7071,"ĠAND":7072,"Ġrocks":7073,"Ġelection":7074,"Ġangle":7075,"Ġphysics":7076,"Ġmales":7077,"ĠPlant":7078,"otes":7079,"Ġstring":7080,"Ġholding":7081,"Ġacute":7082,"ĠFurthermore":7083,"Ġye":7084,"Ġdisaster":7085,"Ġcontrols":7086,"Ġmechanical":7087,"Ġdrain":7088,"Ġheating":7089,"ĠIndians":7090,"etics":7091,"Ġearthqu":7092,"Ġturning":7093,"charge":7094,"Ġimplications":7095,"Ġplus":7096,"forcement":7097,"Ġsurfaces":7098,"ĠCre":7099,"IDS":7100,"Ġvictims":7101,"Ġclothing":7102,"ĠSil":7103,"amps":7104,"Ġthanks":7105,"Every":7106,"Ġdivision":7107,"agen":7108,"Ġplane":7109,"Ġabandon":7110,"Ġagents":7111,"Ġintellectual":7112,"rox":7113,"ĠFigure":7114,"Ġmatch":7115,"Ġcomplicated":7116,"osh":7117,"Ġestimate":7118,"Ġfemales":7119,"oven":7120,"Ġirrit":7121,"Ġpregnant":7122,"Ġsubsequent":7123,"Ġcenters":7124,"itals":7125,"Ġcentre":7126,"Ġboy":7127,"Ġnob":7128,"Ġnitrogen":7129,"Ġsought":7130,"Ġfarming":7131,"ĠYoung":7132,"ĠAdv":7133,"Ġdollars":7134,"Ġmerely":7135,"IA":7136,"Ġstreet":7137,"Ġmining":7138,"ĠEffect":7139,"Ġgrain":7140,"ĠWorks":7141,"Ġforg":7142,"ĠChristmas":7143,"ĠYear":7144,"Ġowner":7145,"Ġserving":7146,"illa":7147,"Ġproven":7148,"Ġimplemented":7149,"Ġvoltage":7150,"medi":7151,"Ġoutcome":7152,"rowing":7153,"ML":7154,"ĠParty":7155,"gien":7156,"Ġsales":7157,"Ġfourth":7158,"Ġislands":7159,"ĠAcc":7160,"Ġdeeper":7161,"Ġinnovation":7162,"Ġfacing":7163,"Ġexcessive":7164,"IR":7165,"Ġabnormal":7166,"Ġcriteria":7167,"Ġhappening":7168,"Ġburning":7169,"Ġdeclared":7170,"heimer":7171,"Ġpand":7172,"ogether":7173,"Ġanalys":7174,"Ġasthma":7175,"trans":7176,"yth":7177,"ivered":7178,"eren":7179,"Ġstatistics":7180,"amination":7181,"Ġcorrel":7182,"Ġcomposed":7183,"Ġarrest":7184,"Ġbiology":7185,"Ġhun":7186,"ĠGrand":7187,"ĠChange":7188,"Ġinsert":7189,"imp":7190,"NS":7191,"Ġconversation":7192,"vin":7193,"rane":7194,"ĠIran":7195,"Ġconfirmed":7196,"produ":7197,"Ġpeak":7198,"Ġpassing":7199,"rey":7200,"Ġhormone":7201,"Ġaims":7202,"Ġcash":7203,"Ġdistributed":7204,"CH":7205,"Ġshock":7206,"Ġcalories":7207,"Ġphoto":7208,"sen":7209,"71":7210,"Ġknowing":7211,"Ġcards":7212,"ĠMel":7213,"Ġtrends":7214,"Ġfairly":7215,"Ġscore":7216,"81":7217,"Ġpush":7218,"urric":7219,"pd":7220,"Ġfavorite":7221,"83":7222,"otton":7223,"Ġdesired":7224,"Ġteams":7225,"ĠFace":7226,"ulty":7227,"ĠSup":7228,"Ġsilver":7229,"ĠMartin":7230,"Ġabsence":7231,"usalem":7232,"Ġtheories":7233,"Ġmusical":7234,"Ġsatellite":7235,"ĠTeac":7236,"73":7237,"ĠSat":7238,"abil":7239,"Ġswitch":7240,"Ġcomfortable":7241,"Ġedition":7242,"ogenic":7243,"chen":7244,"Ġengaged":7245,"Ġcopper":7246,"Ġrank":7247,"Ġbreeding":7248,"Ġbringing":7249,"Ġvisitors":7250,"Ġpanel":7251,"Ġscreening":7252,"Ġenemy":7253,"Ġtob":7254,"Ġattempts":7255,"Ġlake":7256,"Ġseemed":7257,"Ġcategory":7258,"rous":7259,"Ġdealing":7260,"Ġtheme":7261,"Ġcommission":7262,"Ġoverw":7263,"Ġboys":7264,"Ġessentially":7265,"Ġbeauty":7266,"Ġevil":7267,"Ġtropical":7268,"ĠSometimes":7269,"Ġtract":7270,"ĠHill":7271,"ĠFollow":7272,"Ġstronger":7273,"igan":7274,"quit":7275,"ĠList":7276,"itamin":7277,"Ġgradually":7278,"Ġhusband":7279,"Ġcontemporary":7280,"Su":7281,"Today":7282,"ilation":7283,"Ġslaves":7284,"asty":7285,"iary":7286,"ints":7287,"Because":7288,"Ġadvert":7289,"apse":7290,"olesc":7291,"bles":7292,"ortion":7293,"Ġ400":7294,"rary":7295,"Ġtheore":7296,"theless":7297,"Ġirrig":7298,"UT":7299,"ĠWord":7300,"ĠPop":7301,"Ġvarieties":7302,"Ġinterpre":7303,"haust":7304,"Ġrenewable":7305,"ĠDirector":7306,"Ġparallel":7307,"Ġtut":7308,"ĠCreat":7309,"ĠHosp":7310,"Ġdependent":7311,"aired":7312,"Ġescape":7313,"emia":7314,"Ġmold":7315,"ĠAgency":7316,"Ġprohib":7317,"example":7318,"ioxid":7319,"Ġpounds":7320,"ailed":7321,"Ġblo":7322,"Ġroads":7323,"Ġmineral":7324,"Ġproof":7325,"Ġchest":7326,"Ġcharacterized":7327,"Ġclaimed":7328,"Ġimagine":7329,"LA":7330,"iana":7331,"Ġshapes":7332,"Ġcounty":7333,"Ġprincipal":7334,"bar":7335,"ĠPo":7336,"ĠGulf":7337,"action":7338,"Ġpresents":7339,"sm":7340,"Ġcrew":7341,"Ġtemple":7342,"ĠNetwork":7343,"Ġtobacco":7344,"uten":7345,"ĠPolic":7346,"ĠSecurity":7347,"HD":7348,"Ġnose":7349,"Ġblind":7350,"Ġfocuses":7351,"Ġcarrying":7352,"Ġmaybe":7353,"Ġplanned":7354,"Ġkilomet":7355,"UN":7356,"Ġjump":7357,"ohyd":7358,"Ġmoves":7359,"ĠIndust":7360,"Ref":7361,"Ġorient":7362,"Ġradical":7363,"ĠSir":7364,"Ġgained":7365,"Ġstead":7366,"ĠVen":7367,"Ġuniversal":7368,"aska":7369,"ĠMethod":7370,"outs":7371,"Ġartist":7372,"Ġwarning":7373,"including":7374,"CE":7375,"Ġconsiderable":7376,"ĠSecret":7377,"ĠHy":7378,"Ġcyber":7379,"ruption":7380,"ontal":7381,"Ġmessages":7382,"ĠThough":7383,"reek":7384,"Ġsession":7385,"Ġtreating":7386,"Ġfaced":7387,"'m":7388,"Ġitem":7389,"Ġseconds":7390,"Ġdelivered":7391,"Ġdecreased":7392,"Ġprovider":7393,"Ġinvestigation":7394,"Ġrarely":7395,"health":7396,"Ġproved":7397,"Ġserves":7398,"Ġerrors":7399,"Ġdomain":7400,"ĠTV":7401,"ĠFamily":7402,"Ġclar":7403,"Ġweapons":7404,"Ġopposed":7405,"Ġformula":7406,"Ġensuring":7407,"Ġencouraged":7408,"Ġsubstantial":7409,"Ġcaptured":7410,"ĠWho":7411,"ĠCheck":7412,"awn":7413,"Ġbeings":7414,"ĠDen":7415,"Ġremind":7416,"Ġcombat":7417,"Ġdifficulties":7418,"Ġmixt":7419,"ĠOpen":7420,"Ġvideos":7421,"84":7422,"Ġconsume":7423,"Ġnewly":7424,"Ġinitially":7425,"People":7426,"ugh":7427,"ĠStar":7428,"ommod":7429,"ĠOrganization":7430,"esides":7431,"Ġfest":7432,"Ġinn":7433,"Ġphenomenon":7434,"Ġunusual":7435,"Ġlistening":7436,"har":7437,"ĠPet":7438,"ĠDespite":7439,"Ġracial":7440,"Ġhazard":7441,"Ġtraditions":7442,"Ġeliminate":7443,"Ġathlet":7444,"ĠDoes":7445,"Ġthreats":7446,"ĠMS":7447,"ĠMoon":7448,"gs":7449,"aning":7450,"ĠRock":7451,"Ġstations":7452,"Ġfed":7453,"Ġcomplications":7454,"alm":7455,"Ġheavily":7456,"Ġsenior":7457,"Ġwine":7458,"Ġdates":7459,"She":7460,"Ġlearners":7461,"Ġconcerning":7462,"Per":7463,"Ġstuff":7464,"ĠNon":7465,"ĠDistrict":7466,"akistan":7467,"lishing":7468,"App":7469,"effect":7470,"iological":7471,"Ġmic":7472,"Ġconsideration":7473,"Ġholes":7474,"Ġjudge":7475,"Ġlie":7476,"Ġinher":7477,"ading":7478,"Ġexamined":7479,"Ġofficers":7480,"Ġsatisf":7481,"Ġstability":7482,"Ġdefect":7483,"ĠFire":7484,"Ġexclus":7485,"ounter":7486,"Ġbatteries":7487,"Ġexperimental":7488,"74":7489,"ba":7490,"abeth":7491,"ĠLo":7492,"Ġtranslation":7493,"ĠSpecial":7494,"Ġanywhere":7495,"peror":7496,"arsh":7497,"ĠRom":7498,"ĠStr":7499,"Ġproductivity":7500,"Ġexception":7501,"ĠMen":7502,"ĠResp":7503,"Ġempt":7504,"Ġfinished":7505,"inf":7506,"Ġassets":7507,"ostic":7508,"Ġmodified":7509,"________":7510,"Ġwithd":7511,"otal":7512,"Ġsurprising":7513,"avery":7514,"igate":7515,"ooking":7516,"Ġphotos":7517,"Ġdisrupt":7518,"Ġwriters":7519,"Ġdemands":7520,"Ġschedule":7521,"Or":7522,"oga":7523,"Ġspin":7524,"ĠCentre":7525,"ieval":7526,"MP":7527,"CD":7528,"Ġmeals":7529,"Ġsharp":7530,"fts":7531,"ĠCell":7532,"Ġgro":7533,"riend":7534,"Ġlaunch":7535,"itual":7536,"sell":7537,"oir":7538,"Ġcoron":7539,"CP":7540,"oston":7541,"Ġintent":7542,"ounce":7543,"ĠZeal":7544,"Ġintensity":7545,"Ġbranch":7546,"ĠJerusalem":7547,"ĠMath":7548,"Ġevolved":7549,"elfare":7550,"ĠIV":7551,"ĠAdministration":7552,"Ġcompound":7553,"Ġdisabilities":7554,"Ġstructural":7555,"82":7556,"zheimer":7557,"Ġfilter":7558,"Ġwound":7559,"Ġpestic":7560,"Ġchannel":7561,"Ġcompens":7562,"Ġautism":7563,"Ġbranches":7564,"class":7565,"Ġgalax":7566,"ustain":7567,"Ġ2021":7568,"Ġmathematics":7569,"Ġheads":7570,"ĠWall":7571,"ricts":7572,"Ġtick":7573,"Ġbomb":7574,"ĠSafety":7575,"Ġgut":7576,"Ġproceed":7577,"ĠAmong":7578,"Ġillegal":7579,"itting":7580,"Ġarts":7581,"Comp":7582,"rance":7583,"ady":7584,"Ġdiscrimination":7585,"brid":7586,"Ġmountains":7587,"Ġtrigger":7588,"eut":7589,"rays":7590,"Ġhealing":7591,"vard":7592,"Ġscar":7593,"Ġguard":7594,"Ġbiom":7595,"otype":7596,"Ġprominent":7597,"Ġinterpretation":7598,"iture":7599,"Ġregulation":7600,"Ġtargets":7601,"Comm":7602,"htt":7603,"Ġstores":7604,"agraph":7605,"Ġcooking":7606,"Ġalph":7607,"Ġmanifest":7608,"Ġcort":7609,"Ġroughly":7610,"Ġmir":7611,"Ġ1994":7612,"Ġslave":7613,"Ġflower":7614,"Ġtelevision":7615,"essions":7616,"ĠFinally":7617,"Ġprotecting":7618,"rav":7619,"ograp":7620,"ĠJac":7621,"ĠSuper":7622,"rot":7623,"ĠIT":7624,"riz":7625,"Ġinnovative":7626,"ĠTop":7627,"Ġisolated":7628,"Ed":7629,"ĠZealand":7630,"icy":7631,"Ġamazing":7632,"Ġeditor":7633,"Ġobserve":7634,"erman":7635,"Ġdecor":7636,"Ġbigger":7637,"ptions":7638,"Ġusual":7639,"Ġadds":7640,"Ġcoverage":7641,"Ġslavery":7642,"Ġ1950":7643,"Ġidentifying":7644,"Ġvocabulary":7645,"coming":7646,"Ġdynamic":7647,"ĠEngineering":7648,"ĠOxford":7649,"greg":7650,"Ġfatty":7651,"Ġreward":7652,"ĠIslam":7653,"ĠType":7654,"ĠMD":7655,"Ġinfant":7656,"Ġdriven":7657,"72":7658,"ĠMuslim":7659,"Ġcaught":7660,"ĠEr":7661,"ĠProtection":7662,"igare":7663,"night":7664,"ĠSund":7665,"Ġdriver":7666,"Ġconsciousness":7667,"Ġ33":7668,"Ġproviders":7669,"ĠFund":7670,"Ġscientist":7671,"Ġearliest":7672,"icate":7673,"oln":7674,"Ġphysician":7675,"ima":7676,"ĠAP":7677,"56":7678,"Ġprofit":7679,"reated":7680,"Ġunw":7681,"Ġneighborhood":7682,"Ġceremon":7683,"Ã¢":7684,"Ġabilities":7685,"Ġorbit":7686,"ĠFour":7687,"ĠAngel":7688,"Ġov":7689,"requ":7690,"aren":7691,"just":7692,"atial":7693,"ura":7694,"Ġconserv":7695,"acent":7696,"Ġassigned":7697,"itory":7698,"ishop":7699,"Ġfishing":7700,"Ġequally":7701,"Ġcorrectly":7702,"Ġnutrient":7703,"Ġspectrum":7704,"ĠCambridge":7705,"Ġconqu":7706,"Ġlaid":7707,"door":7708,"Ġdefend":7709,"Ġobjectives":7710,"Ġparameters":7711,"orted":7712,"ĠNever":7713,"pling":7714,"Ġvictim":7715,"Ġgrid":7716,"Ġconcluded":7717,"ĠConservation":7718,"Note":7719,"unicip":7720,"ĠAuthor":7721,"hire":7722,"Ġworship":7723,"Ġdecay":7724,"eness":7725,"ĠFather":7726,"Ġconference":7727,"Ġdiameter":7728,"Ġrab":7729,"esium":7730,"ĠSar":7731,"Ġunion":7732,"ĠDev":7733,"OC":7734,"ĠUr":7735,"arents":7736,"aneously":7737,"Ġoccurring":7738,"Ġbacterial":7739,"ĠSupreme":7740,"Ġassume":7741,"Ġdefense":7742,"Ġflour":7743,"atively":7744,"Ġprinting":7745,"izabeth":7746,"Ġantibiotics":7747,"Ġtaxes":7748,"igue":7749,"Ġengineers":7750,"Ġordered":7751,"Ġpeoples":7752,"Ġviewed":7753,"Ġvitamins":7754,"Ġsuscept":7755,"Ġfinger":7756,"isted":7757,"Ġcorner":7758,"ĠColl":7759,"Ġton":7760,"ĠIns":7761,"Ġuniform":7762,"ĠHeb":7763,"adel":7764,"Ġenables":7765,"Ġwheel":7766,"mod":7767,"Ġforming":7768,"Ġsuperior":7769,"Ġ180":7770,"Ġwindows":7771,"Ġliteracy":7772,"Ġexhaust":7773,"Ġcham":7774,"Ġovercome":7775,"Ġsensitivity":7776,"lu":7777,"Ġinterventions":7778,"Ġregardless":7779,"ĠMinister":7780,"Ġgast":7781,"Ġplot":7782,"raine":7783,"ĠLy":7784,"Ġkilling":7785,"Ġminute":7786,"Ġdirected":7787,"ENT":7788,"Ġlip":7789,"Ġindigenous":7790,"ersonal":7791,"Ġinspired":7792,"etal":7793,"isco":7794,"ĠLow":7795,"Ġprocessed":7796,"Ġfung":7797,"Ġsensors":7798,"Ġrecover":7799,"Ġnice":7800,"ĠUt":7801,"Ġadverse":7802,"ĠVer":7803,"Ġperception":7804,"Ġmeasuring":7805,"Ġgranted":7806,"oli":7807,"ĠSimilar":7808,"Part":7809,"Ġimaging":7810,"Ġperm":7811,"Ġdetected":7812,"enger":7813,"ali":7814,"ĠLess":7815,"ĠJul":7816,"Ġconcentrations":7817,"Ġreveal":7818,"Ø§":7819,"ĠCast":7820,"Ġarray":7821,"Ġidentification":7822,"Ġexperiencing":7823,"ĠHand":7824,"ĠEst":7825,"ipedia":7826,"Ġmanufacturers":7827,"Ġplayer":7828,"Ġavailability":7829,"ucky":7830,"icted":7831,"96":7832,"MA":7833,"anger":7834,"Ġmarks":7835,"Ġsoul":7836,"ema":7837,"Ġcontribution":7838,"Ġattach":7839,"Ġwrites":7840,"oric":7841,"ĠLib":7842,"Ġsport":7843,"Ġadm":7844,"ĠIrish":7845,"Ġaccompan":7846,"Ġethical":7847,"Ġaccommod":7848,"Ġstrengthen":7849,"Ġalter":7850,"Ġtechnological":7851,"Ġsettlement":7852,"holders":7853,"Â·":7854,"oids":7855,"ildren":7856,"ĠSign":7857,"Ġacquired":7858,"Ġconfig":7859,"ĠEp":7860,"century":7861,"Ġtempor":7862,"Ġpandemic":7863,"Ear":7864,"Ġboundaries":7865,"ĠMult":7866,"ĠPakistan":7867,"ude":7868,"mia":7869,"tles":7870,"ugg":7871,"Ġexceed":7872,"ested":7873,"Ġepis":7874,"Ġquarter":7875,"Ġfarms":7876,"Ġreaching":7877,"irth":7878,"ĠLar":7879,"Ġ1992":7880,"Ġcord":7881,"ĠPrevention":7882,"Ġven":7883,"Ġenorm":7884,"azon":7885,"ĠColumbia":7886,"Ġreporting":7887,"Ġpanels":7888,"Ġanalyze":7889,"ĠCurrent":7890,"onym":7891,"omer":7892,"Ġsuffered":7893,"ĠAlzheimer":7894,"Ġauthent":7895,"Ġstatements":7896,"ackson":7897,"ĠTre":7898,"adder":7899,"Ġrose":7900,"Ġfinds":7901,"Ġsunlight":7902,"Ġmembrane":7903,"icing":7904,"Ġbreed":7905,"Ġopposition":7906,"ĠTable":7907,"rize":7908,"ols":7909,"uris":7910,"amples":7911,"Ġextend":7912,"Ġoverwhel":7913,"Ġherb":7914,"Ġmanaging":7915,"Ġprinted":7916,"Ġenterpr":7917,"Ġadvent":7918,"Ġswit":7919,"Ġcovering":7920,"Where":7921,"Ġhorses":7922,"cking":7923,"ogs":7924,"ĠThree":7925,"Ġaffecting":7926,"allow":7927,"Ġhardware":7928,"Ġprotective":7929,"Ġrhyth":7930,"ulating":7931,"Ġmicrob":7932,"Ġduty":7933,"ette":7934,"archy":7935,"Ġelected":7936,"sylv":7937,"Ġcontributed":7938,"icular":7939,"def":7940,"Ġemphasis":7941,"Ġpill":7942,"Ġtables":7943,"asses":7944,"Ġwheat":7945,"Ġrelie":7946,"Ġcapabilities":7947,"ĠPrinc":7948,"ĠTry":7949,"irms":7950,"Ġresid":7951,"Ġburied":7952,"ĠSurvey":7953,"va":7954,"Ġcoc":7955,"soft":7956,"Ġargue":7957,"Ġcrypt":7958,"ĠPlease":7959,"Ġ;":7960,"Ġfunctioning":7961,"Ġ1993":7962,"apor":7963,"Ġcrim":7964,"Ġflows":7965,"Ġcommitment":7966,"uting":7967,"Ġsitting":7968,"mann":7969,"Ġbrows":7970,"oured":7971,"aded":7972,"ĠLiter":7973,"esh":7974,"Ġgases":7975,"Ġgrows":7976,"Ġantioxid":7977,"dr":7978,"ĠSwed":7979,"ĠMah":7980,"ĠKar":7981,"Ġtemporary":7982,"Ġvariation":7983,"Ġaddressed":7984,"Ġstrain":7985,"etary":7986,"Ġaged":7987,"Ġdietary":7988,"avirus":7989,"ailable":7990,"angered":7991,"Ġseparated":7992,"ega":7993,"Ġcooling":7994,"Ġecosystems":7995,"Under":7996,"],":7997,"Ġdrought":7998,"ĠUnfortunately":7999,"Ġvariations":8000,"Col":8001,"ĠSet":8002,"Ġprogramme":8003,"Pre":8004,"Ġstones":8005,"asts":8006,"Ġmoderate":8007,"Ġsocieties":8008,"Co":8009,"Med":8010,"ercury":8011,"About":8012,"Ġgiant":8013,"Ġpoem":8014,"aneous":8015,"Ġautomatically":8016,"Ġstake":8017,"DS":8018,"asant":8019,"Ġchances":8020,"ĠNote":8021,"Ġthereby":8022,"Ġdrag":8023,"Ġsubstit":8024,"ĠLearn":8025,"cyclopedia":8026,"Ġclient":8027,"ĠViet":8028,"ĠJohnson":8029,"Ġritual":8030,"Ġpreserve":8031,"incoln":8032,"ĠFind":8033,"rolled":8034,"lines":8035,"Ġpurs":8036,"iments":8037,"Ġran":8038,"Ġengaging":8039,"ĠBoston":8040,"Ġcardiovascular":8041,"Ġasc":8042,"Ġquantity":8043,"Ġneutral":8044,"Ġdisability":8045,"Ġobservation":8046,"Ġlungs":8047,"Ġhoney":8048,"Ġcab":8049,"Ġsupplements":8050,"Ġdegrad":8051,"Ġsizes":8052,"Ġvisited":8053,"Ġharder":8054,"Ġmetals":8055,"Ġcriminal":8056,"Ġhence":8057,"ĠDO":8058,"Ġresil":8059,"ĠCho":8060,"Ġscores":8061,"Ġoldest":8062,"Ġpin":8063,"ĠLee":8064,"Ġfalling":8065,"ĠFacebook":8066,"ĠDou":8067,"ĠGr":8068,"eting":8069,"quar":8070,"Ġagent":8071,"Ġsodium":8072,"Ġfats":8073,"ĠTom":8074,"agan":8075,"Ġphysically":8076,"ĠJeff":8077,"Ġinhabit":8078,"Ġfuels":8079,"ĠLead":8080,"Ġgravity":8081,"ĠOhio":8082,"eping":8083,"PR":8084,"Ġgrains":8085,"giene":8086,"iat":8087,"HA":8088,"Ġthread":8089,"Ġbless":8090,"ĠQueen":8091,"alities":8092,"Ġles":8093,"Ġconj":8094,"Ġnarrative":8095,"zym":8096,"Ġachievement":8097,"Ġsurge":8098,"Ġurine":8099,"otherapy":8100,"Fig":8101,"Ġwisdom":8102,"Ġtumor":8103,"Cons":8104,"ĠSaint":8105,"Ġcharacteristic":8106,"Ġembry":8107,"Ġphrase":8108,"Ġster":8109,"ĠHit":8110,"Ġcalling":8111,"Get":8112,"ptom":8113,"html":8114,"sylvania":8115,"Ġterror":8116,"Ġspray":8117,"pled":8118,"Ġdress":8119,"asy":8120,"ecess":8121,"athered":8122,"Ġheritage":8123,"ĠRoad":8124,"ĠPen":8125,"Ġexpanded":8126,"ĠHospital":8127,"%,":8128,"Ġvel":8129,"ĠPot":8130,"rix":8131,"ourse":8132,"Ġsched":8133,"ĠBooks":8134,"Ġfur":8135,"mentation":8136,"inea":8137,"ĠJo":8138,"ruit":8139,"Ġinsight":8140,"ĠAssess":8141,"Ġembra":8142,"Ġfellow":8143,"plete":8144,"Ġmothers":8145,"Ġpromoting":8146,"ĠâĨ":8147,"Ġupdated":8148,"Car":8149,"eor":8150,"Ġvan":8151,"ĠGeorgia":8152,"ĠWal":8153,"Ġ48":8154,"Ġcomprom":8155,"aws":8156,"Ġ55":8157,"ĠWithout":8158,"ivest":8159,"Ġmigration":8160,"Ġhormones":8161,"Ġfra":8162,"Ġsup":8163,"Ġexploration":8164,"Also":8165,"hea":8166,"Ġcolonies":8167,"Ġtribes":8168,"ĠPolicy":8169,"semb":8170,"ĠUk":8171,"Ġbelieves":8172,"Ġcreatures":8173,"Ġuniversities":8174,"Ġowned":8175,"Ġadvis":8176,"Ġinteractive":8177,"Ġpla":8178,"Ġpermission":8179,"Ġweakness":8180,"John":8181,"zer":8182,"Ġ1991":8183,"Ġcolonial":8184,"Ġcommunications":8185,"Ġpit":8186,"Ġdeficiency":8187,"ĠIss":8188,"Ġhumanity":8189,"Ġversions":8190,"Ġmosquit":8191,"Ġhidden":8192,"Ġpropag":8193,"Ġexciting":8194,"Ġworst":8195,"Ġmixture":8196,"Pr":8197,"iger":8198,"ĠElizabeth":8199,"ĠTO":8200,"Ġneu":8201,"ĠNov":8202,"neys":8203,"Ġpersonality":8204,"uset":8205,"Ġbees":8206,"ĠBattle":8207,"ĠImm":8208,"Ġmarketing":8209,"Ġgirl":8210,"TP":8211,"Ġincident":8212,"Ġthermal":8213,"quir":8214,"ĠReading":8215,"sor":8216,"ĠCat":8217,"Ġalive":8218,"Ġcancers":8219,"Ġsmell":8220,"Ġregarded":8221,"Ġcontributions":8222,"Ġexhibit":8223,"iop":8224,"Ġtor":8225,"ĠColorado":8226,"ographical":8227,"Ġimprovements":8228,"hus":8229,"Ġeducators":8230,"Ġresearcher":8231,"Hist":8232,"Ġease":8233,"istant":8234,"angle":8235,"Ġstrike":8236,"Ġwaiting":8237,"EF":8238,"mm":8239,"67":8240,"Ġmur":8241,"Ġguess":8242,"Ġordinary":8243,"ĠBusiness":8244,"ĠIdent":8245,"Ġpreced":8246,"Ġlabour":8247,"Ġmathematical":8248,"64":8249,"Table":8250,"ĠLight":8251,"ptic":8252,"Com":8253,"ĠStart":8254,"erly":8255,"Ġglac":8256,"lete":8257,"ĠCross":8258,"ricted":8259,"Ġdescript":8260,"Google":8261,"Ġintroduce":8262,")|":8263,"books":8264,".).":8265,"bour":8266,"uum":8267,"Ġconsumed":8268,"ĠpH":8269,"ĠMot":8270,"Ġcounsel":8271,"Ġrobot":8272,"ĠHebrew":8273,"una":8274,"achuset":8275,"59":8276,"Ġrect":8277,"Ġemerging":8278,"Ġcustomer":8279,"Ġcalculated":8280,"Ġhouseholds":8281,"Ġsurg":8282,"Ġchemistry":8283,"Ġaimed":8284,"achusetts":8285,"Ġadolesc":8286,"ipe":8287,"Ġraising":8288,"Ġkeeps":8289,"iations":8290,"Ġdense":8291,"69":8292,"Ġrepresentation":8293,"itarian":8294,"Ġequation":8295,"Ġpsychology":8296,"Ġcarbohyd":8297,"oul":8298,"Ġsubt":8299,"ĠSS":8300,"Ġsimult":8301,"ĠKorea":8302,"Ġcure":8303,"ao":8304,"onal":8305,"Ġinitiative":8306,"Last":8307,"Ġpointed":8308,"Ġcattle":8309,"rection":8310,"Ġtelesc":8311,"Ġdies":8312,"Ġdimens":8313,"Ġscope":8314,"Ġquantum":8315,"ivestock":8316,"urches":8317,"erty":8318,"Ġpolar":8319,"ansas":8320,"Ġplanting":8321,"mented":8322,"ĠImp":8323,"ĠTestament":8324,"Ġgent":8325,"ĠHim":8326,"Ġgum":8327,"Ġintegr":8328,"jo":8329,"thew":8330,"Ġrecycling":8331,"rical":8332,"actions":8333,"ĠArticle":8334,"gence":8335,"Ġflexible":8336,"Ġbehavioral":8337,"forest":8338,"ĠWindows":8339,"Ġdairy":8340,"Ġclock":8341,"Ġresc":8342,"Ġforecast":8343,"bean":8344,"reprene":8345,"ĠOper":8346,"Ġeru":8347,"Ġappointed":8348,"ĠBack":8349,"Ġacres":8350,"endar":8351,"Ġ95":8352,"Ã¤":8353,"Ġlosses":8354,"RC":8355,"Ġcough":8356,"ĠDivision":8357,"EE":8358,"Ġfing":8359,"Ġvertical":8360,"lims":8361,"urning":8362,"Ġpursu":8363,"Ġcomputing":8364,"ĠConference":8365,"Ġprayer":8366,"Ġbutton":8367,"ĠÂ£":8368,"Ġoxid":8369,"?\"":8370,"yer":8371,"Ġoste":8372,"ĠCorn":8373,"Ġsevent":8374,"Ġsafely":8375,"Ġpriority":8376,"Ġexpertise":8377,"cin":8378,"elve":8379,"Ġfacilitate":8380,"Ġsteam":8381,"Ġholiday":8382,"Ġcul":8383,"Ġrational":8384,"Ġcharged":8385,"utation":8386,"Ġlock":8387,"Ġmyst":8388,"Ġarguments":8389,"Ġinvestigate":8390,"Ġelsewhere":8391,"Ġintegration":8392,"Ġlymph":8393,"ĠTim":8394,"Ġliterary":8395,"Ġkingdom":8396,"ĠModel":8397,"BT":8398,"Ġplanets":8399,"Ġpainful":8400,"made":8401,"Ġseat":8402,"Ġrac":8403,"eries":8404,"ĠStan":8405,"flamm":8406,"Ġdil":8407,"Ġclassified":8408,"Before":8409,"Ġdramatic":8410,"iti":8411,"iva":8412,"Ġattitude":8413,"Ġperforming":8414,"Ġemotion":8415,"Ġranging":8416,"Ġpreferred":8417,"real":8418,"Ġsensor":8419,"Ġfo":8420,"Ġmanager":8421,"ĠHead":8422,"Ġstreets":8423,"ĠContin":8424,"AA":8425,"Ġpel":8426,"ulpt":8427,"bec":8428,"disc":8429,"Ġasp":8430,"Ġpromise":8431,"Ġvaccines":8432,"ĠSystems":8433,"ĠHor":8434,"ĠDC":8435,"aterials":8436,"ĠScotland":8437,"Ġ)":8438,"ref":8439,"Ġpy":8440,"ĠPennsylvania":8441,"09":8442,"Ġom":8443,"opl":8444,"ĠMur":8445,"Ġchap":8446,"ĠUV":8447,"hal":8448,"Ġdetermining":8449,"Ġdesert":8450,"Ġ34":8451,"ependent":8452,"Ġhal":8453,"ĠCr":8454,"HS":8455,"Ġtong":8456,"Ġaddiction":8457,"Ġoptimal":8458,"erally":8459,"Ġexped":8460,"Ġremed":8461,"Ġdeeply":8462,"ĠLincoln":8463,"apes":8464,"Ġsummary":8465,"Step":8466,"ĠModern":8467,"03":8468,"Ġentertain":8469,"Ġdistricts":8470,"Ġdrivers":8471,"Ġattribut":8472,"Ġinterface":8473,"Ġlowest":8474,"Ġfocusing":8475,"ĠParliament":8476,"Ġtowns":8477,"Ġofficer":8478,"ometry":8479,"Ġevening":8480,"Ġexecutive":8481,"Ġplain":8482,"Ġ37":8483,"Ġprecip":8484,"ĠJackson":8485,"Ġlinear":8486,"Ġ1930":8487,"Ġcorresponding":8488,"kind":8489,"Ġcopyright":8490,"advant":8491,"lights":8492,"Ġtip":8493,"ĠMichigan":8494,"Ġabstract":8495,"Each":8496,"Ġcub":8497,"ĠDown":8498,"adelph":8499,"Ġmanual":8500,"Ġinequ":8501,"Ġquiet":8502,"ĠEdward":8503,"Ġdigestive":8504,"Ġtort":8505,"Ġdemocracy":8506,"Ġmine":8507,"ĠIslands":8508,"Ġperceived":8509,"ĠOnline":8510,"Ġlaser":8511,"Ġargued":8512,"Ġshoulder":8513,"Ġhabitats":8514,"Ġwearing":8515,"ĠChristians":8516,"Ġcraft":8517,"ĠScholar":8518,"ĠMid":8519,"Ġlogic":8520,"Ġengines":8521,"Ġparagraph":8522,"ĠSand":8523,"ĠMach":8524,"Ġoccas":8525,"idal":8526,"Ġfaces":8527,"Ġfought":8528,"ila":8529,"ĠMassachusetts":8530,"ĠRh":8531,"Ġparad":8532,"Ġchoosing":8533,"Are":8534,"Ġcaps":8535,"Ġstopped":8536,"fast":8537,"asm":8538,"Ġdirections":8539,"Ġthreatened":8540,"atus":8541,"ĠJustice":8542,"Ġremarkable":8543,"pan":8544,"ailing":8545,"neum":8546,"Ġversus":8547,"Ġprey":8548,"Ġorders":8549,"Ġdim":8550,"ĠChapter":8551,"Sm":8552,"Ġtelling":8553,"Ġcolony":8554,"Ġfisher":8555,"section":8556,"thod":8557,"Ġshoot":8558,"Ġfatigue":8559,"Ġbalanced":8560,"Ġwider":8561,"Ġlens":8562,"Ġdefinitely":8563,"AB":8564,"words":8565,"ĠOl":8566,"Ġcooperation":8567,"ĠLaboratory":8568,"ĠÐ":8569,"opher":8570,"Ġdism":8571,"Ġwebsites":8572,"ghan":8573,"borne":8574,"IF":8575,"Ġreign":8576,"Ġcotton":8577,"Ġrestaur":8578,"Ġaudio":8579,"Ġconvey":8580,"Ġacknowled":8581,"ipher":8582,"Ġwatching":8583,"ĠHitler":8584,"Ġreasonable":8585,"Ġunn":8586,"Ġrecre":8587,"Ġworkshe":8588,"Ġminds":8589,"Ġsacred":8590,"Ġcas":8591,"OM":8592,"zyme":8593,"ĠWil":8594,"Ġclients":8595,"Ġroyal":8596,"Ġampl":8597,"Ġpackaging":8598,"ĠAvoid":8599,"Ġenormous":8600,"Ġduration":8601,"Ġthyroid":8602,"Ġjoints":8603,"Ġfriendly":8604,"'d":8605,"omal":8606,"Ġsplit":8607,"Ġreverse":8608,"Ġviral":8609,"ĠSolar":8610,"ĠWay":8611,"Ġclothes":8612,"Ġcontainer":8613,"ĠHarvard":8614,"Using":8615,"through":8616,"Ġspoken":8617,"ĠAM":8618,"Ġchair":8619,"May":8620,"Tra":8621,"izers":8622,"Ġevident":8623,"chain":8624,"Ġextension":8625,"adelphia":8626,"Ġtargeted":8627,"ĠForce":8628,"hemistry":8629,"ĠAgain":8630,"power":8631,"Ġreaches":8632,"ĠCD":8633,"ĠOtt":8634,"Ġinsights":8635,"ĠHawai":8636,"ĠLim":8637,"ĠObs":8638,"erts":8639,"ician":8640,"Ġreplacement":8641,"Ġrequirement":8642,"ĠLi":8643,"2012":8644,"ĠImpro":8645,"Ġdipl":8646,"2010":8647,"ĠConfed":8648,"Ġwonderful":8649,"Ġintention":8650,"Ġpeer":8651,"Ġsustainability":8652,"raham":8653,"Ġprovince":8654,"Ġexplicit":8655,"OD":8656,"Ġsaving":8657,"sex":8658,"Ġremoving":8659,"ĠAR":8660,"Ġbiodiversity":8661,"ĠInvest":8662,"Ġinfants":8663,"ranean":8664,"ĠSunday":8665,"ĠBu":8666,"Ġanticip":8667,"Ġrestoration":8668,"Ġstrategic":8669,"63":8670,"ais":8671,"Ġsuit":8672,"Ġcontents":8673,"endment":8674,"Ġdiarr":8675,"Ġecological":8676,"Ġtens":8677,"Ġreferences":8678,"Ġdiscussions":8679,"Ġspecialized":8680,"ĠWildlife":8681,"ĠAgriculture":8682,"Ġsciences":8683,"Ġprobability":8684,"Ġsentences":8685,"Ġconclus":8686,"fulness":8687,"02":8688,"uity":8689,"ĠLast":8690,"Ġestablishment":8691,"Ġpossibilities":8692,"Ġvegetable":8693,"Ġentering":8694,"Ġprevalence":8695,"ĠProcess":8696,"estions":8697,"Ġcontinuing":8698,"Ġmedicines":8699,"Pub":8700,"ogy":8701,"Ġflash":8702,"Ġpassion":8703,"ags":8704,"Ġuncle":8705,"issipp":8706,"ayer":8707,"ĠPur":8708,"anted":8709,"Ġchose":8710,"Ġ39":8711,"Ġdifferently":8712,"Despite":8713,"Ġthroat":8714,"Ġwelfare":8715,"Ġbarriers":8716,"Ġheaven":8717,"Ġtrauma":8718,"Ġstyles":8719,"ami":8720,"Ġspots":8721,"ĠLos":8722,"ĠAnalysis":8723,"Ġgif":8724,"Ġlighting":8725,"aying":8726,"Ġalarm":8727,"Ġassumed":8728,"specific":8729,"Ġtack":8730,"Ġdance":8731,"ologically":8732,"ĠAsk":8733,"Ġappeal":8734,"Ġdefault":8735,"Ġcomplexity":8736,"Ġmetabolism":8737,"Just":8738,"Ġcrown":8739,"Ġdiffer":8740,"Ġtrem":8741,"Ġcow":8742,"berry":8743,"Ġloose":8744,"Ġexpectations":8745,"Ġdominant":8746,"raq":8747,"ĠBuilding":8748,"ĠDrug":8749,"Ġtrail":8750,"Ġactively":8751,"ĠPoint":8752,"cut":8753,"reens":8754,"Ġmature":8755,"ĠSpring":8756,"Ġtrick":8757,"Ġweigh":8758,"ĠFar":8759,"Ġfeels":8760,"Ġcurrency":8761,"Ġorb":8762,"Ġdish":8763,"Ġbuff":8764,"Ġlimitations":8765,"usive":8766,"bel":8767,"you":8768,"enced":8769,"Ġgift":8770,"Ġburden":8771,"ĠIncre":8772,"Ġsaved":8773,"Ġorigins":8774,"Ġmovie":8775,"Ġnewspaper":8776,"ĠIce":8777,"Ġbreaking":8778,"feed":8779,"Ġseriously":8780,"06":8781,"ifice":8782,"ĠGar":8783,"Ġresistant":8784,"Ġirrigation":8785,"Ġfires":8786,"ĠCard":8787,"Ġemerged":8788,"Ġcommittee":8789,"ĠChristianity":8790,"Ġhunting":8791,"Use":8792,"Ġpets":8793,"ĠClick":8794,"ĠPage":8795,"Ġcreativity":8796,"pass":8797,"Ġdevelopments":8798,"Ġobst":8799,"Ġvaried":8800,"Ġinvolvement":8801,"ĠLevel":8802,"52":8803,"ĠHeart":8804,"Ġbuying":8805,"ĠBlue":8806,"Ġcelebrated":8807,"Ġinterior":8808,"Ġnutritional":8809,"Ġimmigrants":8810,"swe":8811,"ĠCir":8812,"Ġexisted":8813,"Ġsettled":8814,"Ġhospitals":8815,"ĠAlexander":8816,"eutic":8817,")||":8818,"Like":8819,"Ġconvert":8820,"Ġboat":8821,"Ġastronom":8822,"zymes":8823,"dep":8824,"Ġprofile":8825,"Ġstatistical":8826,"Ġlosing":8827,"oline":8828,"Ġscenario":8829,"Ġrestore":8830,"Ġoutbreak":8831,"Ġlakes":8832,"Ġassert":8833,"Ġauto":8834,"ĠAmazon":8835,"Ġarc":8836,"Ġnuts":8837,"GE":8838,"Then":8839,"Ġaccompanied":8840,"Ġshed":8841,"olk":8842,"ĠBiology":8843,"ĠFact":8844,"Ġexploring":8845,"Ġgrounds":8846,"Ġsoph":8847,"itical":8848,"Ġcirculation":8849,"ĠPhilipp":8850,"Ġnotion":8851,"Ġdrinks":8852,"Ġengagement":8853,"Ġnoticed":8854,"Ġcourts":8855,"Ġprofound":8856,"ga":8857,"oz":8858,"Ġflying":8859,"ĠCost":8860,"umer":8861,"Source":8862,"aware":8863,"Ġsongs":8864,"encing":8865,"ĠSection":8866,"Ġhaven":8867,"aints":8868,"unning":8869,"Ġshore":8870,"lected":8871,"Ġmeaningful":8872,"Ġpurchased":8873,"Ġtherm":8874,"ĠBul":8875,"Ġlifetime":8876,".:":8877,"BM":8878,"SP":8879,"was":8880,"ĠAL":8881,"Ġapplying":8882,"Ġincidence":8883,"text":8884,"wan":8885,"asma":8886,"Ġspr":8887,"Ġadapted":8888,"ouds":8889,"Ġspinal":8890,"Ġpaying":8891,"Ġhydro":8892,"ĠTemple":8893,"ĠNavy":8894,"',":8895,"Ġfrust":8896,"Ġsavings":8897,"operative":8898,"icts":8899,"Ġ1920":8900,"Ġbreaks":8901,"uber":8902,"unc":8903,"Eng":8904,"Ġbeat":8905,"orr":8906,"Ġvirtually":8907,"Ġtension":8908,"ĠBa":8909,"Ġentit":8910,"Ġanalyzed":8911,"ĠKids":8912,"oons":8913,"2011":8914,"Ġreadily":8915,"Ġannually":8916,"Rel":8917,"NC":8918,"Ġhall":8919,"ifer":8920,"Ġlob":8921,"Ġlists":8922,"Ġabsorb":8923,"Ġminimize":8924,"Ġdating":8925,"Ġmyself":8926,"Ġaccurately":8927,"âĶ":8928,"rowth":8929,"ĠSpirit":8930,"Ġempty":8931,"Ġbare":8932,"Ġ38":8933,"Ġvegetation":8934,"ĠKey":8935,"Ġcelebrate":8936,".'":8937,"Ġjuris":8938,"Ġglobe":8939,"Ġmagnesium":8940,"Ġaggressive":8941,"Ġlibr":8942,"uther":8943,"oded":8944,"Ġtransmit":8945,"Ġviolent":8946,"EG":8947,"uis":8948,"Ġgrades":8949,"ĠMuslims":8950,"Ġjoy":8951,"ĠPhiladelphia":8952,"Ġconverted":8953,"Ġshorter":8954,"Ġclub":8955,"Ġbasically":8956,"ĠMess":8957,"Ġrays":8958,"ĠFrancisco":8959,"Ġsurgical":8960,"Ġsymbols":8961,"enter":8962,"Ġwash":8963,"Ġhandling":8964,"friend":8965,"ĠBureau":8966,"Ġarise":8967,"Ġclassic":8968,"Ġunlikely":8969,"eem":8970,"Ġclassical":8971,"Ġmarg":8972,"Ġshaped":8973,"Ġpipe":8974,"Ġlivestock":8975,"Ġapparently":8976,"mers":8977,"Ġhat":8978,"ĠGall":8979,"ĠEconomic":8980,"ĠBang":8981,"Ġrealized":8982,"fe":8983,"Ġvaries":8984,"Ġsediment":8985,"Ġears":8986,"Ġcompetitive":8987,"ĠMississipp":8988,"Ġbene":8989,"Ġdevast":8990,"icking":8991,"claim":8992,"Ġinfluences":8993,"inois":8994,"Sec":8995,"Ġspan":8996,"Ġwars":8997,"mble":8998,"Ġhol":8999,"ĠEll":9000,"ĠLittle":9001,"Ġclay":9002,"this":9003,"Ġdeploy":9004,"ĠEPA":9005,"Ġpairs":9006,"awa":9007,"ĠArctic":9008,"Ġconstra":9009,"foot":9010,"mail":9011,"Ġsoils":9012,"Ġcurve":9013,"ĠPhot":9014,"Ġassignment":9015,"ĠPalest":9016,"Ġsessions":9017,"Ġwouldn":9018,"Ġreflected":9019,"Ġoccupied":9020,"Ġpilot":9021,"inth":9022,"ĠCode":9023,"izz":9024,"Ġaccord":9025,"Ġtends":9026,"iner":9027,"Ġwat":9028,"ogens":9029,"Ġcouldn":9030,"Ġjudgment":9031,"98":9032,"worth":9033,"eras":9034,"Ġstood":9035,"ĠMax":9036,"ĠMaster":9037,"osaur":9038,"2008":9039,"Â®":9040,"ateral":9041,"Ġimpair":9042,"Ġvictory":9043,"aka":9044,"bris":9045,"Ġhygiene":9046,"Ġenthus":9047,"shaped":9048,"Ġpenet":9049,"terior":9050,"Ġprime":9051,"Ġtill":9052,"orks":9053,"ĠLew":9054,"Ġ2022":9055,"ĠIslamic":9056,"ĠSP":9057,"ĠRam":9058,"ĪĴ":9059,"Ġtomat":9060,"Ġsuicide":9061,"Ġsulf":9062,"Ġpione":9063,"Ġacting":9064,"ometer":9065,"Ġtransmitted":9066,"Ġrepresenting":9067,"Ġmunicip":9068,"ĠCP":9069,"ilst":9070,"ĠPut":9071,"unct":9072,"Ġtone":9073,"Ġbegun":9074,"Ġes":9075,"Ġcopies":9076,"61":9077,"onin":9078,"Ġcontributing":9079,"TH":9080,"ĠChief":9081,"Ġgenome":9082,"Ġorange":9083,"roud":9084,"Ġpersonnel":9085,"agnetic":9086,"Ġtraits":9087,"Ġrecording":9088,"Ġgardens":9089,"ĠHeritage":9090,"ĠDutch":9091,"Ġsees":9092,"ĠNob":9093,"Ġcalculate":9094,"Ġneurons":9095,"08":9096,"ivation":9097,"Ġaging":9098,"Ġ42":9099,"pectives":9100,"07":9101,"Ġborrow":9102,"Ġattitudes":9103,"Ġcollective":9104,"Ġtact":9105,"Ġgathered":9106,"Ġworker":9107,"Ġpoetry":9108,"Ġwing":9109,"anz":9110,"ĠAndrew":9111,"Ġrestrictions":9112,"ĠWhether":9113,"ocated":9114,"Ġcheap":9115,"ĠMinistry":9116,"Ġbeneath":9117,"function":9118,"Ġswelling":9119,"Ġmouse":9120,"Ġplates":9121,"lectric":9122,"ĠHelp":9123,"bell":9124,"lock":9125,"Ġpermit":9126,"Ġproductive":9127,"Ġcalm":9128,"Ġflexibility":9129,"green":9130,"Ġcoat":9131,"Ġminimal":9132,"Ġpayment":9133,"world":9134,"ĠKent":9135,"ĠVe":9136,"ĠBehav":9137,"plo":9138,"Ġoutdoor":9139,"ensed":9140,"Ġcellular":9141,"Ġsons":9142,"ashes":9143,"urable":9144,"ĠSeveral":9145,"2013":9146,"mentia":9147,"Ġspoke":9148,"Ġincent":9149,"Ġsolving":9150,"ĠDam":9151,"CR":9152,"efficient":9153,"Ġsad":9154,"Ġregulate":9155,"chnology":9156,"irable":9157,"Ġprescribed":9158,"ĠPerhaps":9159,"uscript":9160,"Ġmemor":9161,"Ġconsequence":9162,"ĠTreatment":9163,"ĠCE":9164,"oves":9165,"Ġliterally":9166,"Please":9167,"http":9168,"!âĢĿ":9169,"Ġsculpt":9170,"ocolate":9171,"Ġpasses":9172,"profit":9173,"Who":9174,"sk":9175,"aternal":9176,"Ġqualities":9177,"pdf":9178,"04":9179,"igned":9180,"Ġrepresentative":9181,"Ġpredicted":9182,"lymp":9183,"cho":9184,"Ġestate":9185,"Ġreturns":9186,"Ġcontrolling":9187,"Ġvibr":9188,"Ġprivile":9189,"Ġchromos":9190,"53":9191,"ĠIndeed":9192,"Ġillnesses":9193,"Ġdimin":9194,"ĠSanta":9195,"ĠIraq":9196,"assion":9197,"onday":9198,"Ġstrange":9199,"Ġpupils":9200,"QL":9201,"ĠBal":9202,"Ġspecified":9203,"Ġtubes":9204,"68":9205,"Ġion":9206,"ĠHT":9207,"ĠCentury":9208,"Ġvig":9209,"Ġdescend":9210,"Ġbias":9211,"ati":9212,"Ġoils":9213,"regular":9214,"ĠHa":9215,"ĠFil":9216,"Ġcontamination":9217,"ĠKh":9218,"Ġtransc":9219,"ictions":9220,"ĠOrig":9221,"Ġassembly":9222,"Sim":9223,"quality":9224,"Ġopinions":9225,"58":9226,"ceans":9227,"abling":9228,"Ġmaxim":9229,"iblical":9230,"Ġarthritis":9231,"57":9232,"UL":9233,"ĠSym":9234,"Ġdevelops":9235,"olves":9236,"Ġhypothesis":9237,"Ġsegment":9238,"assium":9239,"nesota":9240,"anol":9241,"TO":9242,"Ġtorn":9243,"Ġequality":9244,"Ġho":9245,"Ġmanagers":9246,"Ġinvasive":9247,"Ġabsorption":9248,"Ġmotivation":9249,"ĠStandard":9250,"ĠNO":9251,"ropol":9252,"âĶĢ":9253,"Ġbeans":9254,"ĠJacob":9255,"51":9256,"Ġaddresses":9257,"Ġchicken":9258,"62":9259,"Ġspecialist":9260,"2007":9261,"ĠDigital":9262,"Ġmask":9263,"ĠCA":9264,"Ġash":9265,"Ġidentical":9266,"Ġposts":9267,"Ġaddressing":9268,"rue":9269,"Ġoverview":9270,"Ġhealthier":9271,"Ġbarrier":9272,"ÙĦ":9273,"Ġarmed":9274,"'.":9275,"after":9276,"Ġbub":9277,"ĠNeed":9278,"Ġpersu":9279,"Ġseverity":9280,"pre":9281,"ĠTrust":9282,"Ġvarying":9283,"Rep":9284,"Ġcann":9285,"Ġrequiring":9286,"Ġadvances":9287,"Ġreveals":9288,"Art":9289,"outheast":9290,"Ġtransferred":9291,"uv":9292,"Ġspacecraft":9293,"Ġplatforms":9294,"Ġham":9295,"Ġstrains":9296,"press":9297,"Ġmagnitude":9298,"Ġlogical":9299,"ĠMississippi":9300,"rait":9301,"Ġgly":9302,"Ġembed":9303,"Ġdivine":9304,"Ġenhanced":9305,"ĠRemember":9306,"Ne":9307,"Ġchannels":9308,"Ġwooden":9309,"Ġpowder":9310,"Ġprox":9311,"Ġshr":9312,"ĠPlace":9313,"2009":9314,"Ġpace":9315,"Ġplanted":9316,"ĠFair":9317,"ĠFDA":9318,"Ġinitiatives":9319,"Ġeverywhere":9320,"Ġstreams":9321,"Ġsug":9322,"Ġfunded":9323,"Ġminority":9324,"Ġdropped":9325,"Ġefficiently":9326,"ĠObama":9327,"Ġwise":9328,"Ġzones":9329,"Ġdisplayed":9330,"Ġintegrity":9331,"Ġquantities":9332,"box":9333,"Ġspatial":9334,"arded":9335,"Ġscr":9336,"ener":9337,"isons":9338,"Two":9339,"ologic":9340,"Ġachieving":9341,"ĠSmall":9342,"ĠAction":9343,"ĠLin":9344,"Ġhybrid":9345,"Ġsuspect":9346,"Ġattractive":9347,"Ġrod":9348,"ĠAC":9349,"Ġthemes":9350,"Ġdraft":9351,"ĠSecretary":9352,"ustainable":9353,"uits":9354,"Ġ(âĢľ":9355,"Ġprovision":9356,"ceptions":9357,"Ġsale":9358,"Ġdict":9359,"Ġanthrop":9360,"Ġatoms":9361,"ugs":9362,"Ġ1940":9363,"Ġenjoyed":9364,"Ġsending":9365,"itic":9366,"Ġdisadvant":9367,"rypt":9368,"Ġgods":9369,"Ġabundance":9370,"ython":9371,"Ġsusceptible":9372,"obile":9373,"Ġputs":9374,"security":9375,"Ġaccomplish":9376,"ĠIllinois":9377,"Ġanger":9378,"Ġchurches":9379,"Ġadopt":9380,"Ġcitizen":9381,"Ġhonest":9382,"III":9383,"Ġbought":9384,"oler":9385,"ĠMusic":9386,"Ġstabil":9387,"ĠRail":9388,"ĠFed":9389,"ĠConvention":9390,"Ġ978":9391,"Reg":9392,"ceive":9393,"Ġruled":9394,"Ġreflection":9395,"regon":9396,"Ġcompos":9397,"Ġpractition":9398,"ĠEncyclopedia":9399,"Ġphotographs":9400,"Ġentreprene":9401,"iterranean":9402,"Ġanalyses":9403,"enda":9404,"Ġdiets":9405,"Ġinstances":9406,"Ġpartnership":9407,"Ġscheme":9408,"rub":9409,"ĠCommons":9410,"Ġassociate":9411,"also":9412,"Ġpreserved":9413,"Ġ1989":9414,"Ġverb":9415,"Ġpopularity":9416,"Ġdimensions":9417,"lav":9418,"Ġtab":9419,"Ġtap":9420,"Ġownership":9421,"Ġbee":9422,"Ġvisits":9423,"Aut":9424,"Ġknee":9425,"Ġtongue":9426,"omed":9427,"isting":9428,"velength":9429,"Ġmorph":9430,"ĠSelf":9431,"uled":9432,"di":9433,"ĠMoses":9434,"Ġpeers":9435,"Ġoccasionally":9436,"Ġspons":9437,"Ġdischarge":9438,"Ġtrace":9439,"Ġsmok":9440,"ĠSenate":9441,"54":9442,"emb":9443,"Ġphones":9444,"Ġspreading":9445,"Ġdentist":9446,"Ġregistered":9447,"TA":9448,"ĠDesc":9449,"iano":9450,"2014":9451,"Ġamongst":9452,"Learn":9453,"orig":9454,"ĠBeing":9455,"ĠConsider":9456,"Ġconversion":9457,"Ġpuzz":9458,"Ġlegit":9459,"ĠPoland":9460,"doi":9461,"Ġfascinating":9462,"Ġutility":9463,"Ġgraduate":9464,"Ġswimming":9465,"Ġkg":9466,"Ġmedieval":9467,"Ġpredomin":9468,"Ġsubsid":9469,"97":9470,"ocity":9471,"Ġcrack":9472,"Ġsheep":9473,"ĠNext":9474,"Ġrobust":9475,"Ġpreparing":9476,"Ġwithdraw":9477,"ĠVitamin":9478,"thur":9479,"Ġfifth":9480,"ritten":9481,"ĠArts":9482,"Ġvisiting":9483,"Ġmeetings":9484,"Ġtoile":9485,"Ġapplies":9486,"Ġelevated":9487,"ivities":9488,"ĠÂ©":9489,"ĠTown":9490,"Ġgate":9491,"Ġbleeding":9492,"Ġwal":9493,"Ġalternatives":9494,"Gl":9495,"ĠDictionary":9496,"Ġeleph":9497,"Ġsleeping":9498,"ĠWikipedia":9499,"inery":9500,"ysical":9501,"ĠIndigenous":9502,"Ġreef":9503,"plate":9504,"ĠHaving":9505,"Ġattributed":9506,"vernment":9507,"Ġsuddenly":9508,"Ġindirect":9509,"Ġherself":9510,"flu":9511,"Ġending":9512,"ouri":9513,"aya":9514,"Ġrestricted":9515,"Ġjurisd":9516,"Rem":9517,"itus":9518,"arks":9519,"ocket":9520,"Ġencouraging":9521,"Ġinstallation":9522,"93":9523,"wa":9524,"erb":9525,"ĠCapt":9526,"âĶĢâĶĢ":9527,"mond":9528,"Ġdebris":9529,"Ġperpet":9530,"ĠWhich":9531,"Ġexcav":9532,"worm":9533,"Ġmuc":9534,"Ġdoses":9535,"Ġ120":9536,"Ġinvention":9537,"Ġloop":9538,"Ġ?":9539,"Ġsubsc":9540,"ĠDaniel":9541,"Ġcigare":9542,"Ġencl":9543,"Ġdiscipline":9544,"Ġnoun":9545,"ĠIndones":9546,"Ġcollecting":9547,"Ġsatisfact":9548,"Ġalgorithms":9549,"ĠOlymp":9550,"Ġloan":9551,"Ġscales":9552,"Ġrelate":9553,"Ġoperated":9554,"Ġalongside":9555,"Ġrainfall":9556,"Ġjuice":9557,"Ġrevers":9558,"stru":9559,"Ġprol":9560,"ĠField":9561,"Ġfinish":9562,"Ġcycles":9563,"Ke":9564,"erving":9565,"Ġrefused":9566,"Ġperfectly":9567,"Ġabsolutely":9568,"Ġclassification":9569,"Ġfavour":9570,"rin":9571,"Ġcable":9572,"Ġnom":9573,"ĠMove":9574,"ĠPain":9575,"ĠFred":9576,"Ġcyl":9577,"Ġworkplace":9578,"ĠEmer":9579,"ĠProble":9580,"ĠMinnesota":9581,"ĠAff":9582,"Ġcream":9583,"Ġestablishing":9584,"Ġcited":9585,"eling":9586,"ĠHence":9587,"ĠRight":9588,"ĠAbraham":9589,"Ġsurprise":9590,"emies":9591,"SR":9592,"Ġacceptable":9593,"acles":9594,"Ġcanal":9595,"Ġsymptom":9596,"ĠGreece":9597,"Ġreproductive":9598,"92":9599,"Ġhier":9600,"ĠFrid":9601,"Ġalgorithm":9602,"Ġinherent":9603,"kal":9604,"ĠMP":9605,"vol":9606,"Ġrent":9607,"Ġtrading":9608,"Ġvolunteers":9609,"ifier":9610,"Ġ250":9611,"rium":9612,"ĠLater":9613,"apped":9614,"Ġdocumented":9615,"kl":9616,"Ġscat":9617,"Ġbron":9618,"Ġaccounting":9619,"Ġdynamics":9620,"Ġregulatory":9621,"about":9622,"Ġinvasion":9623,"Ġvalve":9624,"Ġprosper":9625,"ĠMA":9626,"ĠPDF":9627,"Ġmodule":9628,"Scient":9629,"rust":9630,"ĠSupport":9631,"Ġshares":9632,"Ġsummar":9633,"Ġdiagnostic":9634,"ometric":9635,"Ġstere":9636,"ĠHindu":9637,"onents":9638,"ĠMic":9639,"Ġdevelopmental":9640,"jud":9641,"Ġfant":9642,"ĠHung":9643,"ĠFarm":9644,"Ġdevelopers":9645,"cule":9646,"ĠID":9647,"ador":9648,"Ġ1000":9649,"Ġdistant":9650,"Ġdesignated":9651,"ĠTurk":9652,"BI":9653,"orters":9654,"Ġfilms":9655,"Ġencounter":9656,"Ġmerch":9657,"Ġwage":9658,"ĠPL":9659,"Ġresidential":9660,"ĠView":9661,"ĠMediterranean":9662,"Ġ1988":9663,"Ġexclud":9664,"Ġpesticides":9665,"Ġinhabitants":9666,"Ġol":9667,"Ġcave":9668,"Ġgerm":9669,"Ġtransformation":9670,"ĠHistorical":9671,"Ġbite":9672,"ĠRab":9673,"ĠRest":9674,"ĠAncient":9675,"Ġultimate":9676,"Ġsynthetic":9677,"Ġselling":9678,"Ġinev":9679,"stant":9680,"ĠDie":9681,"monary":9682,"Ġathletes":9683,"Ġreserved":9684,"Ġincorporated":9685,"Ġancestors":9686,"etically":9687,"ĠAntar":9688,"OP":9689,"isations":9690,"Ġspeaker":9691,"ications":9692,"utical":9693,"Ġ44":9694,"Ġearthquake":9695,"gments":9696,"ĠGM":9697,"Researchers":9698,"Ġsurveys":9699,"Ġsister":9700,"ĠNutrition":9701,"Ġattempted":9702,"Ġpaintings":9703,"even":9704,"ji":9705,"western":9706,"Ġlingu":9707,"ĠBM":9708,"Ġkitchen":9709,"Ġmammals":9710,"Ġsimultaneously":9711,"ĠMain":9712,"economic":9713,"ools":9714,"ĠWeek":9715,"Ġassessments":9716,"Ġaside":9717,"Ġequipped":9718,"Ġprivacy":9719,"Ġdramatically":9720,"ĠHard":9721,"Ġrecall":9722,"Ġatmospheric":9723,"ĠArea":9724,"Ġbinding":9725,"Ġfraction":9726,"owered":9727,"ĠCorpor":9728,"Ġconflicts":9729,"Ġsectors":9730,"Ġincorporate":9731,"elihood":9732,"ico":9733,"Ġneural":9734,"Ġvillages":9735,"ĠCrit":9736,"Ġexpanding":9737,"ĠAngeles":9738,"Ġexch":9739,"Ġdisk":9740,"Ġrooms":9741,"Ġdistinction":9742,"Ġtotally":9743,"Ge":9744,"zone":9745,"Ġranges":9746,"duction":9747,"Ġunem":9748,"Ġminister":9749,"Ġcalendar":9750,"ĠAfghan":9751,"Ġcivilization":9752,"ĠOften":9753,"Ġburned":9754,"DL":9755,"rose":9756,"Ġvom":9757,"astics":9758,"ilson":9759,"inces":9760,"orus":9761,"Ġbell":9762,"ĠSon":9763,"Ġunderground":9764,"iders":9765,"Ġintra":9766,"Ġallergy":9767,"Ġallergies":9768,"Ġinch":9769,"lear":9770,"ĠLine":9771,"Ġproposal":9772,"Health":9773,"2006":9774,"Ġkilometers":9775,"host":9776,"Ġregime":9777,"Ġprecisely":9778,"ĠStation":9779,"nia":9780,"ĠWalk":9781,"Ġenzymes":9782,"ĠMexican":9783,"Ġdoors":9784,"ĠVan":9785,"ĠBeg":9786,"Ġemployee":9787,"Ġaccidents":9788,"Ġreflects":9789,"Ġinfectious":9790,"sembly":9791,"otypes":9792,"ĠNa":9793,"ĠCarib":9794,"Ġtranslated":9795,"Ġbrains":9796,"ĠMicrosoft":9797,"anth":9798,"Ġfiction":9799,"Ġdying":9800,"Ġmistakes":9801,"Ġtheoretical":9802,"ĠMrs":9803,"ĠLook":9804,"Ġenforcement":9805,"Students":9806,"Ġft":9807,"ĠOnt":9808,"Ġholy":9809,"urse":9810,"ĠSqu":9811,"ĠClub":9812,"Ġhappiness":9813,"Ġblank":9814,"reshold":9815,"ĠBetween":9816,"Ġceleb":9817,"Ġorganism":9818,"Ġpackage":9819,"Ġdistinguish":9820,"Ġalert":9821,"Ġpollut":9822,"ĠPortug":9823,"PV":9824,"vation":9825,"Ġabandoned":9826,"isition":9827,"ĠSus":9828,"ĠDue":9829,"akespe":9830,"Ġtom":9831,"ĠOregon":9832,"300":9833,"Ġhopes":9834,"ĠHum":9835,"iances":9836,"Ġallergic":9837,"ois":9838,"Ġpartial":9839,"Ġappreciate":9840,"ught":9841,"Ġborders":9842,"Ġsystematic":9843,"otion":9844,"aven":9845,"Ġtumors":9846,"akespeare":9847,"Ġbeach":9848,"redit":9849,"Ġsensory":9850,"rizona":9851,"Follow":9852,"ĠLat":9853,"ika":9854,"isticated":9855,"ighth":9856,"Ġpert":9857,"Ġconsuming":9858,"Ġrepeat":9859,"Ġsemi":9860,"ĠTH":9861,"Ġbroke":9862,"Ġsuggesting":9863,"Ġabsorbed":9864,"ĠMatthew":9865,"ĠPath":9866,"ĠFuture":9867,"Ġprolong":9868,"Ġwinds":9869,"Ġentitled":9870,"ĠWriting":9871,"ĠGuard":9872,"Ġabundant":9873,"Ġprevents":9874,"Ġpneum":9875,"Ġrh":9876,"ĠAssessment":9877,"Ġrelating":9878,"Ġelections":9879,"Ġdrops":9880,"Ġrevenue":9881,"ĠFish":9882,"Ġimplementing":9883,"Click":9884,"ouses":9885,"Ġmanuscript":9886,"Ġretain":9887,"Ġinjection":9888,"PD":9889,"sub":9890,"Ġwhenever":9891,"pring":9892,"Sub":9893,"gr":9894,"Ġteens":9895,"page":9896,"ĠTar":9897,"Ġutilized":9898,"ĠScientific":9899,"rip":9900,"ĠOcc":9901,"Ġcameras":9902,"ĠCT":9903,"Ġisolation":9904,"Ġbonds":9905,"ĠWilliams":9906,"Finally":9907,"Ġbears":9908,"anwhile":9909,"Ġhurt":9910,"ricks":9911,"ĠMedia":9912,"ĠApple":9913,"best":9914,"iy":9915,"ĠJack":9916,"Ġparticle":9917,"Ġunto":9918,"ĠBlood":9919,"author":9920,"Ġstruck":9921,"ivate":9922,"Ġconfusion":9923,"Ġlikelihood":9924,"Ġenzyme":9925,"Ġtransplant":9926,"Ġbrush":9927,"Ġfinance":9928,"Ġerect":9929,"olds":9930,"develop":9931,"Ġcircul":9932,"arios":9933,"expected":9934,"ĠAlaska":9935,"Ġavoiding":9936,"Ġmagazine":9937,"ĠMountain":9938,"Ġcompost":9939,"ĠVar":9940,"Ġstretch":9941,"Ġconclusions":9942,"dd":9943,"Ġow":9944,"ĠBased":9945,"Ġinjured":9946,"Ġresemb":9947,"Ġresponsibilities":9948,"!!":9949,"bury":9950,"ersion":9951,"pert":9952,"itzer":9953,"bow":9954,"Ġhung":9955,"odge":9956,"Ġclouds":9957,"Ġoptical":9958,"ĠJones":9959,"Ġextraord":9960,"Ġlecture":9961,"Ġindependently":9962,"Ġcandidate":9963,"cled":9964,"Ġtwelve":9965,"ĠMarine":9966,"ependence":9967,"Ġboundary":9968,"anas":9969,"ilitation":9970,"imen":9971,"Ġendangered":9972,"ĠGermans":9973,"ĠSamuel":9974,"Ġguarantee":9975,"ĠHam":9976,"Ġ600":9977,"Ġdescribing":9978,"Ġhazards":9979,"ĠFriday":9980,"91":9981,"National":9982,"ker":9983,"Ġtough":9984,"Ġcloth":9985,"Ġcontinent":9986,"rimin":9987,"atoes":9988,"Ġreviewed":9989,"Ġantibodies":9990,"ĠVietnam":9991,"ethe":9992,"ideo":9993,"ĠThanks":9994,"Ġimproves":9995,"estone":9996,"Ġconsistently":9997,"Ġwings":9998,"ĠPoly":9999,"Ġedges":10000,"Ġstraw":10001,"Ġpose":10002,"Ġoffices":10003,"Ġofficially":10004,"ĠPractice":10005,"Ġadolescents":10006,"Ġspine":10007,"iscons":10008,"Ġevolutionary":10009,"Ġelderly":10010,"ĠKn":10011,"nea":10012,"Ġcoral":10013,"Ġsuggestions":10014,"Ġengineer":10015,"ĠLuc":10016,"auc":10017,"Ġthank":10018,"Ġreputation":10019,"Ġlegend":10020,"Ġinflation":10021,"Ġmyster":10022,"ATION":10023,"Ġthirty":10024,"ĠPu":10025,"Ġdementia":10026,"oving":10027,"Ġintelligent":10028,"Ġonset":10029,"ĠNic":10030,"Ġ1986":10031,"Ġcollections":10032,"Ġsurrounded":10033,"Ġwages":10034,"ĠNorm":10035,"ĠTwitter":10036,"Ġcorporate":10037,"ĠTraining":10038,"play":10039,"Ġcontainers":10040,"iro":10041,"onics":10042,"Ġrend":10043,"ĠQur":10044,"Ġpenal":10045,"ĠADHD":10046,"rological":10047,"nings":10048,"ĠNeg":10049,"ĠCharl":10050,"isconsin":10051,"Ġtendency":10052,"Ġappointment":10053,"ĠPass":10054,"issance":10055,"Ġpainted":10056,"hr":10057,"ĠAT":10058,"Ġpartly":10059,"Ġmetabolic":10060,"Ġsew":10061,"Ġintr":10062,"ĠOffic":10063,"Ġdiagram":10064,"Ġdiscom":10065,"cts":10066,"ĠCreek":10067,"Ġamino":10068,"ĠConnect":10069,"Man":10070,"Ġul":10071,"Ġsoy":10072,"Ġrepet":10073,"Ġgran":10074,"Ġelementary":10075,"DR":10076,"ĠCub":10077,"they":10078,"Ġgentle":10079,"Ġcircular":10080,"found":10081,"Ġmutations":10082,"Ġsocio":10083,"Ġcontaminated":10084,"Ġlun":10085,"oca":10086,"Ġmemories":10087,"Post":10088,"igious":10089,"Ġpartially":10090,"Ġ43":10091,"iac":10092,"ĠCH":10093,"Ġ64":10094,"Ġrender":10095,"Ġweaken":10096,"Ġdeposits":10097,"enti":10098,"Ġrough":10099,"Ġapproval":10100,"Ġbusy":10101,"ĠYes":10102,"Ġintermedi":10103,"Any":10104,"ĠTrade":10105,"Mar":10106,"ĠProm":10107,"akh":10108,"Ġproducers":10109,"ĠColon":10110,"Ġloud":10111,"Ġfactory":10112,"Ġretail":10113,"engers":10114,"Ġtherapeutic":10115,"who":10116,"Ġflavor":10117,"ogram":10118,"Ġboxes":10119,"Gu":10120,"ĠLog":10121,"ĠAst":10122,"ĠMother":10123,"Ġrib":10124,"Ġsurviv":10125,"Ġgest":10126,"afe":10127,"Ġnursing":10128,"Ġoceans":10129,"ĠBol":10130,"Ġdisag":10131,"Ġbroader":10132,"Ġattributes":10133,"olph":10134,"obic":10135,"Ġgray":10136,"science":10137,"ĠMissouri":10138,"AF":10139,"erness":10140,"Ġwidth":10141,"Ġtribe":10142,"Ġbrothers":10143,"tte":10144,"ĠMajor":10145,"ĠWales":10146,"Ġconsisting":10147,"Os":10148,"ãģ":10149,"Ġexport":10150,"ĠJersey":10151,"aver":10152,"aceutical":10153,"rible":10154,"ĠEgyptian":10155,"fire":10156,"Ĥ¬":10157,"Ġseal":10158,"Ġshoes":10159,"Ġcollapse":10160,"Ġsubsequently":10161,"Ġschem":10162,"Ġdepr":10163,"Ġcuts":10164,"grade":10165,"Ã±":10166,"ĠBrain":10167,"ĠRather":10168,"iking":10169,"Ġverte":10170,"Ġduties":10171,"Ġrefugees":10172,"iating":10173,"Ġpediatric":10174,"ipation":10175,"Ġpatent":10176,"Ġmodeling":10177,"Ġeaten":10178,"Ġphilosoph":10179,"quiry":10180,"Ġvine":10181,"Ġdeliber":10182,"Ġcombine":10183,"Find":10184,"illance":10185,"ospel":10186,"\")":10187,"ĠCDC":10188,"istically":10189,"ecessary":10190,"Trans":10191,"hamm":10192,"lam":10193,"ques":10194,"ĠOp":10195,"ĠOthers":10196,".),":10197,"Che":10198,"Cal":10199,"ĠProduct":10200,"Ġcomplement":10201,"inflamm":10202,"Ġattended":10203,"Ġ85":10204,"da":10205,"ĠHyd":10206,"Ġorganisation":10207,"ĠShould":10208,"Ġerosion":10209,"Yes":10210,"ĠBell":10211,"Ġconfident":10212,"Ġwavelength":10213,"ĠUnlike":10214,"Ġhumidity":10215,"Ġcorrelation":10216,"effective":10217,"Ġdiarrhea":10218,"Î±":10219,"Ġdemocratic":10220,"Ġinvestments":10221,"Ġcensus":10222,"Ġsomewhere":10223,"Ġarrival":10224,"Ġsurvived":10225,"ĠTurkey":10226,"Ġdried":10227,"Ġentrance":10228,"Ġadoption":10229,"Ġgaps":10230,"Ġreasoning":10231,"Ġfluids":10232,"Ġgrad":10233,"Ġfitness":10234,"urricane":10235,"vit":10236,"ĠSn":10237,"ĠJr":10238,"oting":10239,"aylor":10240,"thood":10241,"Ġmonthly":10242,"Ġstriking":10243,"Ġrom":10244,"ĠArizona":10245,"ĠRen":10246,"ooked":10247,"ĠInterest":10248,"Ġscholar":10249,"ĠPhysical":10250,"Ġ%":10251,"Ġspell":10252,"Ġthoroughly":10253,"Ġaltered":10254,"ĠRNA":10255,"Ġalgae":10256,"Ġproud":10257,"omon":10258,"Ġchocolate":10259,"friendly":10260,"Ġ(\"":10261,"Ġdeer":10262,"ĠBush":10263,"ĠUnivers":10264,"Ġsophisticated":10265,"ĠBest":10266,"Ġdivide":10267,"Ġpale":10268,"sters":10269,"seud":10270,"eterm":10271,"ĠHay":10272,"Ġensures":10273,"2005":10274,"Ġdefinitions":10275,"Ġtracking":10276,"Ġregister":10277,"Ġevaluated":10278,"Ġhorizontal":10279,"Ġthrow":10280,"ĠIde":10281,"orer":10282,"Ġvice":10283,"Ġapps":10284,"ĠAdam":10285,"Ġcandidates":10286,"ĠFer":10287,"Ġaxis":10288,"ĠDyn":10289,"Ġparks":10290,"ican":10291,"ĠSav":10292,"ĠMap":10293,"ĠIntroduction":10294,"94":10295,"Ġlasting":10296,"Ġcataly":10297,"Ġseparation":10298,"ĠCR":10299,"Ġexhibition":10300,"ĠWorking":10301,"Ġsovere":10302,"income":10303,"Ġpleasure":10304,"Ġinvented":10305,"Ac":10306,"ĠHig":10307,"Ġoperational":10308,"ĠResearchers":10309,"dominal":10310,"Ġtoxins":10311,"arten":10312,"Ġdistract":10313,"Ġsheets":10314,"Ġposted":10315,"BD":10316,"ĠSem":10317,"Ġexpend":10318,"ĠPhD":10319,"ĠSimilarly":10320,"ĠCaribbean":10321,"esthetic":10322,"phones":10323,"psy":10324,"Ġuncertainty":10325,"ĠDiet":10326,"Ġassault":10327,"Ġpreservation":10328,"Ġadjacent":10329,"Ġelectrons":10330,"Ġdesigning":10331,"Ġtanks":10332,"Ġplacing":10333,"iph":10334,"ĠBerlin":10335,"list":10336,"van":10337,"Ġcosm":10338,"Ġdiscomfort":10339,"ĠBalt":10340,"Ġrats":10341,"Ġcapability":10342,"ednes":10343,"ĠShakespeare":10344,"ĠPlay":10345,"ĠStandards":10346,"Ġbottle":10347,"ermat":10348,"Ġpromotes":10349,"ĠMind":10350,"2017":10351,"Ġcheese":10352,"ĠSchools":10353,"ECT":10354,"imensional":10355,"2000":10356,"BA":10357,"oa":10358,"Ġweekly":10359,"Ġadministrative":10360,"Ġsubmit":10361,"ela":10362,"emeter":10363,"Ġseiz":10364,"Ġsubmitted":10365,"Ġfilters":10366,"Ġappet":10367,"Ġhypert":10368,"ĠNich":10369,"Ġgrams":10370,"athan":10371,"Ġfingers":10372,"Ġalumin":10373,"ntil":10374,"ĠGDP":10375,"Ġjew":10376,"Ġexcited":10377,"step":10378,"thal":10379,"Ġpassword":10380,"Ġdesk":10381,"formed":10382,"Ġmini":10383,"onomous":10384,"Ġelabor":10385,"ĠPrint":10386,"adequ":10387,"Ġfaculty":10388,"Mod":10389,"ĠTheory":10390,"ĠPaper":10391,"ĠStory":10392,"Ġcommod":10393,"plex":10394,"Ġreceives":10395,"Ġtermin":10396,"Ġpredators":10397,"Ġindicators":10398,"ctu":10399,"Ġglob":10400,"ĠMaryland":10401,"Ġauthentic":10402,"CL":10403,"Ġwake":10404,"Ġride":10405,"Ġtolerance":10406,"Ġcodes":10407,"ypically":10408,"Ġlabels":10409,"Ġspeakers":10410,"ĠDavis":10411,"human":10412,"Ġdisplays":10413,"Ġconvenient":10414,"vy":10415,"Ġconsent":10416,"Ġcluster":10417,"Ġmisc":10418,"ĠApplic":10419,"Ġroutes":10420,"ĠClinical":10421,"Ġindoor":10422,"OW":10423,"Ġhip":10424,"Ġnotable":10425,"Ġhomework":10426,"ĠComputer":10427,"Ġchamber":10428,"Ã¨":10429,"atile":10430,"Ġstems":10431,"elly":10432,"eller":10433,"plan":10434,"Ġhighlights":10435,"Ġtreaty":10436,"atching":10437,"yan":10438,"ctors":10439,"ĠNation":10440,"âĢĿ)":10441,"Ġ41":10442,"Ġcycl":10443,"Ġseasonal":10444,"Ġgrammar":10445,"ĠOntario":10446,"ĠMonday":10447,"ĠLewis":10448,",âĢĻ":10449,"Ġthreshold":10450,"ods":10451,"Ġintensive":10452,"Ġeconomics":10453,"Ġfatal":10454,"Ġattacked":10455,"Ġawarded":10456,"Ġlicense":10457,"SL":10458,"anium":10459,"ĠCulture":10460,"Will":10461,"Ġpond":10462,"iler":10463,"ĠFac":10464,"ĠOrder":10465,"Ġavoided":10466,"otten":10467,"uns":10468,"aze":10469,"ĠExamples":10470,"ĠQuestions":10471,"rosis":10472,"thodox":10473,"800":10474,"ĠWisconsin":10475,"berries":10476,"Ġcamps":10477,"Ġaggreg":10478,"ĠWars":10479,"ĠThird":10480,"Ġworkshop":10481,"ĠPrince":10482,"Ġdestination":10483,"Ġmurder":10484,"bul":10485,"only":10486,"ĠHab":10487,"Ġmira":10488,"Ġgovernor":10489,"Ġtraveling":10490,"yes":10491,"asal":10492,"Ġnic":10493,"ffe":10494,"ĠON":10495,"Ġprotest":10496,"Ġvalley":10497,"Ġirregular":10498,"Research":10499,"acle":10500,"ĠAsh":10501,"Ġreturning":10502,"ercise":10503,"Ġobviously":10504,"Ġpersistent":10505,"umns":10506,"ositive":10507,"Ġpayments":10508,"Ġscenarios":10509,"law":10510,"Ġnodes":10511,"Ġloans":10512,"fly":10513,"ĠOil":10514,"Ġperf":10515,"ĠShort":10516,"Ġupdate":10517,"Ġtiming":10518,"ĠText":10519,"Ġtower":10520,"ĠGarden":10521,"Ġelig":10522,"Ġassistant":10523,"Ġprecipitation":10524,"Ġpine":10525,"Ġfounder":10526,"Ġimagination":10527,"Through":10528,"Ġvelocity":10529,"oom":10530,"Ġplasma":10531,"Ġresolve":10532,"Ġinvestors":10533,"bage":10534,"Ġcolored":10535,"Ġaffairs":10536,"Cop":10537,"Ġfluor":10538,"Ġflooding":10539,"Ġimmigration":10540,"Ġleak":10541,"Ġshadow":10542,"Ġworn":10543,"rophic":10544,"Ġtransformed":10545,"quarters":10546,"Ġpotassium":10547,"Ġcircles":10548,"Ġfemin":10549,"ĠInteg":10550,"Ġmobility":10551,"ĠFrancis":10552,"Ġaccomplished":10553,"ĠNazi":10554,"ori":10555,"ĠHo":10556,"reatment":10557,"ĠAssembly":10558,"Ġadministered":10559,"Ġthrive":10560,"Ġunexpected":10561,"Ġdistances":10562,"forced":10563,"Ġwelcome":10564,"Water":10565,"ivals":10566,"Ġpromising":10567,"ursday":10568,"UM":10569,"reement":10570,"ĠYellow":10571,"Ġfootprint":10572,"Ġdollar":10573,"ineteenth":10574,"Ġbull":10575,"duate":10576,"Ġbioc":10577,"ĠDifferent":10578,"Ġalike":10579,"Ġimportantly":10580,"azz":10581,"Ġparticipating":10582,"Ġexpressions":10583,"Ġconnecting":10584,"ĠFig":10585,"Ġsequences":10586,"Ġaffordable":10587,"Ġmirror":10588,"Ġfirms":10589,"Ġcontrad":10590,"aping":10591,"Ġassessed":10592,"Children":10593,"sized":10594,"Ġvag":10595,"Ġshouldn":10596,"Ġlegacy":10597,"Ġprevented":10598,"ylon":10599,"Ġstruggling":10600,"role":10601,"ĠAnne":10602,"Ġ1985":10603,"Ġcompliance":10604,"ĠStill":10605,"Ġ46":10606,"Ġoverwhelming":10607,"hall":10608,"Ġbuck":10609,"verages":10610,"ĠWithin":10611,"Ġmolecule":10612,"ĠDoc":10613,"ĠOS":10614,"Ġconcentrated":10615,"Ġcertific":10616,"EA":10617,"ĠBat":10618,"Ġprone":10619,"Ġnumer":10620,"Ġprogression":10621,"Ġdistress":10622,"Ġdrives":10623,"Ġsynthesis":10624,"Ġemit":10625,"ERS":10626,"commun":10627,"date":10628,"uan":10629,"Ġsymb":10630,"dess":10631,"ĠProper":10632,"Ġperspectives":10633,"Ġforever":10634,"ĠÂ°":10635,"Ġdecreases":10636,"Ġtape":10637,"Ġsle":10638,"arians":10639,"ĠPope":10640,"Ġmonument":10641,"Ġbullying":10642,"Ġshopping":10643,"healthy":10644,"bro":10645,"cal":10646,"Ġthesis":10647,"Ġnick":10648,"ĠSud":10649,"ednesday":10650,"Wor":10651,"restrial":10652,"Ġearned":10653,"Ġcharges":10654,"Ġsurprised":10655,"Ġvacuum":10656,"cor":10657,"Ġfles":10658,"Ġinflammatory":10659,"Ġpushed":10660,"ĠCall":10661,"ĠMarc":10662,"ĠScript":10663,"2004":10664,"Ġverse":10665,"ĠEconom":10666,"Ġprospect":10667,"Ġimperial":10668,"Ġepidemic":10669,"Ġpursue":10670,"raid":10671,"ĠJim":10672,"oved":10673,"Ġfreely":10674,"ropriate":10675,"uclear":10676,"ococc":10677,"Ġeducated":10678,"Ġindicating":10679,"Ġarrive":10680,"Ġpunishment":10681,"Ġfan":10682,"lyn":10683,"Ġheal":10684,"uble":10685,"there":10686,"Ġpathways":10687,"----":10688,"Ġphysicians":10689,"Ġaster":10690,"Ġbark":10691,"Ġdow":10692,"omatic":10693,"ulture":10694,"ĠIsa":10695,"ashed":10696,"Ġrehab":10697,"umbers":10698,"ĠNY":10699,"Ġfibers":10700,"Ġdrainage":10701,"Ġcelebration":10702,"atories":10703,"urated":10704,"ĠUnderstanding":10705,"Further":10706,"inch":10707,"Ġhistorians":10708,"itate":10709,"ĠHem":10710,"iki":10711,"Ġcontrary":10712,"high":10713,"Ġshallow":10714,"ĠStatistics":10715,"Ġartif":10716,"Ġcrimes":10717,"ĠDarwin":10718,"rics":10719,"neg":10720,"Ġexplored":10721,"Ġdevoted":10722,"Ġargues":10723,"Ġempire":10724,"ĠTenn":10725,"Ġenabling":10726,"Ġdefines":10727,"Ġrobots":10728,"Ġdefects":10729,"Ant":10730,"Ass":10731,"iversary":10732,"ĠQuality":10733,"Ġtremend":10734,"Ġpest":10735,"leton":10736,"Ġloyal":10737,"Ġdeadly":10738,"Ġphenomena":10739,"Ġmissions":10740,"Ġconfused":10741,"Ġcontributes":10742,"Ġbind":10743,"storm":10744,"Ġ800":10745,"Ġqualified":10746,"Ġsacrifice":10747,"olt":10748,"ĠNOT":10749,"ĠLocal":10750,"Ġinspiration":10751,"Ġtourism":10752,"Ġparliament":10753,"Ġobser":10754,"ĠPeace":10755,"ĠPsychology":10756,"Ġpanc":10757,"icides":10758,"ĠDun":10759,"Ġstakeholders":10760,"Ġcarbohydrates":10761,"Ġpublications":10762,"sequently":10763,"ĠDemocratic":10764,"early":10765,"Ġtransactions":10766,"2003":10767,"Ġdistinguished":10768,"Ġmile":10769,"orious":10770,"Ġpharmac":10771,"Ġfallen":10772,"Ġmes":10773,"Ġanat":10774,"ĠGP":10775,"Ġjaw":10776,"hedral":10777,"2015":10778,"Ġencourages":10779,":||":10780,"Ġexpenses":10781,"Ġorientation":10782,"Ġembedded":10783,"Ġsail":10784,"ĠRedu":10785,"Ġenlar":10786,"gged":10787,"Ġlawn":10788,"Back":10789,"Ġyes":10790,"Ġheter":10791,"Ġbask":10792,"ĠEmperor":10793,"ĠTeachers":10794,"Ġdishes":10795,"ĠIndex":10796,"Ġ1987":10797,"Ġoccupation":10798,"rared":10799,"Ġextinction":10800,"ĠGuinea":10801,"ĠGovernor":10802,"Ġacquire":10803,"Ġspir":10804,"ĠJava":10805,"Ġspeeds":10806,"ĠMathemat":10807,"UC":10808,"ja":10809,"chron":10810,"Ġcarries":10811,"Ġdistinctive":10812,"Ġmanufacturer":10813,"Have":10814,"ĠLED":10815,"phal":10816,"ĠTreaty":10817,"Ġsteady":10818,"Ġlibraries":10819,"case":10820,"Ġgau":10821,"Ġtunnel":10822,"ĠUtah":10823,"Ġdeleg":10824,"ĠWilson":10825,"Ġimpressive":10826,"Ġprovisions":10827,"ĠImport":10828,"Ġsnake":10829,"osity":10830,"ĠEnt":10831,"Ġseasons":10832,"ĠAltern":10833,"ĠNether":10834,"ĠClean":10835,"Ġthorough":10836,"Ġbroadcast":10837,"Ġrhythm":10838,"400":10839,"Ġbin":10840,"Ġcolleges":10841,"Ġmoments":10842,"Ġcontinuously":10843,"Ð°":10844,"Ġfet":10845,"Ġlanding":10846,"Ġassociations":10847,"ĠTurn":10848,"ĠMuch":10849,"ĠHon":10850,"Ġmethane":10851,"ĠVictoria":10852,"fare":10853,"Ġpests":10854,"Ġgains":10855,"ĠReal":10856,"Ġsalmon":10857,"Ġdigestion":10858,"Ġreserves":10859,"Def":10860,"Ġbearing":10861,"lings":10862,"ĠMong":10863,"achel":10864,"ĠJob":10865,"Ġrepresentatives":10866,"ĠFa":10867,"ĠCenters":10868,"RS":10869,"Ġhack":10870,"stic":10871,"Ġshade":10872,"Ġfertility":10873,"Ġdialogue":10874,"Ġtalks":10875,"Ġdefeat":10876,"ĠFollowing":10877,"Ġasks":10878,"ĠLeague":10879,"Ġcampus":10880,"teenth":10881,"efits":10882,"ĠStudent":10883,"Ġenabled":10884,"Ġsafer":10885,"Ġconducting":10886,"Ġruling":10887,"GS":10888,"yard":10889,"Ġconsensus":10890,"Ġspecimens":10891,"ĠScientists":10892,"Ġarchaeological":10893,"Ġvomiting":10894,"type":10895,"uine":10896,"ĠPA":10897,"Ġwashing":10898,"ĠGil":10899,"Ġpriest":10900,"Ġfrog":10901,"Ġprostate":10902,"mus":10903,"ĠCore":10904,"Ġsearching":10905,"ĠVolume":10906,"Ġprescription":10907,"Ġenact":10908,"Ġspark":10909,"Ġapple":10910,"Ġpubl":10911,"Ġmatrix":10912,"doors":10913,"Ġvector":10914,"IST":10915,"Ġreceptors":10916,"Ġmapping":10917,"Ġmalaria":10918,"Ġcoordination":10919,"bu":10920,"Ġrelatives":10921,"acher":10922,"ĠPhilos":10923,"Ġreviews":10924,"ergarten":10925,"Ġshelter":10926,"yt":10927,"Ġwed":10928,"Ġutilize":10929,"Ġinfluenza":10930,"swered":10931,"bet":10932,"eous":10933,"ko":10934,"imals":10935,"ĠAIDS":10936,"ĠHarr":10937,"Ġimmunity":10938,"Ġcoins":10939,"Ġsubstr":10940,"Ġorganisations":10941,"Ġirre":10942,"Ġsettlers":10943,"Ġbags":10944,"enh":10945,"Ġcourage":10946,"istent":10947,"ĠThink":10948,"ĠMonth":10949,"Ġpink":10950,"igma":10951,"angel":10952,"ĠSci":10953,"aturday":10954,"Ġwelding":10955,"Ġbrowser":10956,"Ġreplic":10957,"Ġlunch":10958,"Ġtraditionally":10959,"Ġsolely":10960,"Ġcontroversial":10961,"ĠNevertheless":10962,"Ġmeteor":10963,"ĠBern":10964,"ĠWHO":10965,"insula":10966,"Ġemerge":10967,"Whe":10968,"ulsion":10969,"dis":10970,"nals":10971,"Ġtoys":10972,"ĠHu":10973,"front":10974,"Ġnerves":10975,"ĠStone":10976,"Ġopens":10977,"Ġdisappear":10978,"don":10979,"orney":10980,"Ġpermitted":10981,"Ġoccurrence":10982,"ĠPrim":10983,"Ġtherapies":10984,"Ġgastro":10985,"Ġdegradation":10986,"Ġtexture":10987,"Ġfoster":10988,"essional":10989,"egu":10990,"Ġcouncil":10991,"ĠDid":10992,"ĠâĢĿ":10993,"Ġgenus":10994,"Ġcriticism":10995,"Ġreservoir":10996,"Ġskilled":10997,"Ġinfluential":10998,"Ġdiagnose":10999,"Ġmagnet":11000,"Ġextraordinary":11001,"Â©":11002,"ceeds":11003,"ĠHan":11004,"Ġabol":11005,"Ġbills":11006,"heastern":11007,"ĠWW":11008,"Ġteaches":11009,"Ġemployers":11010,"Ġillustrated":11011,"Ä«":11012,"etry":11013,"owed":11014,"Ġrestored":11015,"Ġsampling":11016,"Ġadaptation":11017,"Ġincredible":11018,"Both":11019,"matic":11020,"Ġcope":11021,"Ġhill":11022,"ĠTib":11023,"ĠRisk":11024,"Ġprecision":11025,"Ġprogressive":11026,"ĠBridge":11027,"Ġpigs":11028,"Ð¾":11029,"Ġpou":11030,"arer":11031,"Ġinsu":11032,"ĠAnimal":11033,"Ġzinc":11034,"Ġpoorly":11035,"rology":11036,"ĠJefferson":11037,"ÏĦ":11038,"Ġfilling":11039,"ĠFranklin":11040,"ĠNE":11041,"ĠChall":11042,"Ġcolumns":11043,"Ġkeys":11044,"ructive":11045,"Ġthickness":11046,"inflammatory":11047,".||":11048,"nected":11049,"ĠCe":11050,"Ġspelling":11051,"Dep":11052,"Ġharsh":11053,"Ġmeditation":11054,"Ġlocally":11055,"Ġlith":11056,"ĠFull":11057,"arest":11058,"Ġnamely":11059,"Ġhide":11060,"Ġchron":11061,"Ġlimiting":11062,"Ġ49":11063,"Ġgenerating":11064,"ĠGrade":11065,"High":11066,"Ġhardly":11067,"Ġ1984":11068,"Ġcalculations":11069,"Ġshield":11070,"Ġsyll":11071,"Ġdiver":11072,"Ġradi":11073,"Ġreproduction":11074,"lation":11075,"ĠSix":11076,"Ġarranged":11077,"Ġincredibly":11078,"ĠSC":11079,"acon":11080,"Ġchip":11081,"Ġgrace":11082,"Ġfertilizer":11083,"ME":11084,"ĠDaily":11085,"pson":11086,"Ġgathering":11087,"Ġneedle":11088,"ĠAllah":11089,"Ġdemonstrates":11090,"Ġanch":11091,"ĠHot":11092,"actic":11093,"Ġimpr":11094,"Ġinclusion":11095,"Ġencomp":11096,"Ġcomparing":11097,"Ġ47":11098,"Ġcompletion":11099,"ttes":11100,"ĠDeath":11101,"Ġcrust":11102,"Ġreferring":11103,"HT":11104,"rons":11105,"ibli":11106,"Ġtracks":11107,"Ġskull":11108,"thening":11109,"Ġsuspected":11110,"osaurs":11111,"Ġber":11112,"ĠPV":11113,"Ġtransf":11114,"Ġinstant":11115,"Ġcarcin":11116,"Ġportray":11117,"ĠPolish":11118,"Ġliberal":11119,"ĠIndividual":11120,"Ġrecommends":11121,"Ġdeclined":11122,"Ġimplies":11123,"Ġfrozen":11124,"owners":11125,"Ġ^":11126,"icting":11127,"ĠSac":11128,"ountered":11129,"gener":11130,"ĠExec":11131,"RNA":11132,"Ġoverweight":11133,"ĠArm":11134,"Ġeducate":11135,"Ġdamaging":11136,"Ġmachinery":11137,"Ġcerv":11138,"Ġnort":11139,"ĠSab":11140,"Ġgenetics":11141,"Ġfeatured":11142,"Ġyields":11143,"ĠNetherlands":11144,"burn":11145,"ĠSource":11146,"Ġmarkers":11147,"Ġafraid":11148,"Ġhunger":11149,"Ġhazardous":11150,"iors":11151,"icked":11152,"ĠProtest":11153,"World":11154,"Ġpor":11155,"ĠAud":11156,"iatric":11157,"idae":11158,"Ġdehyd":11159,"Ġbrid":11160,"Ġresilience":11161,"ĠCase":11162,"ĠLu":11163,"coin":11164,"ĠEssay":11165,"hops":11166,"run":11167,"gered":11168,"Ġmetap":11169,"Ġdiscussing":11170,"ĠHom":11171,"warf":11172,"inition":11173,"ĠØ":11174,"Ġcoinc":11175,"ĠRomans":11176,"ĠRose":11177,"Ġreson":11178,"Ġextrem":11179,"Ġencountered":11180,"Ġphotography":11181,"EST":11182,"Ġdinner":11183,"Cs":11184,"Ġthinks":11185,"ĠRand":11186,"Ġconfront":11187,"ĠEnter":11188,"Ġessays":11189,"Christ":11190,"Ġanalog":11191,"flies":11192,"hour":11193,"asures":11194,"Ġhorn":11195,"ĠGiven":11196,"uster":11197,"Ġconsiderably":11198,"Ġprecious":11199,"dimensional":11200,"ĠWatch":11201,"agger":11202,"ashing":11203,"Ġcategor":11204,"ĠSpecies":11205,"à¥":11206,"ĠBon":11207,"ancial":11208,"Ġstorms":11209,"fold":11210,"Ġfate":11211,"apore":11212,"Ġattain":11213,"supp":11214,"Ġelectronics":11215,"ĠOs":11216,"Ġtech":11217,"Ġ1900":11218,"iley":11219,"Ġmultipl":11220,".-":11221,"ĠGre":11222,"Ġdesigners":11223,"Ġdisposal":11224,"iosity":11225,"Ġsucceeded":11226,"ĠWrite":11227,"ĠEvent":11228,"Ġmainstream":11229,"Ġmystery":11230,"Ġtied":11231,"ĠPrize":11232,"Ġacknowledge":11233,"Ġrejected":11234,"aft":11235,"ĠWy":11236,"Ġinspect":11237,"Ġboards":11238,"Ġessence":11239,"ochond":11240,"Ġinadequ":11241,"Ġ1945":11242,"induced":11243,"arding":11244,"Ġquote":11245,"Ġstressed":11246,"Ġoriginated":11247,"Ġprevalent":11248,"Ġabroad":11249,"Ġflies":11250,"Ġrealistic":11251,"Ġdangers":11252,"ĠBelg":11253,"Ġgland":11254,"Ġgums":11255,"ĠLuther":11256,"range":11257,"Ġmakers":11258,"Ġlying":11259,"ĠName":11260,"Ġsperm":11261,"Ġherbs":11262,"ĠSpe":11263,"anna":11264,"ĠTransport":11265,"Ġliberty":11266,"ropolitan":11267,"Ġpathogens":11268,"Ġuter":11269,"Ġfault":11270,"Ġsituated":11271,"Ġpupp":11272,"rock":11273,"ĠAh":11274,"uesday":11275,"Ġclassrooms":11276,"Ġaccompany":11277,"some":11278,"ĠGir":11279,"Ġpride":11280,"Ġillustrate":11281,"Ġcounterpart":11282,"ĠJon":11283,"Ġwritings":11284,"Ġgolden":11285,"Ġexecution":11286,"Ġdismiss":11287,"Ġdominated":11288,"ĠRepublican":11289,"stration":11290,"Ġdiscl":11291,"Ġdeterior":11292,"Ġsecre":11293,"Ġappetite":11294,"Ġma":11295,"Ġyard":11296,"Ġempower":11297,"Ġconfiguration":11298,"Ġbeet":11299,"ogene":11300,"velt":11301,"ĠIntellig":11302,"Ġrotation":11303,"Ġrevolutionary":11304,"Ġcommem":11305,"Ġgenerator":11306,"Ġtelephone":11307,"ĠBuddha":11308,"ĠSher":11309,"Ġdign":11310,"athers":11311,"Ġmasses":11312,"Ġinvestigated":11313,"Ġprisoners":11314,"Ġexpedition":11315,"Ġvolumes":11316,"Ġprophe":11317,"ĠHas":11318,"oked":11319,"feeding":11320,"View":11321,"Ġ1983":11322,"ĠCF":11323,"ĠNG":11324,"Ġcompat":11325,"Ġpoliticians":11326,"Ġacceptance":11327,"first":11328,"Ġgenetically":11329,"onto":11330,"Ġrefrig":11331,"lessly":11332,"ophag":11333,"Ġmutation":11334,"Ġstimulate":11335,"Well":11336,"instein":11337,"itle":11338,"arium":11339,"ulates":11340,"Ġorganize":11341,"Ġmeter":11342,"Ġcrossing":11343,"Ġbelonging":11344,"Ġexclusively":11345,"Based":11346,"kh":11347,"Ġvoting":11348,"His":11349,"Ġbeam":11350,"emed":11351,"Ġequations":11352,"Ġbehalf":11353,"Ġrecycled":11354,"ĠMes":11355,"Ġkings":11356,"rels":11357,"Ġfurniture":11358,"Ġsel":11359,"Ġeconomies":11360,"Ġfacial":11361,"Ġattracted":11362,"Ġignore":11363,"ĠAvailable":11364,"eared":11365,"xic":11366,"emics":11367,"ikes":11368,"Ġaquatic":11369,"ĠAfghanistan":11370,"Ġstiff":11371,"aments":11372,"Ġcompact":11373,"Ġdistribut":11374,"Ġimmense":11375,"Ġprotects":11376,"activity":11377,"iolet":11378,"ĠBuddh":11379,"ĠSymptoms":11380,"natural":11381,"Ġtang":11382,"ĠNC":11383,"Ġgrave":11384,"Spec":11385,"Ġmistake":11386,"ĠFord":11387,"Ġsubtle":11388,"Ġethics":11389,"Ġweapon":11390,"spring":11391,"Ġanswered":11392,"rying":11393,"Though":11394,"Ġsustained":11395,"Ġseverely":11396,"link":11397,"âĦ":11398,"ĠNep":11399,"Ġaffil":11400,"ĠTro":11401,"ĠTaylor":11402,"Ġsenses":11403,"vi":11404,"Î¿":11405,"Ġtag":11406,"Ġgang":11407,"ĠMission":11408,"abetic":11409,"ĠNumber":11410,"ruce":11411,"Ġlift":11412,"Ġconversations":11413,"Ġdepartments":11414,"Ġaccordance":11415,"Ġshipping":11416,"ifferent":11417,"Ġundergo":11418,"Ġ52":11419,"Ġingredient":11420,"Ġisot":11421,"Ġvapor":11422,"riction":11423,"ĠAustria":11424,"Ġdiscoveries":11425,"Ġconservative":11426,"Ġaids":11427,"orne":11428,"ĠElectric":11429,"entieth":11430,"vals":11431,"Ġic":11432,"opt":11433,"access":11434,"asting":11435,"Ġpresum":11436,"Ġarrangement":11437,"nut":11438,"Ġhang":11439,"Ġarbit":11440,"ĠZh":11441,"Ġassumptions":11442,"arter":11443,"Ġorn":11444,"othy":11445,"ognition":11446,"Ġincorrect":11447,"Ġcer":11448,"ĠIron":11449,"Ġoutline":11450,"Ġcurious":11451,"Ġpulled":11452,"ĠSTEM":11453,"Ġcong":11454,"Ġfestival":11455,"!)":11456,"ĠPear":11457,"ĠYears":11458,"ĠMcC":11459,"Ġnurse":11460,"ĠOR":11461,"Ġ1918":11462,"Ġpatri":11463,"2016":11464,"conf":11465,"aki":11466,"Ġunity":11467,"formance":11468,"Ġcombust":11469,"Ġcatal":11470,"agle":11471,"osevelt":11472,"Ġpries":11473,"Ġdocumentation":11474,"Next":11475,"amous":11476,"ĠCorps":11477,"Ġunnecessary":11478,"Ġmast":11479,"ĠFlow":11480,"Ġsoap":11481,"Ġmultip":11482,"iplinary":11483,"owa":11484,"ĠCit":11485,"opol":11486,"ersed":11487,"ouring":11488,"Ġinfin":11489,"Ġemission":11490,"Ġmilit":11491,"Ġsupplied":11492,"Ġrescue":11493,"Ðµ":11494,"stead":11495,"Ġcommands":11496,"Ġgeographic":11497,"Ġconstitutional":11498,"ĠIndonesia":11499,"pm":11500,"ĠTal":11501,"ĠDu":11502,"Ġ51":11503,"ĠSyria":11504,"Ġought":11505,"ĠAz":11506,"ĠTherapy":11507,"Ġric":11508,"enders":11509,"Ġphysiological":11510,"Ġconsiderations":11511,"Ġinver":11512,"Ġrings":11513,"Ġartistic":11514,"ĠFront":11515,"ĠDepression":11516,"Ġterritories":11517,"gregation":11518,".(":11519,"vae":11520,"Ġ~":11521,"ĠCold":11522,"Ġexamining":11523,"Ġcostly":11524,"ĠBehavior":11525,"Take":11526,"ĠPython":11527,"Ġviable":11528,"Ġ1800":11529,"Ġinequality":11530,"orient":11531,"ĠHop":11532,"Ġoverse":11533,"Ġoperators":11534,"Ġpowered":11535,"Ġcollaborative":11536,"Ġupdates":11537,"ĠPersian":11538,"burgh":11539,"Ġprolonged":11540,"school":11541,"uty":11542,"Ġoutdoors":11543,"ĠTeaching":11544,"Ġswallow":11545,"Ġenterprise":11546,"ĠCorporation":11547,"imeter":11548,"imedia":11549,"ĠBit":11550,"ĠNS":11551,"Ġdisin":11552,"Ġseeks":11553,"Ġcatast":11554,"Ġscenes":11555,"ĠEle":11556,"pton":11557,"Ġportions":11558,"Ġpollutants":11559,"Mus":11560,"Ġabdominal":11561,"ĠUlt":11562,"Ġexpense":11563,"Ġblockchain":11564,"ĠDiabetes":11565,"inning":11566,"Ġdisput":11567,"Ġgalaxies":11568,"Ġprogrammes":11569,"bral":11570,"oning":11571,"asis":11572,"arts":11573,"Ġscrew":11574,"ĠPeru":11575,"Ġpicked":11576,"rasound":11577,"ĠEthiop":11578,"non":11579,"ordan":11580,"ausea":11581,"Ġfeas":11582,"Ġhistorian":11583,"Ġautomated":11584,"xious":11585,"Ġgaining":11586,"ĠBio":11587,"Ġ2023":11588,"Ġquantitative":11589,"risk":11590,"ĠPhysics":11591,"Ġcounties":11592,"Ġpix":11593,"Ġmim":11594,"ĠBh":11595,"ĠNig":11596,"Ġpersonally":11597,"Ġexplaining":11598,"ĠPrime":11599,"olescent":11600,"ĠKorean":11601,"PL":11602,"olly":11603,"ĠLt":11604,"Ġextraction":11605,"Ġcoin":11606,"Ġentity":11607,"Ġ99":11608,"Ġantibiotic":11609,"Ġpulmonary":11610,"Ġrelieve":11611,"Ġmeets":11612,"Ġrecur":11613,"Ġmanufactured":11614,"Ġprotocols":11615,"entral":11616,"ilib":11617,"igration":11618,"ĠMand":11619,"ronaut":11620,"Ġapplicable":11621,"Ġspecialists":11622,"Ġcardiac":11623,"giving":11624,"onent":11625,"Ġmi":11626,"reating":11627,"Ġmotivated":11628,"Ġadvertising":11629,"El":11630,"Ġstatic":11631,"ĠDuke":11632,"Ġaccessed":11633,"Ġdetermination":11634,"Ġtraveled":11635,"Ġanalyzing":11636,"âĦ¢":11637,"Make":11638,"ussion":11639,"ĠTrump":11640,"ĠMarx":11641,"Ġ1979":11642,"Ġsnakes":11643,"Ġexecuted":11644,"ĠStephen":11645,"Ġsurveillance":11646,"Pat":11647,"Ġnode":11648,"ĠTree":11649,"ĠIC":11650,"ĠScottish":11651,"good":11652,"Ġbike":11653,"ĠCape":11654,"ĠEs":11655,"Ġveterin":11656,"ez":11657,"inian":11658,"ishers":11659,"ilateral":11660,"Ġalb":11661,"Ġdigit":11662,"Ġodd":11663,"ĠPMID":11664,"Ġyeast":11665,"whe":11666,"Ġmercury":11667,"ĠLawrence":11668,"lastname":11669,"Ġwra":11670,"Ġimpression":11671,"Ġinterrupt":11672,"Ġcondem":11673,"roleum":11674,"Ġdeple":11675,"Ġbrill":11676,"2001":11677,"Ġgroundwater":11678,"Ġdatas":11679,"ĠSweden":11680,"Those":11681,"Ġnecessity":11682,"Ġmarginal":11683,"Ag":11684,"Ġpec":11685,"ĠTalk":11686,"ĠArmen":11687,"eav":11688,"ĠCond":11689,"angers":11690,"ĠKim":11691,"Ġslide":11692,"olecular":11693,"Ġstops":11694,"Ġbulk":11695,"Ġphrases":11696,"Ġhills":11697,"Ġpreschool":11698,"Ġrises":11699,"Ġepit":11700,"Ġdeals":11701,"Ġscal":11702,"Ġvaccination":11703,"Ġstaying":11704,"Ã³n":11705,"ĠMoh":11706,"ternoon":11707,"Ġintegral":11708,"ĠRoosevelt":11709,"General":11710,"Ġbands":11711,"Ġmart":11712,"Ġadmitted":11713,"ethyl":11714,"Ġgraphic":11715,"Ġrepeatedly":11716,"Ġcoronavirus":11717,"ĠJane":11718,"Ġdetermines":11719,"Ġpipes":11720,"Ġatomic":11721,"ĠEval":11722,"Ġsimulation":11723,"nedy":11724,"orrh":11725,"PM":11726,"Ġenemies":11727,"Ġmetres":11728,"Ġdatabases":11729,"Ps":11730,"hester":11731,"Ġforb":11732,"Ġwhilst":11733,"Ġpotatoes":11734,"Ġfifty":11735,"Ġfleet":11736,"test":11737,"ĠRoss":11738,"ĠTax":11739,"ĠCra":11740,"ĠNi":11741,"Ġentities":11742,"Prof":11743,"Supp":11744,"Ġalkal":11745,"Ġextends":11746,"Ġ72":11747,"elson":11748,"Ġ1982":11749,"Ġrespective":11750,"Ġignored":11751,"heres":11752,"ĠParents":11753,"Ġwealthy":11754,"ĠPa":11755,"ĠRus":11756,"Ġacquisition":11757,"bits":11758,"âĪĴ":11759,"Ġrou":11760,"ĠJun":11761,"ĠKansas":11762,"Ġangles":11763,"Ġantioxidants":11764,"ĠMovement":11765,"RL":11766,"Ġgenuine":11767,"Ġprofits":11768,"Ġflowing":11769,"ĠLeon":11770,"Ġabsent":11771,"Ġchecking":11772,"organisms":11773,"**":11774,"EX":11775,"agine":11776,"ĠMarket":11777,"Ġnewspapers":11778,"Av":11779,"Ġchecked":11780,"Ġangry":11781,"ĠKenya":11782,"ĠIndustrial":11783,"Ġtelescope":11784,"wall":11785,"held":11786,"Ġanniversary":11787,"Ġcha":11788,"okes":11789,"2002":11790,"Ġfragments":11791,"ĠLouisiana":11792,"Ġsubstitute":11793,"two":11794,"ĠFA":11795,"fficiency":11796,"isphere":11797,"Ġcompensation":11798,"izational":11799,"arma":11800,"Ġshortly":11801,"Ġassumption":11802,"Ġsore":11803,"Ġbits":11804,"oub":11805,"Ġdisasters":11806,"ierra":11807,"Ġadvised":11808,"ĠâĨĳ":11809,"TC":11810,"hard":11811,"arse":11812,"ocur":11813,"Ġintu":11814,"Ġspeaks":11815,"Ġracism":11816,"Ġchapters":11817,"Ġgifts":11818,"Ġpap":11819,"Ġrear":11820,"Ġvon":11821,"ressing":11822,"ĠJean":11823,"stud":11824,"Ġprojected":11825,"ĠContact":11826,"Scientists":11827,"writing":11828,"Ġmush":11829,"Ġcyt":11830,"Ġ1968":11831,"Ġattempting":11832,"Ġinherited":11833,"ĠNobel":11834,"TER":11835,"ĠLind":11836,"Ġmeanings":11837,"Ġfails":11838,"Ġconclude":11839,"Ġepisode":11840,"Cross":11841,"ĠHans":11842,"Ġcompassion":11843,"Ġguns":11844,"Ġdimension":11845,"Ġflesh":11846,"Ob":11847,"educ":11848,"Ġdedu":11849,"Ġstuck":11850,"Ġcontra":11851,"aug":11852,"etheless":11853,"Ġlig":11854,"Ġlapt":11855,"ĠSa":11856,"ĠBapt":11857,"onymous":11858,"original":11859,"Ġforty":11860,"Ġsphere":11861,"ĠOpt":11862,"Ġ56":11863,"osphere":11864,"Ġdoctrine":11865,"ĠPay":11866,"ĠBody":11867,"ĠRog":11868,"Ġcounts":11869,"Ġannounce":11870,"Ġcasual":11871,"aund":11872,"Ġ54":11873,"PDF":11874,"post":11875,"Ġguides":11876,"Ġtired":11877,"ĠLiving":11878,"forming":11879,"rades":11880,"Ġarchitectural":11881,"ĠObject":11882,"sens":11883,"abama":11884,"perial":11885,"Ġjack":11886,"Ġphotograp":11887,"sur":11888,"Ġcows":11889,"ĠIL":11890,"Ġhepat":11891,"ĠBan":11892,"Ġhearts":11893,"ĠHal":11894,"ĠReserve":11895,"Ġvoices":11896,"Ġsatellites":11897,"ĠUkraine":11898,"km":11899,"Ġwax":11900,"uming":11901,"Ġrecovered":11902,"Ġrepublic":11903,"ĠUnit":11904,"Ġbowel":11905,"Ġinterpreted":11906,"po":11907,"ĠSleep":11908,"Ġbladder":11909,"ĠHealthy":11910,"immune":11911,"ĠSingapore":11912,"ĠDougl":11913,"atre":11914,"ĠCreate":11915,"oil":11916,"Ġsmallest":11917,"Ġrocket":11918,"ĠKnowledge":11919,"makers":11920,"ĠFall":11921,"Ġdefining":11922,"sl":11923,"essee":11924,"Ġgear":11925,"Ġbeta":11926,"Ġenters":11927,"Ġautomatic":11928,"Ġcomprehension":11929,"Ġtoilet":11930,"SE":11931,"Ġ53":11932,"Ġfarmer":11933,"Ġbreakfast":11934,"Ġcomparable":11935,"Ġtransparent":11936,"Ġ1975":11937,"Ġpollen":11938,"Ġnineteenth":11939,"rade":11940,"ĠBow":11941,"ewater":11942,"ĠVo":11943,"Ġboats":11944,"Ġpaths":11945,"Ġpathway":11946,"ĠArabic":11947,",'":11948,"Ġchips":11949,"Ġuncom":11950,"screen":11951,"Ġcastle":11952,"ĠMuhamm":11953,"vasive":11954,"ĠPoll":11955,"Ġperipher":11956,"onge":11957,"generation":11958,"Ġmelting":11959,"pres":11960,"Ġdual":11961,"igo":11962,"ĠChemical":11963,"Ġobsc":11964,"Ġviewing":11965,"Chapter":11966,"emetery":11967,"Ġmedian":11968,"Ġ1981":11969,"Key":11970,"uana":11971,"ulative":11972,"Ġadul":11973,"Ġsket":11974,"ĠDeep":11975,"Ġoperator":11976,"Ġindicator":11977,"ĠEducational":11978,"opathy":11979,"Ġblacks":11980,"ĠNeuro":11981,"ĠMountains":11982,"ĠTeacher":11983,"Ġaspir":11984,"ĠTibet":11985,"forward":11986,"Ġverbal":11987,"Î½":11988,"Ġcoding":11989,"Ġdw":11990,"ĠCut":11991,"estinal":11992,"ĠHait":11993,"Ġretire":11994,"Ġpublicly":11995,"ikh":11996,"Ġterminal":11997,"Ġpreferences":11998,"ĠAF":11999,"ĠEnc":12000,"shore":12001,"Ġreplacing":12002,"ĠSeries":12003,"Ð¸":12004,"Ġbeds":12005,"ĠSens":12006,"ports":12007,"appy":12008,"laration":12009,"Ġunemployment":12010,"Ġhypertension":12011,"arms":12012,"ĠMental":12013,"Ġinvited":12014,"Ġtempt":12015,"ĠArchae":12016,"ĠArchitect":12017,"Ġinitiated":12018,"Ġignor":12019,"Ġneighbors":12020,"Ġdescriptions":12021,"Public":12022,"pur":12023,"inced":12024,"acular":12025,"ĠSelect":12026,"Ġpurchasing":12027,"Ġpredictions":12028,"Ġbelongs":12029,"Ġdispar":12030,"Ġreads":12031,"Ġstructured":12032,"Ġgrants":12033,"Ġassignments":12034,"Ġcooked":12035,"ni":12036,"Ġthrone":12037,"God":12038,"ĠTy":12039,"ĠCarl":12040,"Ġresponded":12041,"Ġalphabet":12042,"Ġdevastating":12043,"Ġstack":12044,"ĠEM":12045,"Ġkin":12046,"inton":12047,"Ġheadaches":12048,"Ġpharmaceutical":12049,"bestos":12050,"will":12051,"Ġtet":12052,"Ġsor":12053,"isible":12054,"othel":12055,"ĠSoft":12056,"Ġdefeated":12057,"Ġscheduled":12058,"Ġsurvivors":12059,"ĠSearch":12060,"ĠIg":12061,"keys":12062,"plus":12063,"Ġregulated":12064,"Ġdependence":12065,"600":12066,"five":12067,"lux":12068,"uh":12069,"Ġchains":12070,"lict":12071,"Ġnucleus":12072,"Ġstrengths":12073,"fil":12074,"ĠMaterials":12075,"ĠGreg":12076,"ĠNort":12077,"Ġcoordin":12078,"Ġmethodology":12079,"Ġinterviews":12080,"Ġgalaxy":12081,"Her":12082,"alo":12083,"esteem":12084,"Ġmenu":12085,"Ġsubstantially":12086,"Ġcrowd":12087,"Em":12088,"Ġthrown":12089,"ĠTen":12090,"ĠSustainable":12091,"Ġenvironmentally":12092,"Ġdenied":12093,"ĠLinux":12094,"Ã§":12095,"Ġslope":12096,"Ġteachings":12097,"rell":12098,"eland":12099,"olas":12100,"ĠLower":12101,"Ġagenda":12102,"ĠArgent":12103,"Ġequity":12104,"Ġmovies":12105,"Ġ1972":12106,"ĠArchives":12107,"Ġmagic":12108,"Ġceremony":12109,"ĠLarge":12110,"()":12111,"VI":12112,"Ġsorts":12113,"ationally":12114,"Bel":12115,"ĠAk":12116,"Ġvocal":12117,"Ġpassive":12118,"Ġbasics":12119,"Ġgeometry":12120,"ĠPhilippines":12121,"Second":12122,"Ġtremendous":12123,"Ġconsp":12124,"Ġ1977":12125,"Ġfeat":12126,"Ġservers":12127,"Ġpromised":12128,"swer":12129,"Ġlabeled":12130,"Ġgeography":12131,"Ġbreathe":12132,"Ġpoisoning":12133,"Disc":12134,"Ġbold":12135,"urally":12136,"ĠHunt":12137,"ocent":12138,"Ġallev":12139,"ĠAges":12140,"ĠIb":12141,"resistant":12142,"Ġphases":12143,"viously":12144,"Ġ1942":12145,"Pres":12146,"Ġglands":12147,"ĠBox":12148,"Ġpatch":12149,"atherine":12150,"government":12151,"VD":12152,"Ġbeef":12153,"ĠAN":12154,"Ġatom":12155,"velation":12156,"ĠIndependence":12157,"Ġfootball":12158,"Ġconvinced":12159,"atab":12160,"keley":12161,"ĠGive":12162,"Ġovert":12163,"Ġefficacy":12164,"Ġclusters":12165,"ĠStanford":12166,"Ġwhales":12167,"away":12168,"Ġbasin":12169,"ltry":12170,"Ġinstitutional":12171,"arency":12172,"Ġconjunction":12173,"sun":12174,"ova":12175,"Ġcreature":12176,"Ġhighlighted":12177,"ĠSaturday":12178,"Ġconce":12179,"Ġwhites":12180,"Ġwast":12181,"Ġpropos":12182,"ART":12183,"ĠForeign":12184,"Ġnurses":12185,"gic":12186,"ĠWin":12187,"Ġbugs":12188,"ĠClark":12189,"Ġcertified":12190,"ĠConfederate":12191,"Ġpractitioners":12192,".]":12193,"Ġren":12194,"igm":12195,"Ġadmit":12196,"Inc":12197,"Ġconsisted":12198,"Ġimplant":12199,"History":12200,"Ġimbal":12201,"Ġexplos":12202,"Ġfolk":12203,"Ġbriefly":12204,"ĠDiego":12205,"Act":12206,"Par":12207,"ĠRaj":12208,"ĠOm":12209,"rup":12210,"Ġcaffe":12211,"Ġinduced":12212,"Ġfluctu":12213,"ĠPeriod":12214,"ilibrium":12215,"Ġcustoms":12216,"Ġtimber":12217,"Ġplaque":12218,"bone":12219,"deg":12220,"four":12221,"Ġsurre":12222,"Ġmutual":12223,"Ġaluminum":12224,"Did":12225,"Ġtemporal":12226,"Ġomega":12227,"when":12228,"Åį":12229,"ĠMit":12230,"ĠThursday":12231,"Ġwells":12232,"Ġcareers":12233,"Ġrubber":12234,"Oct":12235,"pers":12236,"Ġpushing":12237,"ĠBad":12238,"ĠDom":12239,"Ġblame":12240,"Ġextending":12241,"letter":12242,"Ġcircuits":12243,"Char":12244,"Ġcontracts":12245,"tr":12246,"ĠSD":12247,"ĠBah":12248,"ushes":12249,"Ġmodules":12250,"Ġguided":12251,"ĠTurkish":12252,"have":12253,"Ġib":12254,"Ġmissed":12255,"Ġmonitored":12256,"vo":12257,"Ġinformal":12258,"Ġgrat":12259,"ESS":12260,"Ġcampaigns":12261,"Ġconstraints":12262,"Cor":12263,"ĠCertain":12264,"adian":12265,"entially":12266,"ĠArist":12267,"Ġbore":12268,"ĠPap":12269,"Ġcheaper":12270,"Ġpalm":12271,"Ġmicroscope":12272,"Ġstrand":12273,"ĠPi":12274,"Ġque":12275,"Ġobese":12276,"Ġhistorically":12277,"Ġfears":12278,"ĠMiller":12279,"vance":12280,"Ġgel":12281,"Ġyoga":12282,"ĠMos":12283,"ighters":12284,"ĠAmendment":12285,"Ġkidneys":12286,"Ġreceptor":12287,"Ġfulfill":12288,"Jan":12289,"ĠIniti":12290,"Ġgasoline":12291,"Ġcavity":12292,"ĠIssue":12293,"hot":12294,"asa":12295,"otyp":12296,"ĠMaking":12297,"ĠRE":12298,"erves":12299,"Ġseemingly":12300,"white":12301,"ĠKennedy":12302,"Ġafternoon":12303,"Ġartifacts":12304,"jamin":12305,"Ġ@":12306,"ĠRay":12307,"Ġbuilds":12308,"OG":12309,"Ġicon":12310,"Ġmul":12311,"Ġlining":12312,"ĠGand":12313,"Ġglobally":12314,"Ġalien":12315,"Ġraises":12316,"ĠArthur":12317,"Ġcollagen":12318,"Ġvolcanic":12319,"BL":12320,"mill":12321,"Ġbases":12322,"ĠWednesday":12323,"Ġpressures":12324,"ĠRelations":12325,"Ġbars":12326,"Ġmail":12327,"Ġlean":12328,"ĠChile":12329,"Ġintegrate":12330,"Ġsteep":12331,"Ġcertification":12332,"dam":12333,"olis":12334,"ĠLuke":12335,"Ġfracture":12336,"cr":12337,"tem":12338,"ĠCensus":12339,"Ġorth":12340,"ĠGrant":12341,"exts":12342,"Ġoperates":12343,"ĠPatients":12344,"ĠSkills":12345,"Ġdictionary":12346,"ĠSE":12347,"Ġ2030":12348,"Ġreliability":12349,"Ġpoems":12350,"Ġautonomous":12351,"Ġimpacted":12352,"appropriate":12353,"ĠCaptain":12354,"Ġdwell":12355,"Ġdirt":12356,"Ġfee":12357,"Ġ1941":12358,"Ġdelayed":12359,"Ġsacrific":12360,"FA":12361,"Ġgross":12362,"Ġburial":12363,"Ġpromoted":12364,"ĠNorway":12365,"embered":12366,"Ġok":12367,"ĠNat":12368,"Ġimposed":12369,"Ġchallenged":12370,"Ġagreements":12371,"gon":12372,"Ġcaution":12373,"Ġsatisfaction":12374,"Copyright":12375,"athic":12376,"Ġdrawings":12377,"Ġdecreasing":12378,"Ġpeaceful":12379,"Ġintestinal":12380,"Current":12381,"onduct":12382,"Ġevolve":12383,"Ġlarvae":12384,"Ġwarmer":12385,"otechnology":12386,"Ġfunctionality":12387,"Ġgrey":12388,"Ġworkshops":12389,"Ġundertaken":12390,"arp":12391,"roach":12392,"ilty":12393,"ĠSche":12394,"spe":12395,"Ġmounted":12396,"Ġbanking":12397,"Ùħ":12398,"Ġbelt":12399,"ĠActivity":12400,"orie":12401,"Ġplug":12402,"tein":12403,"ĠArk":12404,"ĠRequ":12405,"Ġsaturated":12406,"Ġpitch":12407,"ĠOpp":12408,"Ġrequests":12409,"ĠAnaly":12410,"Ġsafegu":12411,"system":12412,"Ġbiomass":12413,"urred":12414,"rage":12415,"ĠSnow":12416,"ĠPR":12417,"ĠLove":12418,"0000":12419,"obacter":12420,"lementary":12421,"Ġpresidential":12422,"Ġties":12423,"Ġtear":12424,"Ġtire":12425,"chi":12426,"aved":12427,"Ġreleases":12428,"Ġcement":12429,"ĠTennessee":12430,"Mat":12431,"lob":12432,"opor":12433,"Ġmonaster":12434,"ORD":12435,"ĠDemocr":12436,"yo":12437,"ĠLakes":12438,"Ġdozen":12439,"Ġtrap":12440,"Ġfoundations":12441,"ĠEarl":12442,"Ġstrikes":12443,"ĠMoore":12444,"Ġenthusi":12445,"MD":12446,"á¹":12447,"Ġcher":12448,"Ġreven":12449,"Ġcorruption":12450,"Sometimes":12451,"asi":12452,"ĠTri":12453,"ĠSite":12454,"oths":12455,"Ġdecomp":12456,"Ġmargin":12457,"ĠProphet":12458,"Ġunclear":12459,"Ġjurisdiction":12460,"Aug":12461,"fat":12462,"Ġbom":12463,"Ġbay":12464,"ĠEdition":12465,"Thus":12466,"Ġendeav":12467,"Ġaccumulation":12468,"Ġphilosophical":12469,"PT":12470,"Ġweeds":12471,"ĠFisher":12472,"Ġfees":12473,"Ġslower":12474,"ĠPlanning":12475,"Ġlicensed":12476,"oT":12477,"uct":12478,"Ġana":12479,"eps":12480,"Ġdispute":12481,"Ġtriggers":12482,"irs":12483,"ĠHong":12484,"Ġmankind":12485,"Ġloads":12486,"Ġmixing":12487,"Ġworksheets":12488,"iens":12489,"Ġmud":12490,"Ġdrew":12491,"Ġexert":12492,"Ġvariability":12493,"ĠResource":12494,"Ġassessing":12495,"ĠDeclaration":12496,"ĠPublishing":12497,"Ġlunar":12498,"fol":12499,"ĠSex":12500,"Ġinterval":12501,"ancies":12502,"ĠHispan":12503,"Ġwinning":12504,"ĠBasic":12505,"Di":12506,"Ġtodd":12507,"ĠBBC":12508,"Ġartery":12509,"ĠTeam":12510,"Ġmembership":12511,"âĤ¬":12512,"Ġfled":12513,"iencies":12514,"Ġbreakdown":12515,"ĠParticip":12516,"Ġdivor":12517,"marks":12518,"Ġalleged":12519,"Ġdiesel":12520,"Ġcommemor":12521,"ĠAqu":12522,"ths":12523,"ĠLG":12524,"Ġammon":12525,"ĠAlabama":12526,"Ġemergence":12527,"ĠEffects":12528,"Ġtuber":12529,"ĠAlbert":12530,"Ġhosts":12531,"Ġwireless":12532,"Ġscreens":12533,"Ġlocate":12534,"arched":12535,"Ġmenstru":12536,"Ġdeclar":12537,"ĠToronto":12538,"Ġmaternal":12539,"Ġhur":12540,"illy":12541,"Ġbeer":12542,"Ġank":12543,"Ġgluten":12544,"Ġhate":12545,"Ġparticipated":12546,"ĠDefense":12547,"Ġmarch":12548,"ĠJordan":12549,"Ġfloating":12550,"Ġforgotten":12551,"ĠAccount":12552,"Ġintermediate":12553,"Ġeligible":12554,"Orig":12555,"Ġlact":12556,"ĠDomin":12557,"aga":12558,"Ġtribal":12559,"Ġattachment":12560,"oin":12561,"Ġwires":12562,"Ġbrick":12563,"ĠRa":12564,"Ġkne":12565,"Intern":12566,"Ġcarp":12567,"THE":12568,"backs":12569,"ĠSep":12570,"ĠFram":12571,"ĠGh":12572,"Ġcompression":12573,"Ġfollowers":12574,"Ġdarkness":12575,"Ġnavigation":12576,"Ġlesions":12577,"Ġcram":12578,"aughters":12579,"Ġdestructive":12580,"icul":12581,"gebra":12582,"ĠGer":12583,"Ġevac":12584,"Ġtraged":12585,"weed":12586,"Ġmodest":12587,"Ġpracticing":12588,"letal":12589,"Ġbicy":12590,"Ġfart":12591,"Ġink":12592,"Ġrelates":12593,"Ġfirstname":12594,"ĠWhit":12595,"Ġsinging":12596,"Ġradioactive":12597,"Ġrows":12598,"ĠSri":12599,"adays":12600,"intestinal":12601,"Ġ57":12602,"Ġactivists":12603,"Ġsurviving":12604,"Ġrailroad":12605,"erenn":12606,"Ġasset":12607,"ĠGas":12608,"Ġresidence":12609,"Ġcombining":12610,"Ġconceptual":12611,"proof":12612,"ĠCommunication":12613,"ĠPra":12614,"iffs":12615,"ĠSyndrome":12616,"Ġappliances":12617,"Ġinvestigations":12618,"Ġaltogether":12619,"bot":12620,"cription":12621,"phe":12622,"Ġdos":12623,"Ġprosec":12624,"Ġreserve":12625,"Ġquad":12626,"Ġreligions":12627,"Ġparasites":12628,"Ġpound":12629,"raul":12630,"ĠDor":12631,"Ġspont":12632,"Ġsymbolic":12633,"ĠPit":12634,"romagnetic":12635,"ĠFive":12636,"Ġcharging":12637,"ĠShow":12638,"Ġturbine":12639,"Ġdescendants":12640,"Ġabd":12641,"Ġaccused":12642,"Ġdiscusses":12643,"Ġimagery":12644,"Ġinterfere":12645,"ĠAffairs":12646,"Ġdump":12647,"ĠUC":12648,"Ġconsultation":12649,"Ġclosest":12650,"Ġinadequate":12651,"his":12652,"ĠKings":12653,"Ġshifts":12654,"ocaust":12655,"itoring":12656,"Ġheated":12657,"Ġcontexts":12658,"ĠKong":12659,"Ġtries":12660,"cedented":12661,"Ġintervals":12662,"Ġcombinations":12663,"Ġlacking":12664,"Ġwetlands":12665,"jan":12666,"ĠKhan":12667,"Ġimported":12668,"Ġedited":12669,"ĠFlu":12670,"Ġcompete":12671,"Ġpriorit":12672,"Ġconstitute":12673,"Ġmelan":12674,"Ġadvocate":12675,"otive":12676,"upiter":12677,"Ġgeographical":12678,"graduate":12679,"Ġpneumonia":12680,"rint":12681,"Ġbes":12682,"Ġger":12683,"Ġconvention":12684,"Ġtrapped":12685,"Ġindication":12686,"Ġsecular":12687,"Ġheaded":12688,"Ġconstitu":12689,"Ġoccasions":12690,"Ġdownt":12691,"ĠHub":12692,"Ġveins":12693,"Ġstain":12694,"Ġnavigate":12695,"ĠBrook":12696,"Ġarrested":12697,"ĠLiterature":12698,"ĠObserv":12699,"Ġozone":12700,"ĠFem":12701,"Ġbutt":12702,"Ġpossession":12703,"Ġventilation":12704,"Ġinherit":12705,"Ġthou":12706,"Ġseas":12707,"Ġunders":12708,"Ġpolymer":12709,"Photo":12710,"eld":12711,"Ġdesirable":12712,"Ġelevation":12713,"Ġcrystal":12714,"Among":12715,"ĠLady":12716,"ĠVeter":12717,"Ġfounding":12718,"ĠAlf":12719,"Ġterrible":12720,"ĠConserv":12721,"IO":12722,"Ġnotably":12723,"ultural":12724,"Ġsymp":12725,"Ġtalked":12726,"Ġdemonstration":12727,"Ġcorporations":12728,"Black":12729,"ĠSin":12730,"cellular":12731,"Ġvirtue":12732,"osynt":12733,"Work":12734,"Ġcrash":12735,"âĢ¦.":12736,"Ġinstructional":12737,"ĠMuhammad":12738,"edge":12739,"Ġthumb":12740,"Ġluck":12741,"olith":12742,"Ġ58":12743,"Ġsymmet":12744,"regn":12745,"Ġ1976":12746,"ĠChurchill":12747,"Ġinsufficient":12748,"mouth":12749,"rac":12750,"ĠSM":12751,"Ġsuited":12752,"Ġlandf":12753,"Ġnorms":12754,"Ġpremature":12755,"ĠUrban":12756,"Ġtackle":12757,"ĠLes":12758,"Ġincidents":12759,"Inter":12760,"Ġcompleting":12761,"ĠPharm":12762,"ĠPlants":12763,"Ġbattles":12764,"Ġoxide":12765,"Ġinspire":12766,"Ġstimulation":12767,"Ġmosquito":12768,"ĠThings":12769,"Ġlesser":12770,"Ġpracticed":12771,"fortable":12772,"Ġknock":12773,"ĠAccessed":12774,"ĠKentucky":12775,"iciency":12776,"ĠRout":12777,"Ġintact":12778,"Ġcorros":12779,"incial":12780,"Ġdialect":12781,"Ġanten":12782,"ĠPresent":12783,"orship":12784,"ĠYouth":12785,"annel":12786,"Ġreforms":12787,"ĠNigeria":12788,"Data":12789,"SC":12790,"cat":12791,"Ġnausea":12792,"rained":12793,"ĠComb":12794,"ĠRub":12795,"Ġconsolid":12796,"Ġsurely":12797,"ĠBarb":12798,"Ġunpre":12799,"ĠCastle":12800,"eu":12801,"adic":12802,"ĠBird":12803,"ĠHad":12804,"Ġworried":12805,"Ġplastics":12806,"Ġglory":12807,"Ġpurple":12808,"Ġ1944":12809,"lied":12810,"Ġions":12811,"Ġmelt":12812,"Ġpassengers":12813,"ĠRepresent":12814,"Ġtrips":12815,"Des":12816,"Ġbinary":12817,"amation":12818,"Ġgrab":12819,"Ġreadings":12820,"Ġobserving":12821,"ĠMarg":12822,"Ġinterference":12823,"ĠTorah":12824,"Ġpermits":12825,"ĠHawaii":12826,"Ġcater":12827,"Ġrash":12828,"Ġspite":12829,"ĠVill":12830,"Ġactors":12831,"Ġrelies":12832,"ĠMaria":12833,"Ġinputs":12834,"ĠCL":12835,"ĠRod":12836,"Ġintens":12837,"Ġweren":12838,"Ġillustrations":12839,"Ġevaluating":12840,"Ġjuven":12841,"Ġcontroversy":12842,"ĠPopulation":12843,"ĠHind":12844,"ĠNile":12845,"Ġsho":12846,"Ġ1971":12847,"Ġsilent":12848,"Add":12849,"ĠAdvanced":12850,"Sch":12851,"gram":12852,"tics":12853,"Ġdeemed":12854,"ĠRu":12855,"roups":12856,"Ġpatches":12857,"Ġsugars":12858,"ĠPH":12859,"opsy":12860,"Ġweed":12861,"ibration":12862,"ĠCham":12863,"Ġediting":12864,"ixed":12865,"Ġpulse":12866,"Ġeliminated":12867,"ĠCert":12868,"Ġcolours":12869,"ĠTravel":12870,"ogenesis":12871,"version":12872,"ĠEvolution":12873,"orb":12874,"aman":12875,"istence":12876,"Ġworms":12877,"Ġactivation":12878,"Ġsocially":12879,"Ġcalculation":12880,"Ġnaval":12881,"Ġacknowledged":12882,"Bet":12883,"din":12884,"powered":12885,"inence":12886,"ĠPack":12887,"ĠFOR":12888,"Ġattending":12889,"Ġcaring":12890,"ĠCarbon":12891,"Ġvoters":12892,"English":12893,"ĠIntelligence":12894,"Europe":12895,"ĠCook":12896,"Ġquot":12897,"ĠCollect":12898,"Ġ1974":12899,"Ġextracted":12900,"Ġdysfunction":12901,"Ġscarce":12902,"Ġfraud":12903,"PP":12904,"hend":12905,"Ġactivated":12906,"Ġgallons":12907,"Ġexclusive":12908,"Mon":12909,"ocate":12910,"Ġworlds":12911,"Ġcareg":12912,"Ġdrilling":12913,"plicit":12914,"Ġ1965":12915,"Ġselecting":12916,"Ġpanic":12917,"Ġstrictly":12918,"herence":12919,"ĠCM":12920,"Ġtestim":12921,"Ġchemotherapy":12922,"Ġinstructor":12923,"amilton":12924,"Ġjewel":12925,"oen":12926,"Ġrating":12927,"plane":12928,"asted":12929,"Ġimpaired":12930,"Ġarteries":12931,"Ġoffspring":12932,"Ġmodify":12933,"Ġcrafts":12934,"Ġnegatively":12935,"ĠBuddhist":12936,"ĠImmun":12937,"Down":12938,"person":12939,"Ġcups":12940,"ĠVisual":12941,"ĠCreative":12942,"hol":12943,"Ġdated":12944,"ĠMagn":12945,"ĠBos":12946,"ĠFle":12947,"weet":12948,"Ġwarned":12949,"ĠBeach":12950,"Ġpromotion":12951,"reas":12952,"igs":12953,"ĠCredit":12954,"Ġartic":12955,"ĠOrthodox":12956,"ĠImage":12957,"Ġfreshwater":12958,"ĠImpact":12959,"dec":12960,"lades":12961,"rish":12962,"yers":12963,"Ġlenses":12964,"sets":12965,"ĠSierra":12966,"ĠCust":12967,"Ġants":12968,"ĠRap":12969,"Ġexams":12970,"Expl":12971,"Ġdiamond":12972,"Early":12973,"cm":12974,"pose":12975,"ingham":12976,"asia":12977,"Ġhind":12978,"ĠNap":12979,"ello":12980,"Ġunhealthy":12981,"Ġcarrier":12982,"atorial":12983,"Ġruler":12984,"Ġseparately":12985,"Ġinspection":12986,"Ġgrocer":12987,"Ġpseud":12988,"Ġinh":12989,"Ġproclaim":12990,"ĠMalt":12991,"lude":12992,"Ġquestionna":12993,"Ġintroducing":12994,"urgical":12995,"Science":12996,"Ġvolunteer":12997,"Af":12998,"gia":12999,"Ġprobe":13000,"resses":13001,"Ġdiscrimin":13002,"Ġ66":13003,"Ġinvesting":13004,"ĠUsually":13005,"Image":13006,"AV":13007,"ĠInnov":13008,"process":13009,"ĠRegional":13010,"Ġempathy":13011,"Ġbanned":13012,"Ju":13013,"ĠFacts":13014,"Ġsegments":13015,"Ġnewborn":13016,"Ġcounting":13017,"Ġexplores":13018,"Which":13019,"Ġepile":13020,"ĠCultural":13021,"nest":13022,"wich":13023,"ailand":13024,"ĠAlb":13025,"ector":13026,"Ġ1914":13027,"ĠKat":13028,"Ġinsulation":13029,"Ġdesigner":13030,"Ġtruck":13031,"Ġfrequencies":13032,"ĠExecutive":13033,"bled":13034,"pub":13035,"source":13036,"Ġtale":13037,"Ġyog":13038,"ĠGuid":13039,"Ġconcentrate":13040,"ĠPhilip":13041,"Ġfungi":13042,"dem":13043,"Ġsins":13044,"utri":13045,"osex":13046,"Ġsimilarly":13047,"Ġeliminating":13048,"Ġrestaurants":13049,"Dec":13050,"ĠTok":13051,"ĠLic":13052,"Ġmetall":13053,"ĠConc":13054,"Ġverses":13055,"Ġmillenn":13056,"Ġtoxicity":13057,"WS":13058,"itar":13059,"Ġseats":13060,"iously":13061,"Ġnumb":13062,"ĠCapital":13063,"lip":13064,"mid":13065,"Ġtomb":13066,"ĠTuesday":13067,"ulent":13068,"sels":13069,"Ġgovernance":13070,"Ġ1973":13071,"ĠDiseases":13072,"Ġsurgeon":13073,"Ġentertainment":13074,"ĠFreder":13075,"vas":13076,"Ġwool":13077,"Ġwheels":13078,"Ġcontinually":13079,"ĠConstant":13080,"Ġuntreated":13081,"ĠBerkeley":13082,"ĠCaes":13083,"Ġpronounced":13084,"Ġunprecedented":13085,"Ġvoy":13086,"Ġindivid":13087,"Ġsystemic":13088,"Ġlongest":13089,"Ġlandscapes":13090,"ĠHistoric":13091,"Ġinserted":13092,"itzerland":13093,"Ġcombustion":13094,"zens":13095,"Ġexem":13096,"Ġclosing":13097,"Ġpersec":13098,"Ġpresenting":13099,"ĠIndiana":13100,"Ġdreams":13101,"unciation":13102,"Ġlegitimate":13103,"Sign":13104,"Ġly":13105,"antine":13106,"Ġchamp":13107,"ĠRain":13108,"ĠGPS":13109,"Ġphon":13110,"ĠResults":13111,"ĠUSDA":13112,"Ġinnovations":13113,"Ġwounds":13114,"olia":13115,"Ġconve":13116,"Ġoffset":13117,"Ġcoupled":13118,"Ġmacro":13119,"ĠChen":13120,"agu":13121,"angular":13122,"Ġnasal":13123,"ĠBob":13124,"aret":13125,"Ġupset":13126,"ĠCollection":13127,"autions":13128,"ijuana":13129,"Ġexplanations":13130,"ĠSummer":13131,"Ġsoda":13132,"Ġaug":13133,"Ġnurt":13134,"olutions":13135,"ĠAnth":13136,"Ġsensation":13137,"Ġgardening":13138,"Ġaltitude":13139,"ĠTerrit":13140,"ĠVenus":13141,"Ġlighter":13142,"ĠDak":13143,"Ġresident":13144,"Ġremembered":13145,"Ġplanes":13146,"Ġconfined":13147,"ĠAllen":13148,"ĠImperial":13149,"ĠGolden":13150,"ilization":13151,"ignt":13152,"insic":13153,"Ġrealm":13154,"ĠCommand":13155,"Ġglasses":13156,"Ġsettlements":13157,"lihood":13158,"oscow":13159,"ĠCopyright":13160,"Following":13161,"Ben":13162,"Several":13163,"bial":13164,"ĠSant":13165,"Ġ1978":13166,"rove":13167,"stable":13168,"ĠTai":13169,"ĠMIT":13170,"ĠFox":13171,"Ġdepicted":13172,"ennis":13173,"Ġimpairment":13174,"FL":13175,"ambo":13176,"Ġprovinces":13177,"Ġ700":13178,"Ġstatue":13179,"Ġvoluntary":13180,"Ġobstacles":13181,"Ġrept":13182,"ĠStress":13183,"Ġsharks":13184,"Ġbridges":13185,"Ġmurd":13186,"irical":13187,"Ġscrap":13188,"Ġexplosion":13189,"ĠZe":13190,"Ġsixth":13191,"Ġinclusive":13192,"Ġhepatitis":13193,"ĠTour":13194,"Ġdisse":13195,"Ġprejud":13196,"Ġidentifies":13197,"Ġsimilarities":13198,"Ġloaded":13199,"father":13200,"mind":13201,"Ġfits":13202,"owers":13203,"rubs":13204,"assment":13205,"Ġtwentieth":13206,"Ġbowl":13207,"Ġpyram":13208,"Ġhungry":13209,"Ġaffirm":13210,"ovenant":13211,"Dis":13212,"ben":13213,"lies":13214,"icut":13215,"ĠSi":13216,"ership":13217,"ĠBuild":13218,"ĠWas":13219,"Ġseaf":13220,"Ġtranscript":13221,"Ġrevised":13222,"names":13223,"yst":13224,"arity":13225,"imination":13226,"Ġgravit":13227,"Ġ97":13228,"Food":13229,"Ġpod":13230,"Ġpiano":13231,"Ġanxious":13232,"Ġlets":13233,"Ġuncons":13234,"Ġnegotiations":13235,"Ġcaffeine":13236,"acre":13237,"acerb":13238,"Ġrefined":13239,"ugar":13240,"ĠDepending":13241,"Unfortunately":13242,"Ġjournals":13243,"ĠMemorial":13244,"ĠAuthority":13245,"Green":13246,"Ġports":13247,"Ġlux":13248,"ĠChemistry":13249,"ĠBesides":13250,"Ġperceive":13251,"uese":13252,"Ġreinforce":13253,"Ġaccommodate":13254,"Ġdignity":13255,"Ġsake":13256,"Ġcro":13257,"ĠPas":13258,"ĠPict":13259,"Ġworkforce":13260,"Ġbaseline":13261,"Ġteenagers":13262,"Up":13263,"omething":13264,"igion":13265,"ĠBot":13266,"ĠStaff":13267,"Ġwarrant":13268,"Ġpacked":13269,"ĠGreeks":13270,"Ġbottles":13271,"ĠEvidence":13272,"Ġpoultry":13273,"itives":13274,"Ġrip":13275,"ĠAlways":13276,"Ġintestine":13277,"Ġimprison":13278,"Ġbrilliant":13279,"Non":13280,"Net":13281,"Ġsends":13282,"Ġbon":13283,"Ġadvocates":13284,"Ġcubic":13285,"ĠAB":13286,"ository":13287,"ĠLie":13288,"Ġadmin":13289,"Ġimpul":13290,"culosis":13291,"ĠGenerally":13292,"Ġsoldier":13293,"ĠTB":13294,"ĠCru":13295,"osures":13296,"Ġoutstanding":13297,"Ġtrains":13298,"Ġmodes":13299,"Ġpointing":13300,"Ġpositively":13301,"Ġnetworking":13302,"Ġoutlined":13303,"Ġcultivation":13304,"Good":13305,"Hel":13306,"Ġmines":13307,"Ġinval":13308,"Ġbitter":13309,"Ġsequencing":13310,"ĠAgricultural":13311,"Ġexplicitly":13312,"Ġsemic":13313,"aron":13314,"Ġchat":13315,"ĠFun":13316,"Ġserum":13317,"ĠStrateg":13318,"Ġprosperity":13319,"ĠTogether":13320,"Ġraces":13321,"ĠAli":13322,"Ġpromises":13323,"Ġsilicon":13324,"Ġclinic":13325,"Ġastronaut":13326,"Ġdissolved":13327,"Ġdeployed":13328,"ĠSoutheast":13329,"ĠEC":13330,"perature":13331,"Ġ1969":13332,"ĠInitiative":13333,"rings":13334,"site":13335,"Ġperme":13336,"Ġsomehow":13337,"Ġenhancing":13338,"ĠFreedom":13339,"Ġconsiders":13340,"Ġsanct":13341,"Common":13342,"Ġcryptocur":13343,"Ġunsu":13344,"ĠAnderson":13345,"Ġachievements":13346,"Ġpriorities":13347,"Ġmicrobes":13348,"oporosis":13349,"inar":13350,"ĠBall":13351,"acity":13352,"ĠDub":13353,"1016":13354,"Ġplacement":13355,"Ġeconomically":13356,"Ġfathers":13357,"Ġtriggered":13358,"Ġuncomfortable":13359,"FC":13360,"NT":13361,"Ġtransit":13362,"Ġdiscount":13363,"Know":13364,"count":13365,"vised":13366,"ĠPil":13367,"Ġretention":13368,"Ġlasted":13369,"Ġblocked":13370,"Ġcruel":13371,"ĠComment":13372,"Ġcitizenship":13373,"ĠBasin":13374,"Ġbillions":13375,"Ġearthquakes":13376,"Dav":13377,"LS":13378,"fin":13379,"Ġdwarf":13380,"imental":13381,"ĠBrad":13382,"Ġshark":13383,"ĠJupiter":13384,"pha":13385,"ucks":13386,"Ġuncomm":13387,"Ġillustrates":13388,"building":13389,"uate":13390,"ĠHou":13391,"Ġate":13392,"elta":13393,"Ġdemanding":13394,"ĠAnti":13395,"ĠDiagn":13396,"Ġfrost":13397,"Ġcock":13398,"Ġvow":13399,"ĠUpper":13400,"Ġcountless":13401,"Ġmonetary":13402,"Ġfreed":13403,"iscal":13404,"mates":13405,"ÙĨ":13406,"Ġbeverages":13407,"ĠCS":13408,"ĠWinter":13409,"audi":13410,"Ġarom":13411,"Ġbod":13412,"Ġenerg":13413,"ĠChap":13414,"Ġstrat":13415,"Ġbehave":13416,"Ġsubjected":13417,"Ġturtles":13418,"Ġvotes":13419,"Ġantioxidant":13420,"home":13421,"Ġpumps":13422,"ĠBoy":13423,"Ġdisabled":13424,"ĠVery":13425,"Ġpaste":13426,"Ġodds":13427,"Ġnoble":13428,"Ġbasket":13429,"Ġwastewater":13430,"dated":13431,"ĠBroad":13432,"articles":13433,"Ġregards":13434,"Ġterrestrial":13435,"Ġ1967":13436,"Ġtitles":13437,"Ġdeficit":13438,"dig":13439,"vic":13440,"rones":13441,"Learning":13442,"Ùİ":13443,"Ġcod":13444,"eton":13445,"Ġconsec":13446,"ĠPs":13447,"Ġexacerb":13448,"Ġcritics":13449,"Ġfundament":13450,"ĠMarshall":13451,"Ġshelf":13452,"Ġembrace":13453,"Ġgently":13454,"Ġdelight":13455,"Ġsilk":13456,"Ġstayed":13457,"ragon":13458,"Ġjoining":13459,"University":13460,"depth":13461,"Vis":13462,"Ġty":13463,"Ġinquiry":13464,"Ġdesper":13465,"AI":13466,"iser":13467,"Ġbiblical":13468,"Ġinability":13469,"Ġlateral":13470,"Ġtravels":13471,"Ġstrip":13472,"Ġadjusted":13473,"Ġcomprised":13474,"Ġdisciplines":13475,"Ġwatched":13476,"tically":13477,"arb":13478,"ĠHaz":13479,"eman":13480,"Ġ62":13481,"Ġequilibrium":13482,"Ġdamages":13483,"Ġfailing":13484,"second":13485,"Ġfloods":13486,"Sept":13487,"lan":13488,"oard":13489,"ĠIowa":13490,"oping":13491,"rians":13492,"Ġrecru":13493,"Ġheadache":13494,"Ġconnects":13495,"rophy":13496,"Ġreproduce":13497,"ignty":13498,"istle":13499,"Ġ1917":13500,"ĠBenjamin":13501,"ĠBrother":13502,"ĠDenmark":13503,"150":13504,"ĠSound":13505,"ĠPerson":13506,"Ġtemples":13507,"zech":13508,"ĠTesting":13509,"ĠArabia":13510,"Ġentrepreneurs":13511,"Feb":13512,"Ġshame":13513,"redict":13514,"Ġ59":13515,"Ġgrasp":13516,"Ġradar":13517,"Ġaccordingly":13518,"March":13519,"uy":13520,"imity":13521,"race":13522,"Ġsynthes":13523,"Ġstretching":13524,"!\"":13525,"PE":13526,"Social":13527,"itime":13528,"alin":13529,"ĠBishop":13530,"Ġriding":13531,"Ġinfrared":13532,"Ġsolved":13533,"Ġpassenger":13534,"Ġdelicate":13535,"ĠAlliance":13536,"prot":13537,"ĠAnton":13538,"Ġextensively":13539,"OU":13540,"ĠPrior":13541,"fficking":13542,"Ġgenerates":13543,"ierce":13544,"ĠSwitzerland":13545,"Ġcylinder":13546,"Ġrehabilitation":13547,"ĠPediatric":13548,"ĠFeed":13549,"ĠColomb":13550,"GA":13551,"unes":13552,"ĠVirt":13553,"Remember":13554,"ï¼":13555,"Ġbapt":13556,"Ġfost":13557,"adi":13558,"ĠMaine":13559,"ĠBed":13560,"Ġenroll":13561,"Ġwarfare":13562,"Ġstandardized":13563,"Ġsurroundings":13564,"Ġincorporating":13565,"Ġindividually":13566,"FS":13567,"ipt":13568,"avy":13569,"elsh":13570,"ĠÂ·":13571,"Ġtransported":13572,"Ġpriests":13573,"ĠFest":13574,"ĠNurs":13575,"Ġchecks":13576,"Ġecology":13577,"Ġestrogen":13578,"Ġneglect":13579,"Ġcompeting":13580,"Ġwitnessed":13581,"Ġpraise":13582,"ĠChoose":13583,"âĢ³":13584,"amel":13585,"Ġrival":13586,"Ġfactories":13587,"Ġharmony":13588,"Ġsilence":13589,"Ġtouching":13590,"conscious":13591,"roximately":13592,"Ġrefriger":13593,"orse":13594,"opter":13595,"Ġdeaf":13596,"riends":13597,"Ġintercon":13598,"Ġhandful":13599,"aza":13600,"Ġdraws":13601,"ĠMilitary":13602,"Ġpurely":13603,"has":13604,"py":13605,"ige":13606,"Ġadhes":13607,"Ġunderm":13608,"ĠCompar":13609,"Ġdisappeared":13610,"Ġolive":13611,"enaissance":13612,"Ġtomatoes":13613,"Hz":13614,"ĠKu":13615,"Ġcargo":13616,"Ġprototype":13617,"Ġcortex":13618,"ĠEinstein":13619,"Ġpotato":13620,"Ġproblematic":13621,"Ġ1939":13622,"threat":13623,"Ġprelim":13624,"Ġfailures":13625,"ĠIsraeli":13626,"Ġlegislative":13627,"Ġrecipes":13628,"sim":13629,"Ġcoating":13630,"Ġretrie":13631,"Ġportable":13632,"Time":13633,"Ġdamp":13634,"ĠKit":13635,"hesia":13636,"Ġdrill":13637,"Ġprediction":13638,"Ġstrengthening":13639,"Ġvulnerability":13640,"ĠTrib":13641,"imated":13642,"usions":13643,"Ġaggression":13644,"ĠBanglades":13645,"uated":13646,"ĠTob":13647,"uma":13648,"Ġintrig":13649,"ĠAlong":13650,"Ġ68":13651,"Ġbrut":13652,"ĠPolitical":13653,"Ġpreliminary":13654,"wealth":13655,"Ġmodifications":13656,"Ġcentres":13657,"iasis":13658,"Ġappreciation":13659,"ocytes":13660,"Ġhoped":13661,"ĠWorkshe":13662,"ĠMathematics":13663,"Yet":13664,"pop":13665,"inge":13666,"Ġdye":13667,"uters":13668,"Ġlitter":13669,"Ġpotent":13670,"ĠPlus":13671,"Ġhob":13672,"Ġhighway":13673,"Ġflux":13674,"Ġasym":13675,"ĠDental":13676,"unks":13677,"Ġpeas":13678,"hematic":13679,"Ġethanol":13680,"control":13681,"Ġpreference":13682,"Understanding":13683,"Ġliber":13684,"ĠPersonal":13685,"Ġexploitation":13686,"Ġfans":13687,"ante":13688,"Ġsupportive":13689,"ĠRegion":13690,"Ġscattered":13691,"Ġ67":13692,"Ġlivelihood":13693,"Ġcollaps":13694,"ARS":13695,"Whether":13696,"Ġcervical":13697,"OUR":13698,"Ġsau":13699,"Ġ110":13700,"Ġinfo":13701,"Ġorganizational":13702,"Ġlegally":13703,"Ġcurrents":13704,"Ġtitled":13705,"Sym":13706,"ĠPRO":13707,"Ġ1948":13708,"Ġtablets":13709,"Ġmosquitoes":13710,"rod":13711,"ĠAward":13712,"ĠRoc":13713,"Ġterrain":13714,"ĠTele":13715,"ĠMachine":13716,"raulic":13717,"reach":13718,"aratus":13719,"uliar":13720,"ĠHamilton":13721,"Ġarrangements":13722,"bound":13723,"rehend":13724,"Ġeternal":13725,"ĠCab":13726,"ĠPy":13727,"ĠThailand":13728,"Ġinstinct":13729,"ĠCharacter":13730,"Ġrebell":13731,"Ġlikes":13732,"Ġswitching":13733,"Ġremedy":13734,"Check":13735,"ĠEconomics":13736,"Ġtoll":13737,"Ġsucc":13738,"arches":13739,"ĠExcel":13740,"Ġacidic":13741,"ĠProtocol":13742,"ĠQueens":13743,"forestation":13744,"Ġveterinarian":13745,"serv":13746,"Ġdrum":13747,"ĠCountry":13748,"Ġcrossed":13749,"Ġcel":13750,"Ġstamp":13751,"ressions":13752,"Ġdelivering":13753,"Ġadventure":13754,"Ġcannab":13755,"aus":13756,"Ġreductions":13757,"Ġpassages":13758,"Ġtriangle":13759,"Ġpipeline":13760,"ĠHolocaust":13761,"Ġneurological":13762,"ĠSQL":13763,"Ġapples":13764,"Ġattribute":13765,"Ġtrucks":13766,"ATE":13767,"Ġtroubles":13768,"Ġmunicipal":13769,"Sy":13770,"ĠMason":13771,"estab":13772,"Ġunions":13773,"Ġpublishing":13774,"ĠAgreement":13775,"ĠMagazine":13776,"Ġinevitable":13777,"ĠCro":13778,"Ġamph":13779,"Ġmonarch":13780,"ĠConn":13781,"Ġutilizing":13782,"Ġmysterious":13783,"otted":13784,"Ġstir":13785,"month":13786,"ĠBelow":13787,"Ġstocks":13788,"ĠMoscow":13789,"Ġcritically":13790,"ĠSuccess":13791,"Ġinvestigating":13792,"ĠRadio":13793,"Ġspirits":13794,"June":13795,"PC":13796,"group":13797,"Ġforcing":13798,"third":13799,"ĠEat":13800,"Start":13801,"Ġincentives":13802,"Ġunconscious":13803,"Ġuncommon":13804,"tw":13805,"Ġvic":13806,"aunt":13807,"Ġlightning":13808,"iolence":13809,"prof":13810,"Ġsexually":13811,"Ġcharts":13812,"erce":13813,"irk":13814,"ĠVideo":13815,"Ġultrasound":13816,"ĠFinancial":13817,"Ġstraightforward":13818,"Ġstimuli":13819,"Ms":13820,"Ġnod":13821,"Ġintric":13822,"Ġindo":13823,"2019":13824,"Ġemphasize":13825,"Ġreconstruction":13826,"Fe":13827,"Ġsits":13828,"rots":13829,"ĠHPV":13830,"Ġautumn":13831,"Ġ63":13832,"had":13833,"Ġoun":13834,"unn":13835,"Ġhasn":13836,"Ġinferior":13837,"Ġretained":13838,"Ġcombines":13839,"Ġobtaining":13840,"Ġperenn":13841,"Ġfired":13842,"Ġmasks":13843,"âĢ²":13844,"ĠGame":13845,"Ġemperor":13846,"Ġrecognised":13847,"ĠPortuguese":13848,"atabase":13849,"rea":13850,"Ġsink":13851,"Ġmarker":13852,"ĠMaybe":13853,"Ġpedest":13854,"Ġelaborate":13855,"=\"":13856,"energy":13857,"Ġquoted":13858,"Ġtraces":13859,"Ġstruggles":13860,"Ġwatershed":13861,"ĠConnecticut":13862,"food":13863,"rator":13864,"endix":13865,"ĠChron":13866,"arming":13867,"ĠMeanwhile":13868,"Ġurgent":13869,"ĠAlexand":13870,"ĠCirc":13871,"Ġlinguistic":13872,"Min":13873,"Sur":13874,"Tube":13875,"ti":13876,"elle":13877,"Ġenrich":13878,"mercial":13879,"Ġrighteous":13880,"ceedings":13881,"ĠTechnical":13882,"Ġepidem":13883,"Ġturbines":13884,"Ġtears":13885,"aran":13886,"rob":13887,"child":13888,"Ġsignaling":13889,"ĠEuropeans":13890,"Ġconsistency":13891,"ĠPlanet":13892,"ĠDog":13893,"Ġwashed":13894,"ardless":13895,"Ġpermanently":13896,"Ġdragon":13897,"UD":13898,"cost":13899,"may":13900,"Ġrequested":13901,"Ġsatisfied":13902,"ppers":13903,"Ġrum":13904,"Ġprecautions":13905,"Ġmitigation":13906,"Ġtraumatic":13907,"Ġmas":13908,"ĠCass":13909,"Ġ130":13910,"ĠDE":13911,"Ġpole":13912,"Ġapproaching":13913,"Ġinduce":13914,"Ġdisplace":13915,"Ġnationwide":13916,"Ġprayers":13917,"ĠBuddhism":13918,"Their":13919,"Ġepisodes":13920,"udson":13921,"alling":13922,"Ġsubmar":13923,"Ġguilty":13924,"Ġframes":13925,"Ġregistration":13926,"FT":13927,"style":13928,"ĠWright":13929,"Ġranks":13930,"Ġresolved":13931,"Ġram":13932,"Ġedit":13933,"ĠNev":13934,"Ġcongest":13935,"Ġparental":13936,"Ġprimitive":13937,"Ġappropriately":13938,"ĠProtestant":13939,"Ġwhale":13940,"Ġafterwards":13941,"Ġmaintains":13942,"Ġmicroorganisms":13943,"olerance":13944,"Ġà¤":13945,"Ġcables":13946,"orical":13947,"Ġfool":13948,"iped":13949,"ryst":13950,"Ġletting":13951,"ĠCoal":13952,"oriented":13953,"Life":13954,"urities":13955,"ĠSA":13956,"ĠGab":13957,"Ġambit":13958,"Ġexamines":13959,"Ġcommander":13960,"doc":13961,"ÙĪ":13962,"owing":13963,"keeping":13964,"Ġcompelling":13965,"Ġvalued":13966,"scill":13967,"Ġdirectory":13968,"Ġpressing":13969,"Ġflowering":13970,"Ġobligations":13971,"Ġoutbreaks":13972,"Fl":13973,"Ġdirty":13974,"pler":13975,"aux":13976,"Ġpropri":13977,"Ġthreatening":13978,"Ġalternate":13979,"Ġreconstruct":13980,"Ġcompromise":13981,"ĠBaptist":13982,"ĠRenaissance":13983,"ysics":13984,"Ġfeathers":13985,"ĠSimon":13986,"Ġhorizon":13987,"Ġcrystals":13988,"ĠLesson":13989,"Ġtrillion":13990,"Ġvariant":13991,"Ġemployer":13992,"limited":13993,"ĠTa":13994,"otle":13995,"illes":13996,"Ġwounded":13997,"Out":13998,"fu":13999,"heum":14000,"ouch":14001,"ioned":14002,"ĠLanc":14003,"Ġformerly":14004,"Ġsocietal":14005,"Ġalpha":14006,"Ġoccasional":14007,"Ġexcluded":14008,"Ġberries":14009,"ĠLtd":14010,"Ġproposals":14011,"ili":14012,"ĠMas":14013,"illary":14014,"ĠBor":14015,"Ġrust":14016,"ĠFat":14017,"ĠFunction":14018,"ovid":14019,"Ġbreeds":14020,"ĠImages":14021,"Ġbreakthrough":14022,"Ġceiling":14023,"Ġreflecting":14024,"Ġsnack":14025,"Ġpetroleum":14026,"Red":14027,"Ret":14028,"Ġoct":14029,"ĠDur":14030,"olding":14031,"market":14032,"Ġinventory":14033,"ĠÎ¼":14034,"Ġfungus":14035,"Ġrestaurant":14036,"Ġpredominantly":14037,"Does":14038,"rative":14039,"Ġ`":14040,"ĠBurn":14041,"ĠDal":14042,"phy":14043,"Ġtransaction":14044,"Ġposture":14045,"ĠPatrick":14046,"Ġsufficiently":14047,"ĠMethods":14048,"laim":14049,"anic":14050,"imore":14051,"ĠED":14052,"ĠEV":14053,"Ġdozens":14054,"Ġperceptions":14055,"ĠYe":14056,"ĠConsequently":14057,"Ġconception":14058,"Ġmitochond":14059,"Ġsanitation":14060,"ĠCurrently":14061,"Ġastronomers":14062,"kg":14063,"report":14064,
[...]
